[PAD]
[SOS]
[EOS]
[UNK]
[MASK]
[CLS]
[SEP]
<usr>
<sys>
<unused0>
<unused1>
<unused2>
<unused3>
<unused4>
<unused5>
<unused6>
<unused7>
<unused8>
<unused9>
<unused10>
<unused11>
<unused12>
<unused13>
<unused14>
<unused15>
<unused16>
<unused17>
<unused18>
<unused19>
<unused20>
<unused21>
<unused22>
<unused23>
<unused24>
<unused25>
<unused26>
<unused27>
<unused28>
<unused29>
<unused30>
<unused31>
<unused32>
<unused33>
<unused34>
<unused35>
<unused36>
<unused37>
<unused38>
<unused39>
<unused40>
<unused41>
<unused42>
<unused43>
<unused44>
<unused45>
<unused46>
<unused47>
<unused48>
<unused49>
<unused50>
<unused51>
<unused52>
<unused53>
<unused54>
<unused55>
<unused56>
<unused57>
<unused58>
<unused59>
<unused60>
<unused61>
<unused62>
<unused63>
<unused64>
<unused65>
<unused66>
<unused67>
<unused68>
<unused69>
<unused70>
<unused71>
<unused72>
<unused73>
<unused74>
<unused75>
<unused76>
<unused77>
<unused78>
<unused79>
<unused80>
<unused81>
<unused82>
<unused83>
<unused84>
<unused85>
<unused86>
<unused87>
<unused88>
<unused89>
<unused90>
<unused91>
<unused92>
<unused93>
<unused94>
##이
##있
##1
으로
##대
에서
""
##기
##2
##지
##수
했다
##전
##사
##한
##가
##것
##시
##등
##있다
##정
하는
##제
##그
이다
##'
##경
##주
##보
##중
##아
하고
##공
##""
##인
##국
00
##3
##위
##자
##부
##오
##상
##일
##다
니다
##하
##서
##유
##관
##조
##나
##모
##개
##연
##최
##소
##고
##의
##비
##내
##선
##신
##‘
##발
##미
##여
##해
##구
##4
##5
##20
##통
##있는
한다
##마
##강
##“
이라
##동
##김
##현
##방
뉴스
##세
었다
##영
##만
..
##기자
##예
까지
##도
##말
##성
##안
##않
##[
습니다
##실
##진
##우
##어
##교
##지난
##원
##스
부터
##무
##장
##문
##때
들이
##없
...
##후
지만
##6
##바
##추
##재
##대한
면서
##따
##특
##분
에는
##결
##생
##매
##것으로
##"
##201
##계
##불
##19
##출
##거
##밝
된다
에게
##당
##반
##받
##확
적인
##서울
##회
##또
##(
##차
##노
##7
##올
##박
적으로
##10
##설
##열
##한국
##위해
##8
##남
co
##참
였다
##금
##=
##입
##밝혔
하기
##포
##및
##단
##증
##적
##더
됐다
##건
##되
##프
##감
##9
##밝혔다
##알
##총
##새
##파
이라고
##많
##통해
하게
들의
##운
##투
다는
##배
##역
##달
으며
##행
들은
##외
##함
##200
##같
##평
##직
##과
##청
##학
##작
##요
##말했다
##판
##저
억원
##높
##피
##물
##임
##활
##초
장은
##대표
##명
##한다
##대해
in
##미국
위원
##두
##들
##화
##앞
##민
##양
000
통령
##지역
##때문
##본
##S
자는
##게
##산
하다
##할
##함께
았다
##각
),
##집
##점
만원
에서는
##했다
##정부
##종
##북
##업
20
##이번
서울
##관련
##검
##삼
on
##경우
##대통령
##체
보다
##11
##중국
에도
##이어
##가능
장을
##사업
er
사를
##12
시스
##위한
##변
##이상
##지원
##필
##목
비스
##사용
되는
##등을
##진행
##광
##관계
##간
##따라
리는
##이후
##규
##협
##환
##처
##C
##못
##독
##법
##맞
하여
##호
##심
##취
은행
##리
연합
##합
##것이
회의
##세계
도록
하지
기를
##국내
##의원
시아
기업
##일본
##같은
##사람
##데
##약
##코
ew
학교
##기업
com
졌다
##문제
##크
##아이
라고
장이
##지난해
##현재
##충
##A
##뒤
en
##시작
##이날
##하는
들을
##치
##채
##손
##창
##가장
하며
##카
##국민
대로
이나
##예정
##살
##에
##투자
##속
시간
레이
##경기
##우리
##후보
##경제
##제공
##30
스트
##프로
.1
##15
입니다
겠다
라는
ews
##뉴스
##타
##군
##아니
##계획
##올해
##들어
an
##논
##이용
kr
마트
하였다
는데
##표
뉴시스
사업
##태
##줄
##순
리를
##시장
##L
경제
##그는
##오후
하면
##돌
지는
##복
##교육
##늘
is
르면
되고
리고
##음
##브
리아
##K
##삼성
##최근
시장
##드
##서비스
##때문에
##승
해야
##개발
##다른
성을
##18
##오전
##담
##필요
##메
##근
##것은
##농
##권
##좋
##것이다
센터
##연구
##▶
##그러
##기록
자가
##디
(1
지를
##운영
##편
##설명
##대상
##큰
##다양
##된다
##I
##모두
##특히
이고
력을
##형
or
##로
##▲
##발표
##따르면
##찾
##접
##전문
##온
ar
##만들
##완
##하고
랜드
서는
##증가
##토
사는
.2
##홍
##국가
성이
했습니다
##금융
##판매
##결과
하면서
연합뉴스
운데
되었다
##최고
기에
##항
##있어
이라는
##넘
##폭
##번
##준
##라
##열린
위원회
##M
##나타
##다음
##부산
##언
##경찰
사가
ti
le
##자신
##16
##상황
지고
##애
##가운데
들에게
##없다
##c
##갖
##참여
했다고
##야
##등의
##눈
##것을
##13
##0
##많은
##다양한
##절
##사회
##추진
##:
##글
##발생
##제품
##식
##누
##걸
화를
##14
도로
이트
##북한
##하나
news
##현대
##첫
상을
##T
##효
0%
##전망
##향
##네
.5
##100
페이
##생각
##급
정을
##17
ent
##기술
자의
##베
주의
##하지만
교육
##최대
##철
##기준
##있습니다
머니
##측
##☞
##게임
으나
##축
##전국
##트
##알려
##친
##책
로운
##잘
##용
##관계자는
se
al
##날
##백
##정치
##규모
명이
##허
##상승
리가
##공개
##커
부는
대표
##또한
는다
##국제
##조사
##패
거나
병원
기가
기도
##사실
##벌
##확대
##등이
##이에
##【
##스마트
이는
보를
##포함
201
##천
##될
##Y
##버
##25
지역
##N
##-
##곳
이며
났다
##출시
.3
되어
##씨
##확인
##낮
##P
##평가
##국회
##마련
##당시
##기대
##예상
##그러나
바일
##내용
도를
##활동
사진
##오는
일까지
##다시
##고객
##질
민국
##여러
##B
%)
산업
들과
TN
##한편
##없는
##예정이다
##가격
##시간
##결정
##인터
##대학
##주요
##황
에서도
문화
un
원은
일부터
##보고
##문화
연구
##24
la
사의
##추가
증권
기관
th
왔다
()
그램
자를
기는
했고
##힘
명을
##이를
##사이
라인
##`
##구성
##여성
##교수
##D
데이
##오늘
##이유
##면
##민주
혐의
이라며
##정책
##개최
##YTN
기자
위를
##모든
가는
.0
회를
##학생
인다
##월
##강화
##아니라
##중심
30
.[
식을
##테
##수준
##분석
##일부
##피해
10
처럼
년에
##대비
##해외
나라
동차
##송
##전체
##방문
##참석
##동안
##199
정보
##있도록
km
업체
##매출
정부
기로
##사진
리스
.4
##지금
누리
개월
했던
##안전
##처음
##혐의
##직접
##강조
##실시
##많이
##F
##막
##소비
##이미
##플
치를
##주장
tion
##이런
전자
다고
re
##핵
##f
##끝
관리
##클
##빠
##영향
',
##성장
##쓰
투자
안을
##생산
인이
##대한민국
##요구
로벌
##경쟁
##개선
##있으며
제로
##지적
.6
##선정
##모습
##21
지원
##G
##성공
##사건
##산업
그룹
ht
##높은
##영업
##윤
##있다는
50
##공동
금융
##볼
##22
기술
##잡
분기
##기존
.7
##새로운
##지방
한국
##휴
##길
금을
##있을
##중요
##△
세를
##모바일
##있었다
.8
민주
자인
##떨
##일반
원이
##지속
##별
te
일보
##<
.9
##시민
##하락
도가
##설명했다
##주민
명의
##관심
##범
ig
##선거
##23
##프로그램
신문
누리당
권자
##각각
"""
렸다
##비롯
##즐
원을
케이
##활용
##수도
달러
##받아
##/
##E
##육
1)
##탄
##거래
##갈
BS
##방송
한다고
##정보
##검찰
파트
(2
개발
##레
##《
장에서
##특별
##위치
##사고
##설치
이었다
##적용
기사
##폐
##바로
##않고
##27
##도시
##외국
장의
##떨어
##상품
##26
어나
##28
롯데
##울
##존
##계속
##얼
씨는
##침
##장관
##개인
##기간
##분야
##홈
##어려
으면
##계획이다
##받고
##희
##참가
시에
라이
##상태
ment
##왕
##극
스는
##콘
사에
##이름
##정도
시설
##탈
##효과
##해당
##이는
##있다고
대를
##글로벌
##골
##관리
##50
##영화
##악
##키
##있었
##그리고
##긴
##유지
근혜
부분
##환경
##또는
##않은
##등에
주는
##대상으로
##학교
사회
인트
##새누리당
시키
##블
하였
##응
드는
##느
##준비
력이
##인천
시는
자로
원의
##잠
##우려
##스마트폰
##유럽
do
년부터
단체
의를
##있고
##만나
##건설
##과정
##29
제를
##업체
작권자
##맡
##조선
##구조
##밀
##발전
리에
##먹
##브랜드
##미래
##수출
##만들어
##뉴
##캐
##뜻
##난
이어
##보도
수를
##놓
##몰
##중소
##제주
수는
점을
##업무
하겠다
##}
##됐다
가지
##공급
인은
##된
##LG
하기로
해서
##수익
##중앙
##기능
진다
##{
##대구
##보인다
년간
##최초
했지만
투데이
##건강
##크게
수가
##발견
인의
##관광
료를
스타
##병
##부분
동을
##생활
거래
##찾아
24
##공식
##감소
##의미
##경영
##시스
##등으로
본부
##자유
장에
el
##적극
##선보
권을
##행사
to
##얻
##가족
ch
##따른
동안
##귀
##도입
##광주
이익
##목표
##차량
##압
##핫
등학교
##40
et
##위원
국의
##역시
##고려
##신청
자들이
환경
##평균
##인사
랑스
##어린
##떠
##시행
##자신의
##때문이다
##되었다
##대부분
##더욱
했으며
벤트
##198
방송
장과
TV
지가
##롯데
##ᆞ
##이뤄
인을
##시스템
##책임
##러
조사
##기념
##앞서
도의
대의
##모델
선을
##2012
##없이
##정상
##스타
##만큼
아시아
##엔
19
##SK
##그런
it
##아파트
로부터
되지
##역할
##방법
##코스
##돈
##석
되었
##실적
##터
##물론
##기관
##조성
세계
렇게
%,
##내년
##독일
통신
##전문가
##풍
##지난달
약을
##제작
원에
##논란
정책
도시
##R
##확보
##전략
대에
──
##작품
##않았다
지에
##받은
치는
##사망
머니투데이
##~
사와
르는
서를
포츠
##집중
합니다
부를
##2013
##몸
##이벤트
대학
냈다
세요
도는
##그의
##2014
##영상
##예산
##봉
##돌아
##좋은
##풀
##은행
##보여
##&
##나오
##전했다
너지
de
##2011
##강조했다
##않는
과학
##은
##자동차
##s
##2015
ul
##싶
##차지
).
##의견
##인터넷
##머
##2010
##이야
로는
일리
전을
##H
.""
##팔
스를
BC
대회
##대선
##엄
##무료
하려
과의
##TV
##판단
na
##설립
##선수
혁신
건설
##와
##이동
ss
ction
##촉
##협력
겠다는
##인정
##죽
##즉
##아닌
밖에
##노동
##혼
ight
이었
60
##31
##논의
부가
ic
ing
라도
##만에
경찰
디어
##해결
##숨
##이전
##온라인
##회사
어난
##공연
반기
(3
##어떤
##제시
##의원은
한다는
##박근혜
##앞으로
##통합
##컨
스크
##상당
##국정
##펼
지방
##방식
프트
##대응
정치
##답
##부담
##강원
##대표는
물을
##뿐
협회
##대형
##영국
##쉽
ww
##j
##드러
스터
일에
##착
##프랑스
##2017
의회
##마음
st
##주식
www
##주택
##행정
##선택
장으로
##받았다
##하루
대가
op
(4
계를
##팀
##조직
##되는
##격
newsis
##지급
업을
스의
개의
공사
##본격
##청와
indo
##가입
##결국
(0
##구축
##달러
##캠
아이
이낸
##전달
##품
##직원
##나타났다
##2016
##페
##제기
학생
이터
##p
##민주당
##v
보험
##끌
가구
##퇴
무원
il
##둘
##원내
서비스
12
펀드
종합
오늘
##경기도
##배우
##헤
##출신
주택
##있지만
회사
##뛰
카드
##자리
##진출
##사무
원에서
##어린이
##전년
##먼
대한
규모
##수상
,000
##전시
##대전
##자체
동산
##반면
##암
관련
##방침
움을
##지지
##)
##지정
자리
##체결
중앙
70
##우수
기의
복지
##비판
페이스
상이
국민
(5
선거
##서울시
##주변
##U
가가
이자
am
##음악
##가능성이
);
대학교
##분양
생활
가를
##헌
감을
##갖고
oo
##인기
##아시아
포인트
##수요
40
##지하
)'
##안정
##러시아
쇼핑
##비해
들도
##덧
##녹
##않았
##공공
위는
##알려졌다
분의
##연결
][
지로
##자연
##신규
##의혹
안전
##증권
##소속
##의료
기간
##th
##사랑
##공격
##중소기업
##아직
##넘어
데일리
워크
다가
##언론
##이루
##구매
##기다
자들의
니까
##핵심
성과
문을
와의
스가
%),
##돼
11
##교통
전히
##의해
...""
##전자
##인수
##중심으로
##검토
스코
##2008
부에
##겨
##징
겠습니다
##외교
월부터
##어떻
##홈페이
원으로
스로
##반대
있는
##수사
##합의
##보험
##병원
성화
##보유
라며
년까지
되면서
게임
##변화
##2009
##덧붙
마다
##노력
##인해
억원을
##영향을
이드
##왜
텐츠
##회장
부의
##번째
훈련
##높아
##치료
##기획
소년
##O
##기본
ma
##기반
이낸셜
##루
##비교
##개정
##체험
소를
##반영
##"[
##중인
##인근
##디자인
##이와
위에
##너
500
##주목
사로
##우선
##애플
##대통령은
##제외
##대출
##◇
제가
##미국의
보고
##이러
운동
##정부가
##각종
##오른
##나온
##소개
씨가
##낙
거리
대는
##지도
##거쳐
##붙
으로는
두고
##IT
##쿠
##어떻게
##성과
이지
정은
품을
##매우
--
,"
##위험
세가
##i
##최종
##내려
부산
##견
쳤다
##대신
##수입
##오픈
##회의
##꾸
인데
##제조
##전통
right
비를
##경남
##것도
##필요한
15
##보호
##울산
##종합
##역사
##않을
##만든
##계약
##현지
나는
##전쟁
관계
##금지
ho
##for
##인도
##같다
##올라
##경험
사고
하도록
##시설
니아
##◆
주시
##60
##보면
하던
##유명
80
##신고
##고용
##있게
##민간
##전해
##할인
월호
##있는데
이버
##불법
하자
##독자
##관련해
현지
하거나
##그래
회에서
##요청
##나서
지막
##여행
##$
##KT
리의
##희망
이낸셜뉴스
##구속
##형태
##잇
상의
대전
리카
##않는다
##대통령이
##중단
량을
##이해
##역할을
했다는
##이러한
##정부는
##섬
자들은
##없어
##항공
##했
계획
조선
##감독
##전환
##업계
##같이
##프리
##존재
림픽
학과
##졸
##부문
상에
만에
전문
##납
##공간
ta
##부동산
불어
##밤
없이
##추천
세대
##회복
25
##특징
##능
ur
##서비스를
치고
청은
##등장
르고
번째
18
지도
디오
자와
##강남
.”
##바이
##현장
관광
##J
##홍보
##관한
러스
##이사
##국회의
##않아
##연속
장관
##받을
영상
ed
정한
##덧붙였다
율이
이가
##제출
##그룹
##비용
##퍼
##문제가
fn
##실제
케팅
##국방
##아니다
평가
##인구
##향후
##것이라고
##삶
##혜
되면
하기도
업계
##정부의
##가까
차를
##부족
)’
회가
##가지
##반응
##마지막
##먼저
##시각
##전기
명으로
##하지
##과정에서
##몇
페이스북
량이
이번
##등록
##재정
##사전
이를
##통한
##대책
##광고
##W
레스
항공
##히
##197
재단
##앱
##표현
로서
대책
##원내대표
200
##담당
재인
##처리
##가능하다
##티
##한다는
앵커
##제한
##지나
##탑
음을
##이같
##혐의로
##기록했다
##보다
되며
##이렇게
시스템
##2000
##과거
사에서
##재판
##슈
들에
##나라
##유통
립니다
##중요한
##있던
##국민의
##흐
##위치한
아시아경제
##o
정이
르게
##동시에
##저작권자
##맞아
##보는
##더불어
]▶
##통신
##시즌
mu
제는
##청와대
##발언
##외국인
촬영
##장애
발전
##움
##방향
이기
국제
##대해서는
월에
##두고
##빌
##상대
##결혼
##비롯해
##우리나라
수의
##1,
yna
젝트
프로
회는
##앞두고
하이
##투표
성에
리지
##확정
##운동
##겪
##맛
공단
갔다
실을
##다만
율은
원과
리와
##이들은
##보내
이션
NS
mm
##중이다
##전날
##어렵
##긴급
##종목
##혁신
##이상의
##통과
##뉴욕
명은
##영업이익
##́
으로써
년에는
##인상
##파이낸셜뉴스
##사례
린다
하지만
성은
의도
위가
##달리
##단체
##빈
##전남
lement
일을
섰다
##+
##과학
##창업
##좌
었고
임을
##어느
##변경
중한
##300
##건물
##자료
바이
##측은
##전용
##V
##신용
##싸
##제대로
##예방
##2007
##출연
##최소
하다는
mula
##되어
##지적했다
##그동안
텔레
5%
##보였다
랐다
##접근
행을
##뉴시스
제품
##공감
##기초
##재배
##불가
##국립
에게는
##확산
##마이
##이들
13
주가
##도로
##듯
##움직
구를
##주장했다
롭게
##불구
액은
##500
##가지고
##컴
##입장
##홈페이지
만원을
##jindo
.5%
##가진
플레이
##규모의
마을
##되고
회견
16
군의
화점
화가
##장기
##소재
##방안
##푸
##숙
lo
##대통령의
활동
시켜
##위반
지털
치가
##감사
닷컴
지지
경영
##삼성전자
##카드
##옮
인으로
##당선
##소비자
##콘텐츠
니스
##조정
##비중
##솔
14
##워
]☞
##이달
##촉구
자산
##줄어
##formula
삼성
##무단
##문제를
웨어
인터
##있기
##이탈
서도
##주로
##이하
##사태
성장
##색
##분위
##회원
Element
주년
##바람
##흔
식이
현지시간
소득
##인터뷰
##얘
움이
별로
##누구
언론
로드
므로
##연합
##비롯한
다운
##제안
저작권자
##강력
우리
상품
##받는
코리아
회장
##대변
공항
##졸업
##처음으로
##자금
##청년
식품
지의
##놀
es
##에너지
관련기사
##잔
리즈
##전투
하는데
##공모
##모습을
페인
unction
##내놓
##마을
##경북
##않다
서관
he
##기자회견
민주당
##깊
(6
년대
경기
##국무
##너무
(""
##내부
17
##기사
라마
노동
##196
##필요하다
##열고
##가능한
조정
느냐
##사업을
도에
회에
##꼽
##프로젝트
이지만
##알고
##라이
국은
##활성화
하우
##여름
구조
##70
##좀
##채용
됩니다
’,
##딸
간의
실에서
##작업
이데일리
##b
##비슷
##호텔
##세종
##혜택
##경찰은
##해야
단을
##레이
##국토
지구
##추정
##제보
스토
시가
##나가
##얼마
케이션
##취업
##꿈
갤럭
##전망이다
ro
군은
##찬
건을
보는
철수
##싱
##선물
ad
##이끌
##데이터
##망
##독립
비아
지면서
무리
##사상
가족
##수행
갤럭시
##var
##1000
##대한민국의
##하이
##벗
##모집
##아래
##파악
##마케팅
##점을
##관심을
##불과
자동차
분을
##축구
##대체
##정확
연금
기와
##계열
##둔
sp
##염
부와
이사
협력
##작은
##구체
동아
이스
율을
##세월호
으로부터
에선
##거의
##겸
##투입
##정도로
ap
대비
##입장을
opy
##수술
21
##여의도
##근무
##무엇
위터
국이
관에서
점이
##아버
##유치
란다
기준
##것이라는
에서의
##서로
opyright
##사람이
##작년
90
##주도
교통
##근로
화된
억원으로
bo
##마감
##변호
격을
##늘어
TA
##없었다
##전북
##청소년
##바탕
##등은
트워크
##공무원
지난
##기준으로
##최초로
포토
드로
##복지
##점검
##공시
##맥
##보이고
##남성
더라도
##여러분의
##덕
##출발
됐습니다
##깨
##자세
##자산
##공정
##청구
였던
##매각
##액
ong
##이른
위로
##남아
##빨
당이
위원장
##현대차
관은
##달라
##충분
##원칙
##친구
##옥
##갑
인지
##언급
##가정
##못한
자에
##여야
##건축
##그리스
22
##194
##시험
러운
##슬
('
##다음과
률이
##활동을
제의
었던
##열리는
##브라
##n
연구소
##넓
##내용을
##나선
##곡
스포츠
이란
##남북
##살아
관을
##주는
##삼성전
##100%
후보
##한다고
##매년
##그렇
예술
##부정
##회장은
.(
##문재인
##스포츠
트를
##토론
단지
();
##사장
##선언
##여전히
가의
##하면
당은
일이
통합
##방안을
##단계
트로
##제보를
테크
ce
자금
왼쪽
하였고
##공유
at
##젊
2)
마켓
##예비
법을
##정보를
공업
주를
##밝혀
란드
##교수는
오는
##칼
##이것
##어려운
##차례
ate
보다는
##영역
##걸쳐
리기
안에
##목소
im
차례
##정신
lass
##this
##선고
##,
##예상된다
##이야기
중국
##배치
##그대로
##방침이다
##빼
증을
단은
Co
##코스피
##뇌
직원
##인한
##예술
##많다
id
.1%
##밝혔습니다
##넣
##콜
프라
##이유로
##쉽게
##음식
##발행
##기다립니다
.3%
월까지
##"""
##임명
오늘의
대출
##대규모
전략
투자증권
##최저
##│
##웃
속도로
##김영
##특허
하라
##탐
##조금
##개혁
사일
##소득
##듣
##일정
씨의
화에
##이루어
##기여
##어디
##보건
##흑
##비상
##상장
##좋아
##w
문에
##니
##선발
##웹
##곧
가격
.2%
요일
##택
과정
##이제
##만화
##현실
##따라서
##달성
##낮은
대상
##사회적
등급
##설계
##뮤
전에
##월드
##발표했다
##2006
##궁
점에서
##눈에
인과
특별
##얼굴
다면
시켰
##제도
어를
##연구원은
##흥
23
당의
##매매
리로
##그녀
##일이
##엘
##받았
##소중한
##소송
##수도권
##스스로
##우승
ank
체육
##화장
반도
##일으
##하였다
만의
##겨울
##총선
##아울
##열어
##획
##북한의
자치
##아들
.4%
##채권
보호
##의견을
##대기업
##촬영
##충남
##쪽
##그것
호텔
과는
했을
##News
##일본의
##폴
##여론
##의원이
##군사
##자기
했으나
스와
##아침
내는
##냉
##봄
##익
##이탈리아
##베이
##상대로
us
##자동
적을
.7%
히려
률을
##둘러
##씨는
##유일
##놓고
지수
진을
물이
으로서
위의
ge
'(
해양
구역
진흥
26
관이
##바탕으로
##거부
세기
##충북
선의
.6%
드에서
드를
##벌어
구의
nt
공원
매수
##올림픽
현대
ay
##노조
##35
조합
##상담
감이
회담
##오늘의
##연간
##통일
##못하고
(,
##핫뉴스
────
##벤
법인
##지금까지
부문
##출마
##실제로
##80
##행복
##네이버
IS
만큼
일본
##왔다
학년
##지역의
웨이
##사실상
##기소
수록
지와
##관광객
##패션
.8%
##케이
##포함한
(19
시의
28
##프리미
##혈
##고민
##늦
있다
트남
##혹
##읽
ia
##한나라
차가
##195
##훈련
##찍
##바꾸
##판결
##구입
##취재
##맺
시민
##후보는
##부모
##술
##관심이
##불안
##믿
시키는
TE
##이재
스럽
##갈등
##팬
주고
##수석
##규제
##취임
##발생한
무를
##m
##스트
심을
##영어
##신뢰
##대회
##사실을
##주제로
스티
##제품을
##시작했다
군이
27
##연계
##꽃
##나왔다
단계
##끊
가기
##타이
##시도
##정기
어요
##새정치
준다
100
##대표가
##아울러
##아이폰
버스
금은
##입주
##지켜
씨를
##피부
##형성
단의
##정당
##잃
##36
##사람들이
하나
##임대
##국민일보
##지속적으로
##약속
##출범
##실패
##33
##억
##이번에
##소방
##젊은
.9%
량은
개혁
보니
##차별
##주가
##이용해
식에
##자녀
##집계
##언제
##앨
EO
##시절
##창출
##보안
받은
##안에
체를
##보기
##묻
##참석한
소가
거운
##협의
ib
자에게
##펀드
개를
파크
기구
자원
리그
##명의
##지원을
연구원
##디지털
##if
산물
럼프
##그런데
##심각
하겠다는
##쌓
##금리
리오
퓨터
감독
##대중
fnnews
##실시간
##오히려
시킨
##전에
##재배포
금리
키로
##정권
만을
ED
##제공한다
##중국의
##꾸준
##시청
##시대
프리카
##매일
##위협
카오
##상반기
and
##보수
##결과를
##일자리
동에
라우
##태양
춘천
29
##정의
명에
##전면
더니
##낸
피스
북한
##해양
##'201
제도
##노래
##d
률은
##전화
개국
##접수
##업종
##김정
##이익
##초청
선이
텔레콤
##상황에서
kg
대구
적이
고를
했는데
##여기
tp
##것에
봤다
##공사
##위해서는
단이
##땅
?""
나무
##주의
##만드는
cm
수로
기획
##평화
##function
##가능성
##구간
##소통
##특정
겼다
##지분
##반발
##통화
##돌파
##재산
##한국의
메라
##유엔
##지구
##드라마
##빛
##발표한
##유로
##마무리
가고
//
##최고의
긍정
소에
.'
##하며
##컬
##넘는
##합니다
##범죄
주로
##2005
리케이션
##법률
##못했다
##조치
소는
시를
##앞에서
##시리즈
상은
##규정
##이곳
의원
##대화
수수
##잘못
##이름을
##가져
##SNS
호를
##다운
함을
대에서
##휘
ll
##·
계약
##기능을
비가
##빚
IT
##단순
##철도
리한
##그림
##초기
영화
결과
##살펴
##수원
##하반기
모델
##인하
5000
세로
##사라
장애
##리그
://
##특수
뮤니
http
##편의
##연예
리핑
##안철수
부모
##식품
##도움이
##흡
##말한다
##이같이
스탠
##쇼핑
안이
""...
엑스
일에는
조원
##멀
##선임
##강한
국가
##운행
##나누
일로
##동반
시험
내고
경을
'...
##PC
##경우가
##자본
부장
##신설
##알아
##임시
지사
##보장
ue
루션
##집행
억원의
##부인
##전반
##h
##절반
##제공하는
##국회에서
##늘어나
널리
티브
##헌법
##펼쳐
35
##CJ
길을
겠다고
릭터
##자신이
##바다
=""
면을
##프리미엄
##사과
으로도
##노출
항을
##중구
사무
ve
##긍정
##아무
##그래서
##묘
모바일
먼트
으면서
MS
사인
성의
!!
판매
##혐의를
##보통
##검찰은
##구글
졌습니다
##주말
##많아
##셈
##50%
##■
어로
##페이스북
금이
##거주
##만족
##등에서
##때는
##등과
##돈을
##베트남
##명예
##분류
(7
##폭발
##첨
##검사
##완료
##총리
장인
드시
해를
##되면
받고
##작용
##휴대
##힘을
랫폼
##관람
##대우
##연장
##발사
##지상
##해석
##없다는
##운전
##기온
ir
##아름
##대학생
##맞춰
##인식
대통령
~3
##나머
##헬
##34
##이유는
형을
인사
##신한
웠다
##것과
##필요가
세는
##올랐다
##인증
이에
회의에서
안의
##말을
##여자
##행사를
##소유
##지하철
재를
수익
##기부
역을
##쌍
체가
총리
##불구하고
됐다고
##메르
mo
##쏟
만이
##발굴
질을
##끼
##일을
ation
##케
비용
##갤럭시
##조합
##인물
##사이에
##보도했다
##방식으로
##수는
##관측
신을
##완성
##그가
크로
##류
##밝히
호선
##모양
동의
함으로써
##의사
종의
다른
##증가한
##수밖에
자료
분야
==
##매수
##직후
우는
##알려져
##외부
##10%
##플레이
##캐릭터
##다음달
##쓴
당을
##e
##테러
##새로
받습니다
##진입
##조건
해도
##도전
##해도
##뉴시스가
##KBS
##센
##최신
ver
##사이트
##하다
##개막
##탑재
##돕
##근거
##뒷
##공감언론
##주최
##나온다
##내린
(-
##네트워크
##수가
##전력
하겠다고
##인간
명박
##단지
##감안
.0%
##좋다
##제보받습니다
##잇따
자들에게
##나섰다
##재무
##연방
##t
들어
##후보가
운영
##불편
인가
##인기를
##화재
##사퇴
----
##기업의
##효율
서울신문
##수용
수도
##대법
##무역
##효과를
##고급
##블랙
로를
##45
gy
##떨어진
##가구
##시작으로
##주인
진이
##연기
받아
되기
##다소
EW
##시간을
##즐길
바마
주민
사랑
점으로
##의무
##허용
##런
##빅
협의회
포트
##명이
##완화
스플레이
##친환경
##연말
##아이뉴스
##부사
##인권
시대
##뜨
as
##사용할
##반드시
##개편
려는
)[
##의한
##감염
##32
##부여
명과
##공천
##전혀
##유출
##장관은
적이고
36
투표
남도
##기술을
##커피
들로
공동
려고
##기상
##당부
##타고
##해소
의료
""▶
ist
##확장
##쉬
##어머니
##뽑
##지역에
##37
##경찰에
##컴퓨터
속보를
##동일
##시간이
력과
##트럼프
전이
iz
분이
만원으로
철도
기고
##2004
##작성
##38
##도쿄
##늘어난
##밖
##증가했다
main
##뉴스스탠
##맞는
백화점
##...
IC
##융
##논란이
##이슈
##조기
화학
시장에서
##주고
##위해서
##소프트
##이틀
##쇼
미국
##끌어
광주
일은
축은행
98
여명이
정의
##한번
##점에서
럴드
약품
##자주
##종로
##반도
중에
##봉사
##육성
##이미지
##시장에서
##챙
이너
정에
##고위
초등학교
하려는
스에
##프로그램을
##k
##〈
억달러
##샤
##서울대
##공화
##하기
##지식
##발매
##주거
제한
##선출
하다고
##사장은
월드
차는
##징역
##시장의
##지키
seo
교육청
서에
ab
리트
##한미
##비난
##|
##남편
활동을
##지배
##높다
##경상
##MBC
##코스닥
댓글
ut
##기타
##KB
##밑
##주관
##상황을
신청
##취득
상으로
##얘기
일간
##도착
조를
규직
##더불어민주당
##노인
##옛
면적
건강
해진
ser
##나와
##국회의원
34
##구성된
##보이는
EC
##빠른
ct
평균
##주력
사이트
수사
권의
PC
##원하는
##성폭
,(
나다
##후원
##작가
##확인할
##관련된
북도
금지
##데뷔
##시장에
##주문
##강원도
박근혜
##괴
##꼭
없는
면서도
##뛰어
##나타나
구청
최근
운드
##진단
##안보
##y
##적발
##폐지
##©
##진행된다
##여기에
##남자
##re
##채택
하였으며
##안에서
##위안
##맞춤
##시는
##갖춘
##추가로
ang
되었고
In
##높이
##오래
##상호
##횡
식으로
##안내
운용
##가치
##플랫폼
는지
베이
현재
##운용
##이정
##상임
##아동
##천안
fo
##수수
소프트
년생
건축
소에서
##표준
##메이
##습
##던
##있었던
##동부
##환자
##측면
dex
##대북
었습니다
##바뀌
##보이
##이용할
##사람은
중공업
아가
OS
액을
##20%
비는
시티
##진행한다
수원
생산
1.
무역
점은
##사는
공개
액이
인천
##선진
##비슷한
##흐름
##급증
##센터
##외환
주식
행정
류를
공간
...'
##자격
##30%
##문제는
상황
##새롭게
##들어가
##가는
##실질
##됐
점에
어야
qu
##가슴
##응답
FA
##기아
##단일
##소설
##해서
르크
라면
##체포
##현금
##걱
계가
##수주
##불러
명한
지에서
시부터
##가수
트는
##객
##했습니다
##농업
##등도
어도
##뉴스스탠드에서
31
##2018
##대표적인
##왔
제에
##그린
년을
##늘었다
##경향
##한나라당
티즌
##시장은
##반응을
##기회를
검사
직을
##거듭
량의
##시장을
##갖추
##관계자
##당초
르기
##김종
선에
##커뮤니
##옆
##전해졌다
론을
만명
##세상
##건립
##검색
##이내
##Copyright
##자리를
자체
인들이
시켰다
년의
##담은
##보니
##배경
##아르
##포스코
##슈퍼
코스
##내가
##실천
)·
##150
자기
위원회는
##최고위원
##이외
봉사
##간담
##동아
##부진
##축소
시킬
##처벌
##주차
##홍콩
##밝힌
올해
##방문해
구는
##메시
전재
##앨범
Se
##효과가
계의
##동물
가스
우고
분께
니어
##기자회견을
##※
##삭
문학
력은
민주연합
##철저
마이
##살해
##나머지
##열린다
##하는데
##속에
300
##연출
가로
##피해를
물관
##향상
구가
플러스
적이다
도와
안은
##권한
##교체
##원을
##조사를
##강력한
##짓
##교과
##마찬
스마트
작용
##in
##집단
만달러
##복합
##중에
##가을
##구제
##제거
##합병
당한
2-
##가격은
##욕
##북한이
##충격
회의를
##동해
에만
생명
##신경
##골프
##급등
##크리스
제공
##알려진
##하나로
##없을
##종교
##마찬가지
##옷
대와
##포인트
##48
기기
##SBS
##도움을
##쏟아
##뜻을
##모아
스러운
##혜택을
##개통
##자원
생을
##부과
##심사
##브라질
##전주
##공시했다
99
어서
위기
##카메라
##뿌
##나오고
보면
##수립
##창조
’(
##오바마
##사용하는
##홀
##충청
수석
##로마
리어
여성
##▷
제주
##찾는
##짧
##꾸준히
##균
##무단전재
##서초
##내다
##기억
##나갈
37
##대해서도
##누리
##스토
##비행
##바란다
##즐기는
##평가를
##회장이
##책임을
##단독
##얼마나
##증거
comment
##그렇게
##들여
##미디어
##선박
##있어서
##of
##원자
년이
##되지
지컬
##저렴
##새벽
처리
##배출
리드
광역
##남부
##포함해
##충돌
##나는
##정치적
소비
##적극적으로
##에어
LG
##일어나
##흘
##한화
우스
##자세한
##美
##빠르게
##품질
이었던
노조
##비가
##우려가
즈니스
##말씀
##획득
##신문
으니
카이
권에
##지휘
##상위
권이
##실험
##정리
##합동
받는
##장애인
##성능
##유사
##요금
기능
##학습
쪽으로
멤버
이즈
##대폭
전거
##추석
##김성
##겁
##어제
##제외한
##성과를
##의심
##탄핵
"",
##초대
##파견
상승
##오르
'"
##하여
##시작한
##상대적으로
인터넷
##없고
##임금
##90
##위기
##이야기를
##보조
##다르
unt
##공항
##a
##선호
##신임
##차단
##혹은
##느낌
ON
##해상
사업을
##400
##실현
##아이템
라스
월에는
에너지
##쌀
kmib
##재미
##정비
##아내
##없다고
##벽
##대학교
세의
세에
##빠져
목을
##2,
38
##속에서
##답변
수산
##여부를
##다이
##웨
은행은
##운영하는
##미술
행사
##개념
세종
##계약을
net
류의
##취소
##생각한다
##곳곳
신의
영업
체험
li
밴드
##법무
##휴대폰
보세요
##이명박
##화학
##느끼
미디어
화와
국내
##트위터
2%
##협약
아트
##미리
연을
##윈
##리더
##정말
##적이
어는
##수정
##밖에
지수는
##벨
##과정을
##우리가
공화
##대변인은
##가까운
##유도
##국내외
##일단
ung
##비밀
mp
##뿐만
원전
범죄
##개설
##내용은
##이란
ri
##협상
##생태
ick
##경고
피해
##창원
##있지
어진
##지역에서
가와
효과
되었으며
적은
##포기
##예측
##행동
##2003
##표시
seoul
(8
##버스
##체계
간다
산을
시키고
##봐
이기도
##춘천
뿐만
려면
##계획을
##이로
유의
##셈이다
##점차
##옮겨
지게
##못하는
##부상
스탄
##민족
지법
분에
##자치
##나눠
##단속
았고
이하
구에
##아니냐
##부품
##상무
시마
##상징
##내에
##2002
등록
이의
box
당에서
##자살
##정확한
##문의
##꼬
문이
##분리
##39
경쟁
45
##악화
##특별한
##출석
##초등학교
##결합
##최우
##실종
매매
상담
었지만
대문
군을
##소프트웨어
기지
##김정은
치료
ital
##중간
받았다
##고양
##힘들
##내일
##가로
##채널
까지는
유럽
##공직
ood
테인
미나
##분석했다
##스마트폰으로
##매입
##굴
##걷
##증정
레이드
ck
##필리
학을
##일제
##구독
창조
트리
주기
##개별
##NEW
##동원
어가
기념
##이벤트를
##탓
##낮아
##가격이
재판
##저녁
##재개
식은
면에
##풍부
##5000
,"[
이상
##받지
##시내
자들
##압박
CC
##최초의
##FTA
##크다
##씨가
르트
ol
##무료로
##자율
았던
##특파
리며
##시장이
##교사
번호
##인력
##태풍
US
표를
##본격적인
클럽
##변동
3)
##반도체
##the
1%
##미사일
치면
안보
##이용한
단에
##이승
##부회
3%
울산
##것처럼
hoto
##동영상
ra
##월드컵
##호소
##솔루션
##44
##기울
##점유
"">
##아이디어
많은
현장
##전망했다
하고자
ery
##동기
축제
##극복
##상황이
센터에서
##것입니다
##class
는데요
##불리는
##전개
##관련한
정상
IN
##서민
##새정치민주연합
##성남
##오피스
os
원장
##이같은
##법인
여행
##했지만
##끝에
##무상
##삶을
##떠나
이면
지검
자들을
39
한다면
##등이다
전은
##야구
이슈
##증시
##들고
서트
##흉
##카페
##형사
조직
##국민의당
라우드
ide
##CEO
##가리
##희생
um
##55
##가능성을
##Q
##하나의
군에
##목표로
##강제
get
7%
이로
훼손
##계기로
##공장
##동의
고등학교
##캐나다
##멤버
##써
##훨
##문을
igital
독교
##활발
##완전히
##한반도
소로
건이
##분명
##만난
2000
##평소
ook
##사항
##역대
##수준으로
겠지만
##입학
##르
국에
##임직원
세포
##않으면
##거리
##GS
rank
##충분히
##엄마
##주인공
",
종목
##개의
##설정
전쟁
##개방
##공약
##사실이
주에
##스페인
sele
서가
보기
##인프라
##지시
##훨씬
CBS
##순간
Id
평양
##46
News
##정책을
##벗어나
##장비
이던
른다
##실무
##섭
##만들기
##하면서
art
##진술
##참석해
##복귀
##했다고
##반복
스테
##곤
##학부모
##꺼
##농협
cbox
##환율
렀다
##가동
##3000
##척
##190
디아
##공공기관
수요
##개성
##중요하다
##여객
체의
##출판
2,
##대기
##아프리카
##코리아
##기업이
##하늘
선은
##엔진
##이른바
##총재
##CN
##아마
##지원하는
됐고
##찾은
중인
55
##개입
##연합뉴스
무성
였고
고객
##후에
##차원에서
44
통상
##법정
##머물
였습니다
##결의
하세요
MW
##종료
##칠
##대부분의
##교황
전에서
##지진
##기획재
##나오는
##시스템을
##형태로
##출전
일의
만원의
포르
##누구나
##원래
##가까이
로그
##죄
son
##우주
질이
검찰
ranking
##앞둔
##제재
##화장품
##Digital
사관
##받아들
##구체적인
##덜
기금
##>
##취약
##역임
##부실
지기
##외에도
##불가능
##지자체
소의
##이때
##틀
##신속
##수학
싱턴
##실행
##바라
##몽
##NH
었으며
##확실
받을
##적절
##방사
##축제
##결제
##시가
##위에
질환
##마음을
##모여
##않도록
##내용의
보건
##기존의
법에
##테마
##야당
##연주
##상품을
##달하는
##아주
시와
##스위
포럼
##합격
##장학
국을
##페이
인민
9%
##석유
향을
보증
##때까지
치지
##도심
##특파원
순실
##보급
##공략
##가계
##기대된다
##내고
##시범
##서해
##눈길을
바로
span
##전문가들은
!'
분간
노트
상공
##다니
##셀
76
##블루
의견
##Copyrights
가능
##특징이다
네시아
##구현
##도발
용차
일과
pe
니터
)"
##싶은
##네티즌
##‘201
##호남
##파트
##인공
##다가
##곳이
##출입
##노력을
화로
화의
##줄어들
##유리
력의
설팅
##만나보세요
##내달
##자리에서
800
##승인
##해군
전의
##생존
##X
타운
동아일보
##초과
##활용해
##종로구
AP
##바이오
##매장
가에
행위
##부채
추진
##드러났다
지면
##애니
##진보
##개발한
##해운
##아버지
##강릉
##위원장은
건의
##특검
별로는
##나무
##유입
##차지했다
미술
했기
##제일
글로벌
키는
드로이드
신이
준비
측은
히는
##이웃
##]
##맨
령을
ull
씨와
MC
##이시간
##공부
식에서
##소형
##이처럼
##양성
체계
억원에
##시상
##넥
##내용이
##탄생
##한정
##등급
##이중
해왔다
##120
타임
4%
##경선
##까
심사
##교육을
##작업을
##댓글
##뮤지컬
##65
##런던
물의
##조언
##나의
PG
실장
##앉
##초반
##백화점
SK
헤럴드
보가
##총괄
##시기
배우
##방지
##그러면서
##바로가기
방을
8%
스에서
ame
##핀
##앵커
##참여한
##이행
her
트위터
##미세
##손을
##이래
스럽게
스티벌
'▶
년도
##김태
함에
##붕
상태
##선생
@▶
##명칭
##맞춤형
사이
시코
올림픽
##부처
##말이
판을
##이주
##수준의
혔다
##어려움을
##인재
##가량
##MB
77
유가
##보상
##라인
##경우에는
##필수
##받는다
개선
##적은
.‘
##김현
총장
##내세
##소녀
##IS
6%
인들의
##목적으로
##주재
##치열
query
##연휴
시장의
실험
##조치를
##빨리
##어플
담당
##외에
##==
##수치
##예약
95
##커뮤니티
84
파이
##많았다
tab
##가졌다
됐으며
##값
##직업
LS
터리
##착수
세다
33
##경쟁력
##서울중앙
해온
##조작
천만
##임원
OU
아야
gye
##규모로
##설명이다
이라면
##열었다
##뭐
##걱정
##따뜻
##본다
##내리
##사진을
##어렵다
예산
##비즈니스
##화제
됐던
##끌고
서의
조차
##있으나
채널
##명품
##성폭행
##자전거
##물리
고속도로
##겁니다
##필리핀
##신선
##카카오
람회
##당첨
##내에서
부로
##상태다
##통계
조건
##질환
##구분
##자료를
분석
##생명
##단기
자유
##검증
##우수한
실이
##풀이
##경계
적으로는
##못해
종을
##대해서
##분야에서
##수요가
장비
##현재까지
##청약
##동양
나가
vent
~5
돼야
##중부
차로
##쉽지
소송
##자랑
짜리
##승리
분양
##당부했다
##상황이다
아파트
##용산
##회담
##사건을
##절대
##게시
ub
##질병
##세워
혁명
##원전
수술
##쓸
##무기
##LTE
wel
##듣고
##2001
메이션
데이터
##간의
##앞에
권은
##심각한
##기반으로
##사업에
##포항
##청주
개가
##마친
##진행하고
과장
##기회
##준다
팀은
만여
##소환
##호주
##녹색
##후회
##적합
##질문에
##아우
##장착
##브리핑
##선보인다
##클럽
##보유한
마크
96
##든
##전일
테인먼트
##이들이
화는
션을
##메뉴
86
##차이가
##교환
이라도
DP
##로봇
인에
##조사됐다
인권
##이르
##제공하고
##제목
##하게
##거론
오른
##탁
주년을
##컬러
##점이
졌고
(201
##제정
대한민국
시까지
##강의
~4
ie
##낳
##손해
##편성
피아
사들이
##베이징
##업무를
##끝나
ore
##육군
##날씨
##승객
ald
NA
HD
##입찰
##노하우
##고통
85
##◀
##北
레일
74
##준공
##승진
##메르스
##건조
##부장
##오랜
##했던
만으로
고기
##왼쪽
##움직임
##시리아
##폭행
##올해는
같은
##中
##1990
##내정
##적극적인
##앤
##소셜
ail
##학생들이
IP
문제
-1
##도와
##고수
##대리
</
ak
##이상이
미터
.12
##전세
##미니
ine
##힐
##고발
데이트
과학기술
대행
##잉
화문
호는
##이종
##다이어
프로그램
lick
기록
tic
##유니
##회장의
고가
##행사는
국장
##교류
##사람의
##아름다운
##기계
##나눔
##이어질
##유동
이어서
##잇따라
멕시코
##산하
##숲
공연
]""
지주
가량
##김동
75
##캠프
ET
도에서
##득
피언
##양국
##활용한
##여수
음악
슬람
어났다
##안팎
로의
##매출액
##테스트
##맑
(10
개로
##의결
##정식
##지연
공장
##심리
되자
본부장
##영양
물로
##하락한
##김재
로이
##현행
##띄
워드
##밥
##상업
##시작된
##현장에서
##중동
##클래
##비판했다
법은
##돌려
교회
단독
##관객
##동남
##우리는
##수여
##계좌
tn
##모르
친상
900
기온
##정착
##생방송
##트렌
no
##모니터
조사를
##음반
##을
##통상
##가르
력에
미래
##연극
##오스트
##2017.0
##저지
제약
##치료를
##추락
##뛰어난
##청문
ted
멘트
##받게
건으로
ort
##IC
##운영하고
무현
만한
##가치를
##기록한
문의
##실내
##디자
실에
aper
스키
##은퇴
##전세계
##고등학교
##신세계
##패키
##비대
##굳
##전라
##통보
")
##이들의
##요즘
##올려
##화면
##늘고
##할머니
##40%
##기독교
비전
##유기
세청
사항
##첨단
##도내
##정체
##인도네시아
##규모가
##女
##참여하는
##유명한
ER
미널
##to
##한강
##투자를
클릭
##박정
##600
##통제
##활약
수와
##인구는
##파리
##광역
##용인
책임
##스탠
##주주
.10
지금
##접촉
교사
me
인도
ag
##섹
##그를
##제약
터테인먼트
')
법이
##파트너
##싱글
##남은
심의
##문학
프리
##최선을
##현황
##변호사
##관계를
##수십
##천연
##지속적인
광역시
##선도
설을
소방
##국채
트의
##예고
연대
##직무
##원유
##이론
mment
년만에
3000
##경주
층의
65
##보입니다
지자
##저장
##터키
##바닥
##70%
##말했습니다
##검거
##일대
##물러
ou
##떨어져
##비중이
버그
##나올
##물가
치로
##총리는
Copyright
##일자
위원회가
##가스
역에서
력으로
##보유하고
작업
4)
##시사
##언어
##김대
##이끌어
##상향
망을
##캠페인
##문제에
바다
##의원의
치의
##추모
스카
##유가
산시
##말까지
##대통령과
##사람을
##편집
협약
##1%
정규직
##고려해
##의혹을
##제공할
##돌입
천만원
##최소화
수에
##공동으로
##맹
##모색
##맞추
경남
##기자가
##맞이
##길을
챔피언
##지역을
##보관
##절감
##기대한다
달라
##수많은
##내다봤다
주주
##합리
##열렸다
원순
##나설
##업데이트
하면서도
시로
##김기
##평가했다
##향해
##절차
##고속도로
##제휴
##집계됐다
##넘게
##사드
##문자
대화
##싶다
##원내대표는
##진행된
물은
##올랐
##인민
전한
##후반
##유형
##47
##CC
##상승했다
##파괴
##창립
##수능
머니마켓
##곳에
블릿
##일상
8)
국회
##삼성전자는
##전원
확실
##이르는
##전재
##경쟁력을
##시위
##누적
식의
##접속
##뒤를
##변화를
##김용
##이상을
Good
석을
##조달
##무게
##과도
물질
##대처
##썼
##제조업
##후속
감사
까요
##Co
경북
해주
##Z
##붕괴
##예를
##급락
.201
임금
용품
##상당히
9000
사건
##폐쇄
97
##내렸다
공정
##길이
##침해
##본격적으로
8000
##법적
##정부와
go
##사이버
##나왔
##분위기
대교
신한
경찰청
##무려
##매도
##무선
명에게
책을
점검
!![
나이
##주어
##신입
해운
천여
##서부
중학교
위에서
~2
##중심의
##낭
시장에
##승강
##""(
##인턴
라크
94
##부담을
##포토
##수집
##최대한
아요
##흔들
##털
##소식
##영향으로
600
##원인
##문제로
MA
##글을
##발달
대우
적의
실은
##쓰는
##휴대전
줬다
##참고
##전월
##사고가
상과
장기
kim
##칭
##발생하는
##노선
##그리
##제품은
각을
복합
ult
##상승한
##캡
##갑자기
해주는
##가맹
##곳은
##우리의
창업
##침몰
호가
##줄었다
##잡아
##현재의
유통
##만들고
Comment
SD
##수사를
##화려
지며
능력
그래
##깊은
');
도서관
와는
##좁
습니까
지인
32
관의
##붙잡
##AP
##★
났습니다
##개장
##신흥
88
##원장은
##년
##장관이
뱅크
업무
##보완
스턴
##지금은
으므로
##보건복지
.11
##간단
조트
겨레
##활성
##들어서
##바꾸는
##공포
##입법
##PL
##초등
사람
##강하게
##동료
"")
크라
##상하이
프레
요금
재산
##방어
었는데
중소
##보도를
Count
##음성
##데이
##84
##주가가
##연락
##자극
##퇴직
##사법
노총
##애니메이션
##창의
##곽
##세부
##소폭
##만들었다
유로
##훔
연히
##만약
##혼란
##근본
정당
jindo
함이
##실업
##계산
패드
("
##성격
##뚜
##보증
7)
경찰서는
미를
##null
##경찰이
64
##워크
?”
##대만
##추구
##방법을
##디스플레이
전환
vi
그룹은
관에
##AI
##결과가
##세계적인
##즉각
##측정
##렌
##매출이
##농촌
##훼손
##산림
##것이란
##샌
##42
GoodNews
##유력
##완공
##무슨
가포르
##중화
다시
마저
처를
##배당
여야
##일시
##강남구
해졌다
##상황에
##자회사
##부탁
난다
##화물
##IP
##발인
음이
##민주통합
5)
화보
밀리
팀장
##놓치면
##바꿔
##안드로이드
##아베
##프레
ark
##비교적
##숨진
##질문
##기획재정부
##인용
##포르
##어플리케이션
선수
##마쳤다
##가능성도
##서버
herald
시장이
##올렸다
재정
##스페
##편리
##제가
##자체가
The
인당
##점포
##접근할
여개
소속
##하겠다
##노후
##59
진보
##입고
##펜
인치
단과
머스
##수익을
러리
##위원장
##1980
서로
##고정
##진료
##경우도
##가득
##불가피
##미국과
##오피스텔
##재판부는
##하락했다
##벤처
##상한
##애플리케이션
##만날
##수색
ES
공무원
##즐거운
플러
ha
학자
신도시
##금감
##두산
##훈
##일환
##조절
##눈이
##정도의
##일반적으로
형이
##사람들은
##금호
대강
동이
##보낸
##융합
##김진
##사기
음에도
##발효
##대거
##차세대
##신제품
##김모
##1995
##거래를
info
##사진은
##촉구했다
##안타
##명확
##분쟁
전시
##말고
조의
린이
쪽에
##품목
처분
##지표
호로
메달
##여부
##수급
##이스
##입건
##라고
##쟁
##장면
##마치
덜란드
##세상을
##개봉
##박사
##의미를
##남녀
##라디오
##해당하는
##벌이고
##항상
##추진하고
##계열사
국인
##paper
##쾌
##공산
위원회를
##관련기사
##분야의
6)
##만기
수준
##54
##북부
##참석했다
how
##만한
##법안
액의
박물관
##SMS
##상당의
라엘
##EU
카데
##강연
##절차를
##제주도
##워싱턴
##입은
억원이
##생긴
##멕시코
##낼
##똑
사태
스트는
##성인
커스
##올린
##경매
##광화문
##불확실
:00
##사업은
##5%
##널리
##스테
농협
##전공
##저소득
##내수
##어린이집
인증
##무엇보다
##사용한
진은
##실시한
##있다면
##담긴
소와
간담
은행이
##허위
라의
내일
##차지하는
##현재는
##작곡
사용
##발급
##기후
##파업
##김상
배를
##심의
류가
##피해자
##겪고
##궁금
##차기
##사이에서
##대외
##직전
##끈
##반등
##의지를
##1999
##수수료
TX
마스
##주한
aily
##쏘
##감소했다
##추첨
##경제적
##관할
시안
##들었다
고용
##줄어든
##경험을
##묶
##나타냈다
공헌
##대표의
##의장
##아웃
##동참
du
##토대로
##후보를
##노사
##회계
##성장을
##쏠
하려면
6000
##이슬람
##세미나
부채
##고령
Json
##규모는
##요리
##고교
로스
기아
사령
##방향으로
##국방부
700
##수업
##유승
##씨의
##연령
.)
4000
##냈다
##체육
##멈
##},
##착용
##이름으로
##한진
##평창
순환
##진정
##불구속
##수준을
##위로
##성적
드의
##했고
##마감했다
##매주
부터는
93
##금융감독
##짜
##생각을
공급
##출근
##고소
헤럴드경제
닉스
이라면서
##대표이사
지난해
기업의
9)
24.
tomain
리티
##60%
드가
설명
##포럼
##연금
증권은
##앙
##포착
""(
##정상회담
져야
##후보의
##결정을
놓고
##후보자
##요구했다
##찬성
##43
##방영
회와
##리스크
##지원한다
##맡고
##l
##확충
##클라우드
##총장
층에
##분기
##축하
##NEWS
##photo
든지
##고성
-0
##복잡
##재난
일랜드
##진화
##챔피언
회관
제와
TO
방향
##유저
ytn
##이민
##발생할
##물류
시한
##수준이다
##목록
##전후
##모습이
연맹
##게임을
##행위
체육관광
##급격
##스크
##공개했다
##자사
앞으로
##80%
복을
##FC
##봤
하다가
##세금
##오염
##직장
##눈을
]-
##이것은
##자신을
##단말
CD
바이오
"").
##PLUS
##조지
##시술
의자
##멸
메이
##고속
##오토
촛불
학습
전으로
##한때
법원
시청
.25
트가
##청구할
##부대
##조례
##75
##김해
명이다
광고
인에게
##수영
1000
야구
?'
##기회가
##평양
##높이는
##근처
##문화재
##국산
##사건이
##묵
cont
##는
##진행되는
##예산을
##중에서
##한경
어의
##어려워
##(0
##영하
ter
##목적
수수색
업종
디자인
##64
##참여해
##모임
7000
감한
아버
##즉시
자치단체
계에
##권리가
세점
원들이
##완벽
##발전을
진의
통화
##보존
##세상에
##다운로드
하려고
##마치고
##교육감
##스타일
협정
##김무성
##LED
##모으
였으며
##있어야
참여
##비서
너스
##Δ
##1998
역이
##섭취
##때마다
##당기
##태블릿
개월간
##안정적인
타워
jo
##둘러싼
##서울시는
저축은행
##세포
##요구하는
##배제
##and
인상
에셋
##직장인
포구
##답했다
##콘서트
##참여할
리게
역에
신용
##당장
##작품을
##실적을
##전날보다
##본격화
##토지
##위하여
1(
본부는
##있으면
즈를
##시민들이
그러
##이용하는
##임상
##대체로
##메모
질의
##52
##펴
##윌
체는
안정
##십
되기도
증이
관과
##지역은
다운로드
은행의
차량
##피해가
##순매
##야권
##이집
실로
##연구개발
##56
##기자입니다
##회의를
##동작
채권
##막기
##중학교
##상생
##귀국
신고
##대책을
경향
퍼런
##나이
##열차
조가
##당일
##박영
인력
ype
##공무
##대한항공
##건의
##영국의
치게
월말
##그들의
##따로
##반론
군과
체에
##신분
##리포트
##소련
##일각
##멘
##재직
##주행
센터는
##친박
##2020
전기
##힘입
##부부
##미치는
##며
##외교부
정지
##네덜란드
연한
##개인정보
여명의
##숫
나요
##이자
##지출
(200
##커지고
TBC
##41
끄는
##갖추고
##잡고
##싱가포르
##학술
##쇼핑몰
##잠시
청이
##49
DB
##발생했다
##증권정보
##덮
##빙
##수록
##깔
##is
##잊
##캘
##점도
##목소리를
##해안
##화성
##미만
##해명
카데미
##항의
##인터뷰에서
르지
##압수수색
##생방송과
증시
주일
##느껴
##사우
##뉴스속보를
##콩
치에
##정지
##긴급속보를
리스트
##진행할
##엄청
메리카
##납품
PS
됨에
##거짓
##편입
##정규
ayer
##의미가
##국내에서
정부가
##선정된
##검찰에
##1997
석이
전력
##가속
##발휘
##개성공단
년과
##유발
##치러
##탑승
ial
학적
시장은
##채무
만원에
##중고
##높게
lay
##일어난
##800
##한층
##혼자
┼────
##수백
##느낄
##전략을
##부각
##환영
##택시
##교수가
름이
##대로
!]
##에이
##부회장
##점점
##미국에서
단으로
##이성
지표
##지수
##확인됐다
##사람들
##장을
##on
##쇠
디지털
##전망된다
##이마트
먼지
##벌금
##갤
##능력을
·4
##평택
당에
##인사를
레이션
##장례
##선보였다
##지방선거
##배포
청소년
리포
##마련했다
ont
87
##끝난
##최근에는
##그녀는
##힘든
국과
다이
##아니냐는
##면접
##게이
##지적이
님의
##범행
##출산
센터를
##보여주는
(15
##부근
##부당
미사일
end
##바른
##오리
주간
##유일한
##전무
##부담이
##700
##나선다
gor
##얻고
##윈도
##재건축
##보인
##맞은
됐지만
##공연을
##형태의
##활성화를
##해제
##여론조사
##몰려
##마찬가지로
결을
##다문화
판에
##에스
##밴드
content
##관람객
힌다
##한국인
##미란다
up
톨릭
##소식을
##공개된
##방문한
##컨설팅
##얻을
--------
유를
호텔에서
물산
##김경
통일
로가
##자문
ae
##잠재
##국가대표
66
리자
##한달
##양산
##더해
?"
##됩니다
alue
##풍부한
##영입
##삶의
수한
##지수는
Layer
##결승
##한일
##덴
##누가
##소요
기반
##보육
##기대하고
법으로
##국정원
야마
ne
토론
##명령
##설문
##말레이
##그려
##방법으로
##고향
선물
##국민연금
##겨냥
##칸
식과
##이스라엘
##들어간
말을
충격
##매달
##결과에
##서명
##목포
점과
##인기기사
##수리
##컸
##인생
##최순실
##제시했다
age
##누리꾼
urr
##사이의
##뉴스를
네이버
오고
##투명
##통해서
##당사
##하자
가락
##85
##동북
##있었지만
청문
##日
##입증
심이
##힘입어
##IB
##비교해
##대표와
##전형
시각
Name
##보일
놀이
폭력
비로
Class
##풀어
유지
##적지
##이혼
##부작용
트라
##지지를
##핵실험
구로
FC
##보이지
고도
##연다
새누리당
##위축
친다
천시
##이영
?[
##주간
##무너
##국토교통
##250
##간부
유산
##부분이
##만남
##먹는
도어
##이모
##있는지
##명절
res
##예금
##나섰
##부족한
##저축은행
##뉴스의
AN
층을
##합류
##실적이
Te
##사업이
부에서
##페스티벌
##스웨
("".
##0.0
##없습니다
91
##영업이익은
##고등
료로
##지원할
##순매수
위원장은
전과
##무산
브랜드
##개발을
케어
##훌
체로
온라인
아의
시장을
##분위기를
ization
##한해
##설득
##폐기
##계기가
서나
서와
-2
Index
##권리와
##무장
##「
##상환
##이어지고
##못할
##이사회
##저렴한
##운항
##수혜
퍼스
##철강
##종사
수지
##살고
##셰
니는
##이지
하였으나
##김포
##가격을
##노무현
ly
##게재
##부드
##경우는
##떨어졌다
##당기순
깜짝
##본회의
##상당한
##감소한
##풀이된다
동기
##사회공헌
뷰티
##맡은
일반
##시에
었을
##넷
Re
고는
##구조조정
하라고
ategor
##남해
여서
청에
##결정했다
##비정규직
##담아
##노트
##유족
##뒤에
MF
##감시
##전경
대사
최고
##대사
##맡았다
타민
시설을
협의
##마이크로
##내는
강원
##소외
##헝
위와
##그때
di
##올리
##이동통신
##텔레
##저는
로로
새로운
위원장이
##다이어트
##격려
##전파
”▶
전남
##기재
##정무
##스피
##어울
##다수
##다루
위원회의
##처분
OT
##?
##동생
신은
##화보
##당분간
##최우수
부처
##쓰고
##물을
##대하여
##앞장
인터뷰
인들은
##함께하는
##()
##베스트
##착공
거래소
##다섯
##응원
the
##징계
]◆
가정
추행
##불이
##머리
##상태에서
##전담
##태국
##활용할
자도
정정
##가공
##케이블
조에
##짧은
추후
##여성의
##협력을
##의존
##동시
##추진할
전국
##발간
##건너
##텐
##CCTV
지점
##사용해
##영등
수출
##생각이
##의뢰
##실시한다
##의사를
##책을
##금액
##설치된
##로스
권과
회계
##부분을
##좋지
췄다
선언
들로부터
선으로
##몬
##el
##유해
외교
##달아
##소화
학회
##가시
##회사는
로도
##이미지를
##별세
##독특
##해킹
##콘텐츠를
았습니다
장치
##중순
발을
보안
ml
##발언을
##인지
urrent
씨에게
급식
##부르
실적
xt
됐다는
물에
##도서관
##매출은
네트워크
400
##평생
##간편
##프랑
데요
라운
##상관
##태양광
주와
님이
##야외
에스
위안
##고대
##조사한
##갖춰
##입력
##개최한다
##디자이너
##시중
##운세
##별도의
##교회
프라인
세월호
##제도를
##여겨
====
##높였다
하우스
##동맹
##비용을
정원
팀이
##위안부
##김씨는
function
##자유로이
##북미
##새해
##대표하는
##긴장
정으로
재가
##증권사
평화
cted
##마시
엑스포
종이
##아나
##하향
##한마
##반박
셔널
정보를
##개발에
오른쪽
패션
##엇
##의견이
내기
##180
AS
##꼼
##닫
공사는
##가상
##사후
##붉
이용
##박원순
관계를
##사회복지
겠고
##소리
hank
디스플레이
원이다
##캠페
결제
....
##JTBC
##영토
##비율
##기아차
##높여
##속하는
##짐
)=
##시급
##구속영
##데다
##적립
##멋
##테이
##사랑을
##권고
##론
##촛불
공화국
##무소속
##】
청장
##튀
##연봉
즈는
##부활
##변화가
##영상을
재로
##민주통합당
##처음이다
료가
서비스를
캠프
년째
##공기
##몰아
안과
##굉
##방식을
##분당
##공통
경찰서
하시
ow
##검찰이
용으로
양을
##달한다
##응급
역사
section
bs
##집권
##생생
”"
##기름
##1970
##진상
##따뜻한
##투쟁
##발견된
##높이고
지니어
##신형
원한
##[[
심히
##진행됐다
##포털
전자는
##동일한
##엠
##생활을
##진행하는
##와이
##저항
##선포
##3,
장애인
##자금을
##독자에게는
합의
##없애
경은
튜브
##농림
##키워
소리
##목숨
##군은
아웃
##인접
##취급
었다고
##사고로
##맡아
##!
##취재원과
##기업들이
바른
##이유가
##민원
농업
##소송을
##민주주의
말로
##투자의견
##대화를
잡고
##중국이
사장
가치
##협조
부담
부대
##했는데
##사용자
##원의
##이전에
재생
상에서
##남쪽
LED
##보고서
##한글
TS
##본부
##고객이
##여기서
##경비
view
##있었고
##일환으로
##흡수
##회사의
##일은
"";
관으로
##국무총리
##물질
성한
##이름은
##순으로
##문화를
##FI
##단행
준표
분쯤
##이데일리
##차이
##늘어날
창원
##대통령을
##허가
금속
##해수
##밟
##중도
페라
!""
this
그룹의
##지명
##분노
##부지
List
##팽
##먹고
##57
법상
48
레인
##All
##중소형
##발의
ey
##만들어진
##재배포금지
##입을
##사람들의
##도는
파로
점의
연합회
##참가한
##돋
##흘러
##별도로
##거두
sh
드리
##있음을
상환
##이듬
##철거
교육을
##촉진
##후쿠
민족
##51
##불교
##신호
##정밀
TI
##BMW
##예상했다
내가
##이은
##무죄
경이
한겨레
##상용
##기온이
##유로존
어린이
브리드
대학원
콘텐츠
##기준을
##다르다
(9
보장
천군
차이즈
##애널리
형의
조는
##살인
##들어갔다
##전격
##딜
##소장
국으로
##대표이
아동
전용
##프로모
##멀티
##가이드
편의
##웅
##딱
##내외
##마리
##예정인
##금강
##늘려
##북한은
##당내
##적용해
##역량을
##매출액은
##미래를
##세종시
EU
##법원
##정부에
승을
##스웨덴
홀딩
##조각
ity
대응
##송파
##이산
희망
##긍정적인
##호응
AR
##신용카드
##파워
##2%
우주
에이
##서울의
##달려
##매력
##기록을
자본
late
화한
만대
##면담
~6
##뜻은
##선정됐다
박스
##제품의
##빗
봐야
##1996
비와
##있을까
##시정
##듀
토록
였지만
##맞게
행복
##일어
##농민
all
##미칠
##원활
##정유
란히
##점령
모를
순위
##영남
##곧바로
##66
중이다
베르
특히
##넘겨
근로
성으로
##자리에
##출간
##대선후보
##이듬해
##제시한
##함유
주인
##비례
바람
##세계에서
##호흡
구나
##능력
역으로
##이건
##분석한
##금속
중소기업
##깊이
##강화를
)▶
cor
##수험
##들이
##동계
##무관
##폭력
##진짜
##인기가
세트
나눔
##명을
##개선을
비의
청사
##충족
##지낸
GB
##주지
자들과
랜차이즈
##vs
건에
##신용등급
##개시
##않게
##이기
##g
해외
##나아가
직한
메르
##53
사카
##"'
사업에
##박종
했다가
##원자력
##이뤄진
##굉장
##옹
##원장
##문화체육관광
##감정
시오
##신동
##쥐
어져
킨다
##말레이시아
부품
정부의
##학생들의
##실태
##시공
##조세
##드러나
##그에
평을
수입
청년
만간
##예정입니다
##흰
임대
교수
##사흘
ry
##업그
타이어
##서구
##플래
MB
한의
##화이트
##행사에
모토
##탈출
소시
##롤
##음주
##철회
##그만
금으로
##천안함
소재
##대형마트
자문
예정
교과
Section
##대륙
##때도
리다
##독일의
##사업의
##갈수록
##위치해
예방
##한은
##강화하고
##58
허가
##시의
##포함된
방안
##블로그
확인
컷뉴스
##둘째
##역사를
형은
##아프
##한국에
##머니투데이
##결론
##가전
##무더
##이어지는
##발표된
##선사
곳에
##피아
놨다
##기념해
시즌
##말이다
창조과학
##시작해
요타
집을
##판매한다
고속
##담배
##이밖에
##서울신문
ion
##출신의
##걸어
##전망이
##정해
##담고
ff
##신청을
제일
##운동을
##전부터
##교통사고
심한
크라이나
길이
##권력
##곳에서
##2~3
##뚜렷
##편안
##사례가
##낮추
역이다
##상가
##서식
##대립
##대장
렸습니다
##슬로
##크루
78
ain
##창작
##국가의
간에
##MS
##이사장
##메시지를
1,
##구미
##1994
##그들은
목으로
##▦
##환경을
##진행했다
##그만큼
건설은
##두드
##이적
##저작
##순천
##속도를
UV
##마르
##경기에서
##서류
##궤
일까
##제고
##세대
##전체의
마리
체제
##분명히
##무시
##안전한
##횡령
##구조를
당과
구와
회복
##회의에서
##개헌
##어깨
계열
##겹
##측이
##선착
악의
중심
##위탁
##내각
##종류
지어
##복원
리포니아
##소개했다
시키기
##신선한
##파이
han
##관찰
"");
조치
##유전
##기원전
##대해선
##과제
##갔
##본사
운전
##납부
##의회
천원
##방한
여대
대형
자연
##생겨
튜디오
##방해
##타이틀
##고객에게
##방향을
##임신
주교
##박지
##앞으로도
##몸매
aram
##시기에
##차량을
지역의
문은
FTA
박한
##당국
협상
##되었고
##대량
디션
-4
##지닌
##가능해
##증가하고
##분할
##번역
##폭탄
##90%
홀에서
NG
##패널
즈의
##진행되고
##추산
##닭
##한국과
mplate
##마련됐다
계는
##얻어
##설립된
##속도
료는
##골드
##오브
##전기차
##신체
##모터
원자
##빠진
##마련된
##개척
##엇갈
##인명
ice
##항소
##신축
##연대
아직
##체크
폭이
##리더십
##미군
마케팅
##직원들이
ved
발언
##이석
DI
##유지하고
##오늘날
##신라
여자
##유가족
##상승세를
##주기
##63
##수습
lu
낸다
##김수
##대피
양의
##사내
est
##연설
##새누리당은
된다는
OP
세와
##이름이
##여성이
티나
.19
##몽골
##입사
##높았다
성도
##조회
##중반
계획을
##지원하고
##후보로
업체인
##인기뉴스
사례
##이제는
##프로세
민주주의
##벼
##수익률
##서울특별
##영동
스러
##담겨
##레드
##이라크
##셋
##패배
##130
##기술이
된다고
##사무총
##감축
하니
선에서
##세무
##높아지고
##북쪽
##민생
##집을
.20
##운전자
##확대해
##이집트
##근로자
##건강한
##현대자동차
##메인
투자의
##한국을
##미국이
-5
##공립
##극대화
##장악
##내놓은
사실
##깨끗
##타임
##수렴
##의미한다
이동
##된다는
스토어
##부적
."
MO
##핸
거든
박람회
##경기를
##참여를
해지고
앞으로도
##뚫
교류
##가격에
##시민단체
##무대
##비율이
##1.5
##기록하고
##선보인
함과
##부총
##뜨거운
공학
##수강
##이들을
##추적
##""'
##서초구
##파격
##것이었다
##자발
##잘못된
##잠정
##참사
계약을
전문가
KT
click
##주유
##황금
##강경
...▶
##부산시
##하드
##탓에
코드
벤처
법의
##알게
##국민이
##분야에
##완전
산업의
##화려한
Tab
AI
형으로
##생각하는
##재발
##주민들이
##소식에
축구
##순이익
##행사가
지진
부르크
##김지
##방통
##목표를
’▶
경환
##멜
(00
스바
##이메
##단순히
##비리
##일부를
##재벌
내용
##클린
##부분은
##쫓
##기소된
##헌법재판
##가톨릭
##대안
##점은
##세운
##상태로
##밸
##인사청문
##가치가
##굉장히
보이는
set
나마
##옵
동물
전주
##춤
##안심
##이수
발표
##넓은
정과
##충분한
인이다
##섞
##일방
##대상이
##현대중공업
비율
산의
##기원
##담보
보드
##추진하는
노미
##철저히
##독특한
##개관
##모두가
##현상이
같이
##전자신문
##심화
AC
##마련해
##총리가
##병행
프는
##4000
##받아들이
##재활
##사전에
결은
##현상
곳을
##가야
##핫이슈
전화
기계
##잉글
세이
.15
##구제역
##띠
보수
##그쳤다
##유상
##얻은
##체제
##else
판사
##삭제
CN
##1500
셔츠
##유망
##주장이
##태어났다
##공인
##일정을
##돌아가
##폴란드
##이로써
문화재
##분포
ink
##포트
##지난주
##기업들의
str
##이후에
##고객의
공공
르의
##불거
면으로
마이뉴스
##제출한
##틈
##맞서
##급여
##김병
##록
##3%
##기능이
##떼
대병원
##이른다
##작동
##대대
통을
##박지원
##비상대책
슈퍼
ard
##출동
##저희
##인근에
회로
##증명
##찌
##단축
회관에서
##영업이익이
설계
이야
##제외하고
##나누고
##남동
밀한
당국은
##무인
##양적
Template
과에
92
##&&
##개최했다
##다녀
##의혹이
##찾을
##내년부터
##프린
##조사하고
##죽음
##체결했다
##이어졌다
##기자간담
부동산
##독도
##이번이
##위성
##알리
##것이고
##설비
##노르
##몸을
##아예
한테
ase
##로드
##성매매
select
##일산
TF
##없지만
##꿈을
거래일
##비타민
##연습
##공개한
##ranking
##둔화
##드라이
""☞
##공군
##면역
##열심히
##그녀의
##우크라이나
##탈북
FP
센트
구청장
##공격을
면의
##조만간
##목소리가
##방법은
segye
##계절
취업
차별
##선보이고
기관의
##여당
##것이며
##확대를
들이다
##패밀리
터를
파가
##조용
##이뤄질
##강행
68
OC
운동을
##끌어올
이미
##검은
##의식
dule
##대표를
##실질적인
##매월
##휴가
Event
##찾기
","
##1960
##돈이
##참여했다
##숙박
,[
##차관
##기대감
에서만
##캘리포니아
##이유를
##해체
##새정치연합
##이끄는
지대
##씨를
##나서고
##집에
병을
##휴대전화
##당기순이익
##지목
##전당
##운송
##중기
##자원봉사
##쪽으로
졌으며
##wel
미가
##미래창조과학
##출시한
하자는
##현장을
단장
화하는
##갖는
들과의
##1992
데스
##면적은
##떠올
##있다며
층이
##매출을
##강동
##정보통신
##비중은
##링
.18
였으나
##도움
##뮤직
##원주
##출시된
십자
##이하의
##서울시장
##출시했다
이런
##적자
##항공기
##에너
##가능하며
##110
##협약을
.]
##사로
##검토하고
##모니터링
##유행
##넣어
##팝
##지름
alse
##전용면적
##되기
##하이브리드
##주식을
##차별화된
여명
##과연
국에서
##현장에
##스위스
##야간
##조명
세한
노컷뉴스
치기
##엄청난
##인테
구에서
##주가는
(20
##유래
##주장을
##첫날
##표기
네요
##기업에
여름
위험
##어려울
IA
##이것이
##모습이다
##방치
##앉아
듯이
##3.3
##검출
##막을
##생각해
##공원
##주제
##휩
해질
##창조경제
##쇄
##만나는
##중국은
-3
##생물
##하나이다
##그냥
##대비해
##출생
##어떠
##시가총
selected
##사장이
었으나
##배터리
##줄여
##과학기술
##false
##삼성전자가
줘야
##지방자치단체
랜트
##74
##좌우
일인
##페르
이와
노인
##춘
##잦
.“
##가서
##항목
##FIFA
##꺾
##톱
##그랜드
##스타트
미니
정부는
##광복
##상상
##중국에서
##국내에
##기업을
##세탁
가입
달라고
##남양
민의
ach
##사용되는
##유일하게
##2.0
##LH
##연관
##그럼
##적절한
##파티
##구독신청
##햇
##안동
##내비
라톤
##안산
yung
강남
##SW
##하나인
for
##다음은
##턱
##진행될
##근육
받침
##시점
##원인이
##공간을
##표명
##높이기
안철수
##내지
##시대에
##가능성은
공시
##점이다
##배우이다
##곳으로
##삼성물산
##마지막으로
##되면서
선과
았지만
학년도
##입장이다
##두려
##가입자
##업그레이드
어버
]]
##스티
##조종
속보
##억제
등을
리면서
##이르면
##알렉
지역에
##오스트리아
##성향
##건강보험
##태어난
##최적
정신
담보
사기
##기증
##마사
크를
##예상되는
##말하는
문재인
##패키지
학원
##때부터
##부분에
##미국은
##라는
거든요
##신년
화장
SNS
끼리
##이외에도
히고
##전송
##미래에셋
변화
##비중을
프라이
정비
(18
작가
(-0
##서쪽
gu
##실시하고
사들의
##추정된다
##사령
##로켓
##물량
##모델을
##재능
##뼈
##충전
##지리
##벌였다
청주
키스탄
##얻었다
##집에서
hy
##조심
##이상으로
##청소
##헤어
##정상화
##아이패드
##좋겠다
##시대의
개인
##게다가
bp
지하
##시달
사회의
##판매하는
애플
##장병
##캠핑
##쓰레
##아일랜드
##초래
##원인을
완화
##인간의
##잠수
##비디오
##떠오
##대박
모터
##정규직
##흐름을
##엉
##지냈다
벤션
##유용
CEO
##밀려
##연구를
##1993
##일반적인
sc
##아니고
##감안하면
##스키
##빌려
##흑자
##권리
##먹을
##1988
기온은
렸고
##붉은
르신
63
##사용하고
##매니
##결과는
##강도
##프랑스의
##기념촬영
##공사를
##건국
##빌딩
##대법원
##번째로
##유아
##지어
##모델로
공천
##문화예술
##성추행
##공정거래
##선착순
##크고
FM
##반대로
##수험생
주군
##보여주
##환자가
##기기
##배려
##동결
##이룬
##구체적으로
##심장
##대우조선
##도중
융합
##진영
·2
뉴욕
##성공적으로
67
나갈
##생성
##김민
##지점
##탁월
##받아야
tain
무기
##댄
##배정
##아랍
측이
##빼앗
##식민
##라이브
방지
절을
추천
##분석이다
방이
푸드
!’
##가고
Con
##별도
##1991
##기간에
##싫
##알리는
##연수
배상
##흔히
##기업은
##엄격
인데요
바지
”,
##규모를
##선보일
제철
##면제
><
매출
서울시
##가능할
51
##와인
##특강
##치열한
##많고
##수면
##하던
급여
##In
##역량
##자료사진
만은
진과
생활을
유치
##가해
##세계적으로
##HD
##동쪽
경에
##68
##일자리를
호의
##조속
그룹이
##진행한
##디젤
oT
시리즈
##전까지
##필요하다는
##임기
##입원
타이
##방위
았으며
위원회에
##약간
##가게
학의
##아닌가
##판매를
##의류
##성형
자료를
##배상
##현안
##측면에서
##족
카카오
기소
브라
##전달했다
부장관
ac
##이병
##고객을
수기
##주목을
';
##전직
##말해
##도모
##동아일보
##듯한
irst
##이용자
##유승민
##순환
##침체
##아무런
##간호
투어
##기관은
##엑
##도달
##프랜차이즈
##특성
##벌써
##즐거
##보냈다
##이런일이
##협상을
내일신문
##달했다
실과
자산운용
나와
교육청은
##냉장
퍼런스
##응모
금의
법과
##힘이
Date
##의원과
··
산이
##경기가
##닛
요한
동아닷컴
TM
##음식을
하겠습니다
겨울
전지
##탈퇴
##나중에
##스트레
지원센터
포먼
##증언
##초점을
##지분을
다음
차의
스바겐
##당국은
##발주
##잇는
보자
락을
##내륙
##폰
우리는
커피
##홍준표
##손님
##가질
##이익을
##유효
##중국과
##소년
.16
##곳이다
연은
다리
메가
##67
ip
##아기
캐피
##결성
##캄
naver
홍보
##중에는
##김한
##선전
통상자원
위원은
##한우
##ICT
##다짐
졌지만
##남성이
오픈
##대단
##조이
브리
##덕분에
시께
~8
라운드
##앓
##의원을
##본인
##제어
##사립
##추억
##특급
곳에서
##나아
corp
##거절
##열려
##관계가
IB
##타격
59
값이
주얼
##않기
그리
##관리를
##승용차
##빅데이터
##//
##또다시
’...
##규탄
동조합
##내내
##진출을
##중국인
##낙찰
##판단했다
54
아이폰
##경험이
션은
##회동
##구성되어
ke
##논쟁
3,
교육감
##수상했다
##제품으로
##정치권
석은
조로
##존중
##전사
##반대하는
##바르
##가깝
ECD
##멘토
개사
##아빠
##패턴
달아
전망
##심한
##160
##동영
지능
금리를
기압
세훈
경영자
##방송통신
##주민들의
##성명
##소규모
##정황
##했으나
##데이터를
패를
##구청
##꼽았다
module
##롯데백화점
##박물관
##세트
##해임
##펀
##난민
##MOU
##수송
##0.5
.13
fe
공제
##그간
##오른쪽
##잉글랜드
##균형
##펼치고
##했다는
##인적
##우승을
고한
받기
##트리
##몇몇
건은
##연료
을까
##119
의약품
사무소
##적정
##연내
##재단
##환율은
)-
om
##KTX
진흥원
계층
차에
##도약
위원회에서
##과도한
탄을
홈쇼핑
##이뤄졌다
트롤
종으로
##미세먼지
##변신
##접어
##않지만
##않았지만
##클릭
od
##둘러싸
로에
##높일
색을
”...
##모르는
##승리를
##배달
테러
계좌
##콘셉
urn
##확대할
##영장
##업체가
##주변에
제조
##롯데마트
##아니면
##질의
월의
##전부
##중견
##마크
##국무총
##승부
##깜짝
##있는데요
##요청했다
##수준에
기술을
유예
##5·
어촌
##모은
태평양
사법
.00
##패러
방에
##국민일보에
##양도
방위
Hz
물과
##농산물
##코너
##측의
##계승
##현역
베스트
##부친상
랫동안
업계에
##코엑스
##최다
##진정한
##기반을
제작
##서울특별시
##다리
종이다
하지는
##유료
chos
##강세를
##77
##관여
##넥슨
이게
냄새
##정도가
##받아들여
##아트
##판매가
키아
##무릎
집행
##기각
##마련한
##알파
##고문
##사건의
lee
$('
##차원의
스토리
##체결했다고
##유의
리엄
##떨어지는
금과
##간담회
##작전
##폭염
나타
##접한
##15%
##고조
방안을
##시대를
##요소
##비율은
##받기
##두번째
##이경
##압도
##김연
##목숨을
##수술을
##이었다
##목격
##준비를
##층
규제
##72
##텍
블록
##농가
지상
겠느냐
##유권자
##oJson
동부
##140
##위기에
##파산
삼성전자
저우
일자
라비아
##제품이
##군의
IST
##입점
##최강
게는
##다음날
표준
하라는
##국세청
##닮
##말한
##래
##찰
##진도
DA
소한
석유
##우려를
tit
##집회
##측근
##그래픽
##가벼
##1~2
화하고
머리
##경제가
##특혜
프를
##장소
##기여할
##히로
##기록하며
기한
##테크
화재
##사고를
##차지하고
ot
61
##벌인
##부사장
##마음이
##외무
##태평양
##전국의
##되돌
##합쳐
실의
아리
심판
82
빌딩
##지주
제보
##하계
졌던
##회수
지노
##다수의
##세웠다
##늘어났다
##km
##제국
chosun
##베네
##추천주
heraldcorp
##OS
##회사가
##당한
##필요하다고
##아직도
##행복한
EN
충남
##자연스럽게
##경쟁이
##혁명
포착
##de
뉴얼
.24
(14
##쉬운
##거래되고
정책을
군수
라가
(11
비서관
##1989
버트
##투자자
##한경닷컴
해왔
##쿠폰
##협의를
##끌었다
##의하면
국립
##둥
##냈
##이화
##살펴보면
##탈락
##퍼포먼
라이드
ms
##맛을
##][
연의
##'10
##--
개편
##성공했다
하에
##전액
##김일
##일본에서
감과
실한
나의
##박성
##논의를
비에
##(19
##끊임
##지역으로
##영웅
##추세
엔터테인먼트
##허리
##발령
##CBS
##전략적
수급
##김승
##동구
리조트
##강세
당시
##지정되었다
##상태를
##포장
##나타내고
cho
적한
##나타난
##대결
##시나
##유사한
지니어링
교안
양이
서스
##자제
작업을
##고시
##신중
카페
##스크린
##병원으로
##연평
##크기
##닥
##숭
##MBN
이노
정도
##협박
@[
##통합진보
##나뉘
##성분
##신한금융
종은
##공작
늦게
##기사는
시픽
##식사
69
83
~7
##델
##공익
##악성
##의약품
켰다
##원내대표가
범위
##느낌을
병대
##Re
설이
##구름
##긍정적
##기상청은
번에
##자유롭게
##서울에서
목적
##이광
출을
##밝히고
체인
보도
##점유율
##후에는
##대부분이
##단백
##시작한다
사단
##양호
##성립
##전시회
##활동에
##SM
##인디
##전화를
이었지만
##엘리
##동네
und
##버전
왕의
##내릴
ys
##right
검토
##제네
##사랑의
에서부터
##핑
##개정안
투스
효율
매일
측의
EA
##분석이
##주목된다
로서의
반기에
show
##쿠키
##자택
##선보이는
동강
##식물
##손상
.30
##고백
##직원이
##사항은
##꼽힌다
##일찍
##특징주
##않는다는
##유럽연합
##삼성전자의
##예정된
##액션
##STX
##갚
##상영
##한양
##재생
##뛰어나
판이
##보도합니다
##무렵
##쓰러
PL
하기는
행사를
##부착
##위기를
##경력
##의장은
##사찰
##비공개
Fn
##do
##정몽
##김장
우기
##웰
리즘
##오랫동안
##강서
##했으며
##맺고
코스피
##북한에
##환자의
##이준
##연평균
보조
##독점
절한
##일관
##대다
##리비아
대회를
##철저한
##동성
##바이러스
tr
##없었던
##메이크
##재해
행이
##확대하고
폭을
##분산
##</
졌다는
orts
##한국은행
##단위
##성공한
##소식이
##않았고
희정
##계획이라고
목표
Ro
팀을
그린
##삽
##구로
축산
들에게는
##증정한다
##지금의
소장
##개인의
##없도록
마를
##62
##아쉬
##거친
연수
##분열
##당의
##송도
##논란을
##박상
##한류
##사건에
##봐야
##부정적인
artic
카와
##02-
학규
과정에서
##대치
##아이들이
##생기
ookie
##목소리
oc
리얼
##우리나라의
##대상은
(12
##되며
##인상을
사진제공
]'
##밴
72
iae
있게
소시엄
##순위
##출신으로
미는
##성명을
##떡
##김정일
클래
##묻는
뒀다
총회
진에
외과
##1950
##자동으로
##측에
##육아
##한국에서
##구상
##총장은
구매
비드
##열리고
##1987
##읽는
기본
##부터
래프트
53
##확립
역의
##예비후보
관용
##공중
청와
##국고
경기도
##비싼
##봤다
어와
##관절
##군산
레드
한데
##줄일
경의
##기도
##살려
##고유
##무한
##주부
.27
##음료
##접목
##위험이
##나타나는
##성사
##존재한다
##소매
##기관이
##합성
##출자
들인
~1
##한국은
Cookie
##입지
mage
##경향신문
##감면
##행위를
##혈액
##전수
##대변인
과정을
##않아도
##정책에
##말에
전형
##큐
##news
##헤드
##서울중앙지검
89
##모았다
##사람들을
해지는
##논문
##바람직
.14
##결코
질랜드
indow
##산업통상자원
##클래식
##맞지
방의
##한창
##않다는
##일제히
##등장하는
##한중
##모으고
##원천
##정확히
##4·
##별다른
##확인하고
##가리킨다
금액
조한
역은
합병
##국회에
##사회의
##어떠한
##본문
##복구
루스
선진
##진주
##중국에
림을
##포르투
##대상을
와이
분기에
##얘기를
##강요
##배우는
##타이어
역과
##추첨을
##방침을
##순매도
.26
##발전에
##운영한다
투자증권은
##백악
##를
inews
사업의
##특화
협약을
##물어
사들은
##태어나
##CD
가루
를린
진영
##당뇨
에게도
fa
##종이
~201
##납치
공사가
소비자
##4,
article
ld
##식으로
##아카데미
73
》,
##양자
##삼성동
골을
##개최한다고
파의
(16
##요시
app
##지사는
##없기
대선
품질
##만든다
##사용한다
SC
##스코
##시인
사드
##세력
##출국
업에
##증가할
##.
회의실에서
##부천
##흡연
##김형
##자가
##위주로
##주파
##것인지
##증상이
##co
고의
##남구
##대답
##단순한
##조합원
##탈당
환자
##명시
##산학
란을
##거대한
SA
.17
##등산
##터치
##별로
##경제의
og
##부서
상승포착
~10
##그것을
##시신
##미사
av
?)
케미
##전년대비
##뿌리
##제작한
면에서
##왜곡
##관내
크는
##실용
##도박
시간을
##노력하겠다
##고용노동
론이
사전
두에
.28
.-
##다행
##99
인재
##정례
##쉐
남부
##올바른
##비용이
##의정부
##하더라도
##최대의
곳의
##우울
##어르신
플라
##곳곳에
##시간에
##중점
##디자인을
하의
##지원해
##서서
79
##걸려
##철학
##말로
##학생들은
사스
##지역경제
쉽게
##때문입니다
##된다고
테마
##아는
##희망을
##이후에는
##누군
##관계자들이
온다
##르노
##캔
SI
##샘
##유성
살을
##김대중
##과태
##읍
##여러분
한국당
##구성해
##꼼꼼
스트라
##소수
##선정해
테이너
##명동
##즐겁
##전국에
ber
##사례를
렸던
tainer
▶[
##강화해
##지불
##심판
주요
##부른다
##오를
서울신문사
극장
##규칙
##지향
##방법이
조달
##말라
##체감
##민주노총
##찾아가
##돕는
hk
##가중
##스마트폰을
나라는
회의에
##일이다
##라이프
##장성
시스템을
##뒷받침
##시설을
##경쟁을
##사로잡
##제안했다
##감상
사업은
##해주
##정통
##기조
##불과하다
##있었는데
##요구를
##본래
##적응
광장에서
##마약
##지침
##유전자
스타일
##선수이다
##위촉
##61
자격
##줄이고
기업이
##제품에
##일치
##마침
##민주당은
##가라
귀포
][☞
##막아
##여신
##이끌고
##지난해보다
##고도
##덴마크
놓은
##운영을
후군
##도시로
##동대문
43
##파일
##결정할
##주장하는
strong
》(
겨진
##연동
포커스
께서
##부회장은
##그렇다면
##끝내
까지의
PA
##조사에
##보여준다
bj
##제임
##극단
##중장기
청의
##교육부
##고가
##최악의
##연결하는
.5%)
티드
화해
##금융투자
##회장을
##뒤집
##유상증
##유지했다
##위치하고
##느낀
처는
##정원
##선을
##썼다
##실시했다
##이후에도
MI
').
~30
##밝혀졌다
식장
##교도
##베르
.22
##적합한
71
##연루
##객관
##공동대표
##합작
산은
로지
협회는
##클린턴
##기자들과
##의도
Cnt
##시민들의
commentCnt
##2016.0
##회사채
##홈페이지를
트와
##과장
##제보하기
천억
##것인가
##심사를
내년
##영광
##발탁
!)[
##기록해
##짙
치며
스피
##갈등을
##아니라고
##갖는다
##없게
##부패
##스튜디오
티아
##손실
##기대를
##다우
##회장과
##지역사회
sed
##덩
##바뀐
##두드러
라이프
##들어가는
##소비자들의
##티켓
##아닐
##전산
##식당
##도서
##이태
##경품
##상속
##이번에는
##더민주
##보이며
나도
##응시
##아이를
##차량이
nb
류에
##“(
tv
categor
IG
력발전
##25%
##땐
##DB
##안양
##LCD
재배
~19
##불리
##금메달
##들려
##붙여
집니다
##주당
##6000
석의
제품을
지다
##매장을
생태
##고구
##플라
##인천공항
##저가
##마켓
##목표주가
···
##배송
널드
'][
##불어
##설명했습니다
##커플
##강좌
##차를
##발생해
##교과서
##오사카
##오름
RA
KB
##아르헨
##음악을
##웹사이트
##향한
풍이
##폭으로
숙한
##싶어
유플러스
##스페셜
##교섭
##유지할
만족
##사업자
##장치
학기
##거래일
저는
##캡처
코노미
랍니다
text
##역사적
##문제와
##전인
##갖게
##의원들이
##보좌
.3%)
##예정이라고
가며
##전년동기
##목사
##선택할
##치솟
고에
##바람이
##보도에
##유가증권
##권한대행
##제조업체
마블
##유대
천억원
##입장이
##과정에
광장
대체
주차
##일하는
억여
ran
세상
0%)
##아키
.23
었기
##화합
마자
##되찾
사항을
##SUV
발이
##레스토
##이례
##양해
##면세점
##특유의
##구성됐다
전선
##프라
##수사에
직자
etnews
##종종
##검사를
##죽은
##일으키
RS
##배후
기부
##2.5
소식
##않습니다
##장점
##윤리
ero
진단
기상
##장수
##윌리엄
##추정되는
생이
##몸에
인수
##조건을
##재료
(30
풍을
권도
##레스토랑
##입단
##지속될
##신뢰를
##경찰의
타임스
파이낸
##박정희
하더라도
모델링
##다채
##조약
##금융기관
##노벨
마의
##늘어나고
행동
##행동을
##기자회견에서
##발표할
##기준금리
속에
##갈아
##열릴
##장식
##경우에
##제공해
##발표하고
##제공된다
##관세
##방역
##영향이
##광주시
한화
이었고
##높고
##가짜
##때에는
만원이다
심에서
##이씨는
js
##프레스
##인쇄
##워크숍
##금리를
##끝까지
리콘
##자매
##계속해서
##생각하고
##본선
산업단지
##비례대표
##행사에는
##규모다
##일고
##소니
##170
##방송을
cu
##외식
##인턴기자
##팔아
##인천시
##알려졌습니다
##대부
##스타트업
교를
##간접
건설이
##나타내는
##유인
##금융위기
생물
##무용
##기사를
##사실은
##무대에
##투자가
##실시간으로
LL
##들어갔
##크지
##늘어나는
##편이다
##95
천안
##스트레스
##위원장이
배당
##입국
Type
sectionId
##김치
##파라
##장중
##한국어
##율
##미국에
##조리
TC
자이
##1986
청구
##방안도
##침입
차례에
##예정이며
##조언했다
##임직
##사건은
리에서
##괜
##무효
통제
##제품이다
산에
##안전을
하늘
주행
타르
##북핵
##묘사
##기초자산
##대출을
대회에서
맥스
##해고
##개발해
##다음을
탱크
수정
##잠실
##기법
##자진
.4%)
##용의
##학원
##조현
플래
거리를
##추출
##초등학생
망이
특징
.29
서치
##지적이다
##지원이
##태극
##수시
니스트
##사람들에게
add
##지내
##원으로
서부
##일본은
##그렇지
##뇌물
작은
##도덕
오프
##세련
##이윤
##차가
##준비하고
인기
례를
자리에
리나
##사태가
##신장
##아시아나
##김준
##젖
면이
##스케
폴리오
##금품을
교의
되지만
##되도록
##찾고
##경찰청
##부르는
편이
##추진해
##그것은
##철수
공을
##지나치게
렉스
##업계에
##노동자
##불린다
##공을
##콤
리면
##위생
시쯤
ID
##지식경제
![
당국
스크바
친구
##플로
##손안의
##조사에서
하기에
##알고보니
이재
국민의
##밖으로
도까지
##흥행
##초청해
영은
##스토리
##론칭
연구원은
##국경
##수확
##재보
##싼
##엔터테인먼트
Container
##PD
##문서
##해결을
##오페라
##주류
##편의점
##모범
##빵
##육박
되거나
##동향
##형제
우러
##분위기가
트렌
이한
계와
##76
##간주
##손에
##현직
pp
리우
##섬유
##좋아하는
##부정적
##출시를
되도록
드라마
##재테크
##타입
첨단
46
##벌여
move
##감지
##프로그램은
.2%)
##모의
##자신들의
물가
##선제
##피고
모임
##진로
##조항
두환
##정세
서울경제
자금을
##없으며
##크림
##합의를
##멀리
##시티
언스
",[
##견인
##판결을
##응용
에게서
##혁
##앞세
##북구
##선거구
##트레이
##사업으로
텔레콤은
레터
##만성
##부문에서
##그해
##영유
##못한다
##아시아경제
음식
캐피탈
##전반에
##뷰티
규칙
고등
##협력업체
##야생
##탄소
플루
##바닷
단위
##급격히
##저소득층
hankyung
##치킨
##포르투갈
70)
##보조금
###
##88
##즐겨
##투어
##김선
##녹음
##기업인
##피부를
곳이
##하나는
##대표적
시트
유출
~20
##지역구
파이낸셜뉴스
지수가
마가
##트럭
.1%)
##연준
##이인
청사에서
소연
##사용된다
##마주
##여름철
##반영해
##얘기다
심은
##척추
##문제의
팀의
##아무리
##지사
##투입해
##모금
##신고를
##논의가
##일주일
차원
##들어선
##재개발
##○
##고전
##선진국
##다르게
##바람에
]"
구간
##들어갈
##상처
##이송
##ELS
##(02)
##예외
##설치해
##실시한다고
처벌
##이통
##하천
##고객들이
리츠
##폭로
##화제가
오카
##벌어진
##소집
##rights
나미
##올리는
ind
상공회의
##유명하다
바이트
##GDP
권으로
##남긴
##않을까
과도
##곳을
##특성을
##스파
##토요일
##오프라인
##정진
##소상공
##정수
##노트북
##이어가고
네트
오염
##반기
작으로
##피의자
served
파라
##자료에
베리
##보러
##건강을
##경상북도
래곤
##포함돼
.6%)
##해마다
GM
현장영상
.$('
##크리스마스
##임의
##공모전
사원
##진실
재료
##중계
##크로
##일종의
##간담회를
##시행령
##스카
##0.1
룸버그
##뭔
##찾았다
만원대
##reserved
일러
##밀어
CB
##요구하고
##상습
##책정
##릴
포스
했었다
##보여주고
By
까지도
특징주
##개최된
##인텔
EX
##사유
##쌍용
##서비스는
##밀양
##텔레비전
작전
##연일
##장난
티스트
##심지어
##체납
##헬스
##사물
가인
자회담
##보고서를
내역
##냄새
##수익성
골프
이제
##겪는
##리콜
년으로
자로서
##치매
41
##기존에
##보지
외선
재해
##연세대
동과
투쟁
지나
##잡은
.7%)
-8
##기업으로
##부사장은
##곁
보육
##간단한
##산업의
가리
##실망
##국토해양
##않았던
##홀로
브로
##휠
인프라
##훌륭
##아들이
리더
##기념촬영을
##애초
##경제성장
##브랜드를
##것이라
우가
##설립한
일만에
.8%)
##이다
##지름길
결정
##머리를
##반환
##첫째
##겨울철
부상
##매체
##네티즌들은
##기업과
##올해로
##이뤄지지
##강화할
포항
##돕기
##상륙
##실정
##해운대
##서비스가
##동서
##크레
##세계적
ea
##변화에
##자금이
onga
##검찰의
##유병
중앙회
##단일화
매김
##재현
##청문회
ress
##선거에서
##협업
##fn
렉션
변호
징금
##더블
대장
향후
부족
##구성된다
김정
##영업익
##주장하고
##제임스
##알바
체계를
맞이
시설이
##강화하는
그동안
##무조건
##제기한
편을
""[
##수치다
##이어져
##이어진
##업무협약
2'
케미칼
근무
##CNBC
##내놨다
##황교안
##뉴질랜드
##산불
월과
혜택
##69
##다룬
##진학
##잭
리안
김영
CI
대원
##호응을
따라
##관해
##중의
##한국이
##한국경제
##경제부
##신차
##계획입니다
시간이
57
##배럴
##범위
##일본이
즈가
##되는데
##손실을
##하나가
##과일
##단말기
이었으나
##작품은
##프라이
##앞장서
결혼
##블록
##성공을
소설
##해산
##생산하는
##나서는
##유럽의
##실효
##출하
##사무실
성형
##솔로
기세포
##걸린
ontent
동맹
멘텀
##횟
##골목
한경
스포츠는
##1985
##챙긴
##드림
일자리
##배경으로
nter
##세금을
씨에
##훈련을
##수의
폴리
##담당하는
##물이
##시작됐다
49
##벨기에
었다는
##날씨가
##지금도
Ch
##구성돼
##확인했다
원인
##그것이
##번호
##후보와
##팩
PI
##일본에
##럭
##나가는
##대국민
퍼니
##에코
##성공적인
##선두
그라
담보대출
##전국적으로
##메이저
edaily
##유포
##앱을
##확보를
##자리매김
견을
##이내에
##공식적으로
##안성
##여부에
반을
##모듈
##시가총액
##어우러
받지
##감각
##열대
##근대
현실
##전국에서
##훔친
##걸친
##세제
##속도가
##일각에서는
##회사를
##남한
지역에서
##current
났고
인식
콜릿
##방식의
##신도
El
##대성
청에서
##출연해
아는
##갈라
##집합
Man
전철
##이완
##내리고
##잡았다
위해
##손해배상
##위의
슬러
##일간
##버튼
guide
##금융위
심리
##얼굴을
iv
##뒤늦게
##생기는
##갔다
SS
설비
되었으나
##러시아의
##구매할
##거주하는
화할
##와서
르타
파워
##상황은
##부딪
##웨딩
##1,000
드와
##0.2
##충격을
신탁
##빠져나
##심상
##작업이
##인테리어
고교
##게임의
##조금씩
##누릴
토지
##수를
러시아
##제기됐다
도급
##가려
##4%
##무리
##삼아
##원산
##양해각
##前
소통
등의
술을
##불참
##불을
##캠페인을
result
##합리적인
##책은
##에서
외국
##갈등이
##됐습니다
##서대문
##증시가
##영화이다
##우대
믹스
##예보
hide
차관
##가볍
##통치
행위를
과를
점유
내셔널
2015
다니
##진압
##용역
47
##한반
기간은
##있으니
##뒤로
##몰래
##1200
##장거리
가요
##1984
##줄이
##국가가
##정상회의
##제기되고
인구
북부
##받으며
##보내는
##프란
##바랍니다
##주민들은
##트랙
##최고경영자
FO
Segye
##지상파
##파생
##찍은
##사망한
##기온은
등이
연예
메일로
##대학의
네스
상위
라리
##대가
터미널
##올해부터
##컨소시엄
##78
##경유
##임용
##차익
.9%)
름을
##지적도
##아이돌
##국민들의
강화
##정작
즈니
##같아
DN
기관인
##뜻이
##전통시장
##900
##군인
이었습니다
##계획이
##같습니다
충북
출산
프가
##발표를
목이
라면서
졌다고
##아니지만
##겉
##오래된
##해당한다
##바꾼
##일부는
II
##요구에
##술을
##임진
상호
##노하우를
##전신
##능력이
##노력이
60)
##지붕
##어른
##눈물
금융지주
##다하겠다
##리모델링
청과
##후임
##카카오톡
##성적을
##줄이는
##박람회
버드
실히
##막대한
계정
블랙
##The
##합의했다
데다
Info
##올리고
62
##외국인이
성군
##1945
##미흡
##불만을
생의
##후배
모든
##쿠키뉴스
분부터
##상담을
취를
##낚
토리
어스
##물품
##전교
연이
##5,
##이상인
지방경찰청
회원
##꿈꾸
##형식으로
##발병
센티브
바닥
##넘어서
라이트
##당시의
##지지율
##이사장은
##입장에서
##사임
##롱
##집중적으로
##타결
절차
##오르는
문에서
시다
##감안해
##성장할
저가
##나흘
##박재
보다도
##선호하는
##경찰관
omain
##사람에게
##강점
##불황
##이용하여
##네오
##청주시
##쳐
##비싸
조작
##상주
##즐기
메시
...”
##분석해
모집
##적용한
##*
##시카
얀마
터는
##부자
##뉴스레터
(17
마토
객이
그러나
##에어컨
##조이뉴스
##아웃도어
님은
##참여하고
할인
##금품
##아르헨티나
##증가하는
##모친상
##깎
##불편을
##엿
##벡
고와
2012
우수
##논의할
##중국을
국제공항
log
##옷을
맛있는
회사의
##느끼는
오리
년여
종과
아산
##내리는
파스
arch
##법무부
##컨테이너
포를
##넘치는
##소비자가
벨트
시킨다
##아나운
##랭
##밝은
##DNA
##국민을
##노동당
##당연히
##현대차는
##정보가
##발송
십니까
##성능을
##세이
##땀
##후보자는
라노
##점에
##복잡한
##유연
##공화당
##추진한다
공식
","[
##사안
지엄
에어
##월급
##유진
##상시
##짝
##정한
St
##크루즈
해요
##유관
:30
##다카
##장르
##날아
##베를린
##싸움
아이닷컴
##가족이
##행사에서
##●
##보강
._
42
##가뭄
##맥주
##사모
##확보한
##무력
##대행
##지니
##위치를
##확인한
살이
기존
##나오지
##노원
##권리를
##학생들에게
세권
MOU
##빨라
##유튜브
##얇
##공화국
##주관하는
##As
##형식
##중복
##가면
##컵
##위장
##시간은
##강수
##독서
##표창
민이
장학
##창설
진구
##원격
##범행을
##생길
동에서
turn
##애플의
##});
##전라남도
##이루고
##71
##승격
##고수익
##관악
##광산
해가
전자가
세서
##치아
##여파로
2016
##유학
드림
##가담
##잎
##뜻이다
##인삼
##소재로
one
##믿고
보유
##내야
##수산
CO
##순수
##인증을
##커질
##있었다고
##프로젝트를
유플러
##고려대
사상
년보다
##의학
##이순
56
##쉽고
##지원에
##나타날
##필요성을
과거
오스
hn
##클리핑
##랩
특위
파를
##쌓아
##뛰어넘
58
~9
동해
모가
##그래도
명령
##광명
##때문으로
##컸다
`▶
##때가
##선수가
##광양
##수령
##어디서나
##모자
##근거로
##마련할
##정동
##통행
관계가
##인양
##연예ᆞ
##내장
##법조
##가족과
##"<
방에서
##게임메일로
##연예ᆞ스포츠는
렬한
##공기업
##황제
##상태가
##승강장
##73
개정
##결론을
선택
##방안이
##밀집
##언론에
##득표
하루
##이게
##손학규
##블룸버그
##경신
##육상
##규제를
##삼척
##사단
##오르고
##제국의
:1
##달러를
치면서
##승인을
모레
##나타나고
##원에
##매장에서
강릉
##return
##올해도
##나노
##설명하고
##프로그램이다
##창당
밀히
##통영
##참가해
##통하여
##신작
##중독
##기록했다고
##7000
##대회에서
##구속영장을
오롱
##물에
스톤
홀딩스
##8000
스럽다
##헤럴드
관리를
##종전
권에서
폭탄
되던
날씨
##아끼
##연계해
만원이
비행
은행과
##기대감이
##조사결과
군사
과대학
스팅
탄소
CJ
##나스
##행보
문화예술
##회전
##가격으로
시고
##부합
기에는
##상의
##저하
베이터
##지능
채용
##가맹점
길에
##김문
##소리를
50)
##주변의
##나쁜
##어렵다는
##뜻한다
##성공투자의
##않았다고
##지혜
ager
##피아노
##갱
##김유
##이야기가
##선수로
52
동으로
퍼시픽
##곳곳에서
##가능성에
##아니라는
호기
##비전
##유치원
##역사상
##사회에
##린
##핀란드
##대중교통
##접할
##앞당
##유죄
##중에서도
지부
##발족
##분석을
교실
##St
##로비
콘서트
파이낸스
##인력을
##발레
제재
##자아
##인구가
##구독하세요
셀러
(13
##알레
##털어
처장
##학생이
##대항
##우유
##수천
##연말까지
##김광
##잃은
부진
함께
##학교에
DC
##한인
edia
##서울중앙지법
상업
##시너지
제도를
##수준인
##개정안을
감도
##이르기
##출신인
##꾸준한
##비판을
##쓰레기
##김명
##유동성
설에
민주화
RI
##’
##해양수산
##간에
##브로
##청렴
개입
##뭉
##공급하는
호에
##여행을
##않았습니다
##출장
았는데
##총선에서
자이다
##나라의
##출마를
##직접적인
체와
눈에
EFA
##시세
##외면
##NHN
##참배
ure
##귀족
##동반성장
퇴근
##대여
으로서의
포터
##자리잡
##종류의
##병원에서
##영등포
##복용
##곰
##김주
##위조
##토론회
##동행
##동영상을
##면적
##서귀포
##마이크로소프트
##활동하고
원자력
해수
##게이트
##기반의
테이
HO
##이루어진
##나를
##총리의
곡을
##대부분은
##알렉산
##경찰과
##이루어져
##진행해
##신화
##몫
방문
##후손
##법제
##사각
궐선거
##촉구하는
##수신
##성장률
##집행유예
##학생들을
##장마
##괜찮
창출
##퇴진
레일리아
##메이크업
##예상보다
##예전
ialization
##닿
##안타까
##공조
##경제정보
메르스
##신도시
톡톡
##보복
##마이클
##진행되며
##포괄
##업계의
##점수를
##플러스
##취하고
##해결할
##말은
##약세
##거리에
##펼쳐진다
##가축
본을
전수
2011
##웃돌
##역임했다
더스
##실시할
##에피
##포트폴리오
##상봉
1%)
##메모리
##축산
##모인
##챙겨
##추경
##레이저
##보험료
##선거에
후의
##'1
##전임
##김혜
기관이
##주문했다
어지고
##국토부
수학
##받았고
serialization
##아시안
심으로
##차이를
경비
##수차례
##1982
##일요일
프의
##하위
##평가다
##전했습니다
부인
##명백
mg
##드는
./
그런
##지은
ni
##중개
##전체를
##장남
##확진
##여성은
##헌재
##메가
##정책이
##골든
활성화
2013
##사격
##장기간
막을
##결정했다고
##있으므로
##장학금
##연재
모씨
..""
##우호
##총재는
##전분기
사업이
##당국이
대리
보상
##것보다
##졸업하고
쿠키
##가계부채
##가난
##그럼에도
는가
알파
##당원
##것인
##맞춘
##꼴
##전반적인
좋은
##요구한
코스닥
되는데
##1983
구성
시대의
##이메일
##급속
##기금
##기간을
가격은
##얼음
##들어서는
본부장은
##II
##상관없이
별한
##AFP
##광고를
##사랑하는
##인센티브
##국정감
##기자의
##이색
height
##직면
##신사
##콜라
되었던
##350
##프로모션
##잡지
ee
##안된다
##지급하는
풀이
##도주
##돼지
##중요성을
##박사는
##일괄
##거래가
##79
##관련이
##모두발언
프랑스
##각각의
되어야
##상품은
##경남도
##의원들은
##많지
##화가
##고객들의
국토
무라
##82
##정선
##오스
##동남아
##사회주의
##제목의
였는데
##상인
##항암
##시기를
##어려움
##해방
##팀이
##달라고
위원장을
##구멍
플레이션
아프리카
정기
테스트
##가벼운
물류
##동화
##사육
##중형
과제
드에
해져
##가끔
진출
모바일웹
##지급한다
##옆에
##드러냈다
경원
##놀라
공유
##최경환
입찰
##공고
##영구
ance
##뿐이다
##유세
미의
##포함됐다
##목표주
##선배
캠퍼스
상장
##발견됐다
##프로그램이
sk
##아름다
##확보하고
지식
화될
##0.3
##올라가
##자칫
영어
치와
기업인
##서울과
##정도다
##세일
##제이
##위에서
로와
##권한을
##속초
모의
##男
##단원
##대통령에게
##포도
만원에서
문화재단
##인공지능
##카를
국방
##경상남도
##국왕
##남겨
##속도로
sports
##약속했다
##아이디어를
##중립
itle
##유산
##81
##교수의
##일대에서
##문화체육관광부
##청탁
##에드
##안정을
사한
##거세
ler
##관리하는
##자국
##보내고
##돼야
##색깔
##원가
소방서
##지음
##자유무역
팀장은
진핑
##보편
##제기했다
영수
##올릴
##도망
##항공사
소녀
##손쉽게
##등재
##사건으로
##팀의
##정의당
##추구하는
##개그
##차트
##도입을
전북
##상정
없다
터가
파는
##조짐
##아이가
BI
도르
키니
##아닙
##이념
##파주
##지도부
센터에
업체의
##김창
조원을
씨소프트
##전쟁을
##어려움이
##규정하고
감에
##개발하고
안군
##애널리스트는
##1979
교과서
가운데
##부양
들었다
##대목
최순실
##시민의
##담았다
엔지니어링
##진행한다고
##이벤트는
바라
##일으킨
##휘발
두산
##보건복지부
##준수
##언급했다
##외신
이라고도
감시
업자
##소비자들이
20)
ph
##체류
##봉사활동
##중소기업의
##랜드
##꿀
##서양
##현대백화점
습을
##모스크바
블리
비즈
##내년도
한미
##속의
##대표로
##통합진보당
##연초
##증인
81
길래
##사용하지
CNBC
##팀장은
분으로
##원정
##재고
비중
##떠난
##태백
OD
##MC
##타당
렸다고
##정치인
##한진해운
##신발
##설명회
##규명
사업으로
부고
##미뤄
##일에
센터가
##UEFA
##마음에
##모양의
##말할
만명이
##놀이
##결정에
##하거나
##외국인은
시스코
##업체는
##이원
##쓰이는
##국민들이
##끊임없이
##의하여
Title
##파손
##선보여
우며
##수료
##의원들의
##예수
##의해서
PP
##여유
2010
##과세
##흥미
지원을
노스
##혼합
로나
층에서
##신앙
밸리
악한
작품
시에서
문화를
증후군
국정
##감독의
##컨트롤
##이진
##활발한
##대통령에
신저
타는
##기간이
##신약
list
##세계의
변경
려야
##비준
##향상을
들목
네스코
##민주화
##수상한
AD
##붙어
##간다
##올해의
##강조했습니다
##포지
##위안화
##비록
##할아버
파업
##분들이
##연구원
##조직을
##나누는
하였는데
테일
##연구소
##인용해
##신인
##물량이
##사태를
##알리고
프란
##자체를
##파문
getEl
artgetEl
어디
재난
백을
##86
##핸드
##연예인
경향포토
당국이
만명을
##찾지
##가이드라인
MD
명에서
##짚
서울병원
배에
##반영한
##반응이
##칠레
##줄이기
사히
##고객들에게
##한계
##이틀간
Manager
최대
저축
야말로
지마
##부가
##팀을
##비교하면
##아래로
##유리한
##대구시
##맑은
동욱
##준비하는
##제조사
##결심
##중시
##깃
위인
##도출
##부상을
다만
택시
##유지하는
##보행
나라의
##꾀
##후에도
ize
설명회
##부의
##파악하고
##섹시
##편의를
##그들이
##보다는
북구
##금감원
수리
----------------
##루이
##석탄
##바깥
##전철
##충주
둥이
##운영할
##노조는
고리
##미치지
##Ch
##급식
억원에서
##윈도우
코올
##영향력을
##선거를
##이번엔
""◆
##조류
동은
##메디
##선정했다
##여는
##朴
##의지
##거죠
군으로
라고도
개월만에
오후
티스
##경호
##마리아
##아리
##당신의
##대가로
##수준이
##대우조선해양
ton
##오케
하기를
##불공정
기인
##암살
##터널
##정책위의
##사무총장
GS
전통
ith
RPG
##저자는
##진단했다
##관점에서
예금
##버락
습기
##선관
photo
##획기
된다면
##씻
회사인
##연평도
##-0
본문
##즉위
##있을지
##명단
##새마을
태를
##아우디
##지위를
##사옥
##강진
##보냈
##뜻으로
았다는
##행진
자동
##일부가
##사외
##새누리당이
로봇
보고서
##순이었다
##났다
스트리트
##수감
(0.0
##관료
##폴리
총괄
##식약
##지역이
##뉴스가
##UN
##이창
##주방
님을
##질문을
##운영에
##옳
런트
법률
##늦게
스런
##작품이다
##광장
번지
##누리꾼들은
중독
##new
##물건을
##헨
##87
##요인이
##『
둘러
##교보
북한이
value
동계
##GM
##상실
##갖췄다
##못하게
##본인의
##한다면
고래
##노르웨이
##내놓았다
##전경련
##특성화
##시나리오
##칩
슨은
퀘어
##백신
##모멘텀
사업자
##거리를
##실전
##울산시
##원고
##www
##강조한
##수시로
##원인은
##모델이
당했다
##관측이
’"
##붐
층은
##현상을
##삭감
##선의
##있어요
##그룹의
##송파구
##설명을
##중이던
##수입차
##맞고
##제작된
##한마디
##한상
##청계
2014
##산정
받는다
_1
분과
##명문
...“
방식
일부
##셋째
##영화를
##기본적인
##개소
##채워
##전문의
##1981
##LA
ilbo
##톤
##때의
##전년보다
현지시각
##정신을
##주요뉴스
개념
부부
uc
마일
##호텔에서
인민공화국
##단위로
느라
관절
##움직임을
##이렇
투명
호흡
##통증
##방식이다
##빨간
##시위를
##모습으로
마는
##개선에
국장은
##출구
##후쿠시마
##세계를
##미분양
##허브
예요
주도
##나라를
##다채로운
##세상의
동력
##정부를
##낙동강
##사회를
랑이
##자는
##리조트
론은
##씨와
##사람도
##약세를
기아차
##있느냐
##적어도
##증가로
비치
##청산
##켜
##작가의
고생
##킹
##원화
##카드를
##태도를
##거점
가구로
##증시는
##고리
동원
##들어오
##거대
비디오
##경부
##로또
##초콜릿
##내걸
##본질
##3~4
##브랜드로
##처음에는
##퀴
##아산
##기관의
##전통적인
추가
top
##나스닥
##나란히
##정치뉴스
##선행
##오스트레일리아
기관에
보겠습니다
금액은
##생각합니다
식품부
여명을
카드는
Main
##경제에
잖아요
##않겠다
##정치를
##멈추
##추측
년대에
##되자
##오찬
##스펙
##여성을
io
으려
##거제
현대차
비리
##기본적으로
##과다
컨설팅
##완벽한
코리아는
##아니었다
##코미
##한계가
##0.1%
사정
웠던
##7%
##소지
##작업에
##스킨
##장비를
지요
학과를
##바른정당
##존재하는
##꼽히는
니지
##지속가능
ers
균관
통은
##있었으나
##토크
##타격을
할지
블로
##1.6
##참가자
∼3
##돌아온
원주
##활동이
금자리
##평가가
##IMF
##사진이
##박차를
##시작하는
업계의
##킨
##구직
##경향이
##자영업
##수익률을
##따져
##꼬집
스쿨
감은
드레
뱅킹
##소비자의
3'
##레벨
##추가적인
남북
다란
##인식을
##효과적으로
한을
##대강
##히트
##세우고
##전장
##화제다
##온실
##다각
##범위를
##펼쳤다
##위험을
번째로
##홈플러스
##시계
##선언했다
업체가
##분석된다
##의문
##이르기까지
.【
##브라운
나고
능력을
##커뮤니케이션
html
대변
지역을
##판정을
차적으로
##놓은
##신종
##지정된
##김희
##조율
##투자하는
##사냥
보디아
##연결해
##내용으로
기간을
man
##재학생
##각국
##직원들의
##과잉
##만났다
##헤이
##협회
##해결하기
내에
##두루
##맞물
pt
.,
cess
들여
##국제사회
##매진
-6
저널
##각오
##지역주민
]◀
##구형
##겨우
##앞선
##초고
아이포커스
가장
##커버
##업체인
##뜻하는
orea
되게
##다양하게
환경을
##병원을
##이뤄진다
##신생
##공주
##집안
수당
중계
##가산
##조문
일째
##이현
##시작하였다
##실시하는
내에서
특허
나게
##갑작
##성동
작을
의회는
##전체적으로
##'0
##마음으로
##83
화되고
모비스
##탄도
##동북아
할까
##들어와
##있었으며
##후보자가
##특별히
비상
##그에게
##비서실
##그게
##마스크
색이
통계
시장과
##터미널
##소위
heraldm
##서면
업소
미술관
##모래
##점심
##증대
##마스터
틀랜드
##우리은행
대생
오브
항만
##우편
##부드러운
##기준이
베이션
##그럴
##청와대는
##원금
임에도
CR
참모
##금연
릭스
our
##물론이고
##상공
##사용자가
구리
##홈쇼핑
##불출
##세계에
##자유한국당
##규정을
##때보다
##선수권
##OECD
##기다리고
병이
##산책
De
##펠
화물
##소음
##안돼
##http
블루
##다니는
InfoLayer
##currentDate
텍스
##중대
타인
##안전하게
##시연
##명목으로
##국정조사
##기록할
##카지노
##효과적인
contents
##온도
##살아남
##전국이
wor
##98
기업에
##요인
기에서
##지역별
##있었습니다
상품을
##이유다
##선원
##영업을
##이어갔다
'+
됐을
##관심과
##지도자
발의
##본사에서
##창단
통신은
donga
##들여다
##뻔
##특별법
우리가
##공적
##손가락
개에
방법
보통
차익
##예선
##광장에서
##공장을
네이
##기지
##바라는
krGoodNews
##마산
##어두
##주었다
##3.0
##미얀마
##전설
##그림을
##통일부
부산파이낸셜뉴스
##많았고
##며칠
##약속을
##적어
##패밀리사이트
##시원
##Content
5·
다양
##정성
PU
배로
오늘은
##투표를
스마트폰
##아직까지
##이하로
##받았다고
년간의
##재검토
지하철
##남겼다
함은
(),
##위해선
##킬
##공사가
##민정
##빈곤
##청원
##노란
##경우에도
##근절
##수출이
##굽
세력
음료
현의
들고
##그날
##환승
실업
##염두에
##index
##어렵게
##시스템이
##소홀
반도체
##방문하는
##도민
##채취
##화산
##쓰인다
##원료
##판교
All
##감찰
##논란에
##지방의
##이것을
##일본군
##하나금융
왔던
##학교를
##스미
##정도를
##해상에서
##의혹에
식에는
##광범위
##한옥
##관계없이
##정확하게
##굵
ICT
##Hub
##모바일게임
##웨이
##상승을
##종목은
##단어
사회복지
형에
##번의
레이크
##상태에
수영
년에서
##오늘은
로서는
##본인이
##보낼
##흙
##네이
##수비
##하남
##체결한
##제대로된
학술
##사용을
##조건으로
호남
##보전
##강등
안내
##소액
##교원
타를
##변호사는
##이시
##폭넓
##노래를
-7
##경로
##겨냥한
르몬
해상
##과시
##다음으로
##빼돌
##홈런
##최고치를
po
##인건
##참조
##재임
##한국거래
##주소
##분야를
##움직임이
##양적완화
##→
##한방
##마련하고
청을
##고려할
방어
베이스
##작용할
========
본다
##이의
##높아졌다
조명
##고스
라스틱
##예산이
##1973
##됐다고
##여야가
##워터
##비서관
##폭스바겐
자고
공모
category
##불필
독립
구속
보이
포털
##원이
##해지
##아이템을
##스프
##기능성
##마포구
##예상됩니다
##등장한
##수출입
하되
##구축을
##동원해
##스마트한
##회원국
디스
##김은
##구입할
##금리가
##연방준비
##체제를
돌이
류는
##등록금
##보세요
페스티벌
##장려
##참여한다
##하락세를
##데이비드
##기술과
##이틀째
드라
##방사능
##룩
##대림
##항만
모리
##고통을
##걸고
##좋을
##세입
are
피를
##나타난다
하신
##걸릴
##꾸며
리포트
하느냐
##퓨
꺼번에
달러를
##'2015
##알뜰
##mm
##소개하고
경주
파리
##전망을
##시카고
##저지른
개소
##홈페이지에
##통화에서
##눌
##고무
##천황
##사망했다
현황
##증강
##한복
##li
##오고
##체중
SBS
##공헌
##나가겠다
##입체
회생
##유한
##임무
##탄탄
##서울대학교
##국도
##아티스트
##수거
##경제를
단속
##조선중앙
##구별
##우회
##넣고
##맺은
해진다
##여학생
정동
'◆
카메라
학부
기관과
##피부에
##확보할
이니
##인문
상수
##협력해
##tr
##혜택이
##선고했다
##청와대에서
열을
##폭락
##국민에게
령이
##소멸
기간이
##아메리카
##조선민주주의
##모토
##일명
의사
##6·
만명의
어지는
##살해한
##전주시
주자
##확대에
긴다
색의
편집
##넷마블
기관으로
으니까
##개선이
##고려한
index
##트래
##늘리고
##원자재
티지
##확대될
##북극
##원인으로
##호조
##도널드
##극장
##US
##환급
노동조합
##서울시가
##무서
##신혼
##처리를
##선대
##후퇴
##근접
커뮤니
##공채
##구단
터널
##그랬
##코치
##다운받기
연설
##주시
##그러한
##회사에
강의
동생
##거둔
##재학
##이후로
##젊은이
##상회
##출품
크림
##제로
가에서
##역을
##이어갈
##끈다
##지경
##재차
##조치가
##피로
##사건과
##푸른
뤘다
─┼────
혈압
##전문가들의
##높아질
응답
##프로그램으로
##탄력
장관은
##한전
마르
명도
##닦
##떨어질
##연체
자나
봅니다
임이
"")).
CommentCount
articleTitle
##방출
##최적의
##유네스코
모레퍼시픽
경험
에다
##제공하기
##편리하게
주의를
##신조
##선정한
##관행
##민중
##처분을
기초
##한꺼번에
##해변
##후보에
열차
지급
##꺼내
##대지진
##국비
##위헌
과장은
##보여준
##체계를
##바이어
만으로도
lling
.21
##속속
총생산
##달라진
##은행의
##보며
##적용할
##배가
NH
장도
평등
##환율이
##그레이
##병원에
##선거운동
##매력을
##복무
##마련을
##위법
##문제점을
가게
##중이며
##보호를
##업체들이
ts
##나타났습니다
##투자자들의
##세균
##자이
##전반적으로
##밖에도
##지냈
##선택한
##종가
##굿
##정면
##한눈에
##주최로
##선물을
##싸이
br
모직
##미국을
##높아진
매를
##입시
##성폭력
##1972
##발을
##과정이
##연상
##내년에
과세
##역설
##강력히
##미용
##네트워크를
새정치
##움직이는
##동해안
##되었으며
##유혹
##원칙을
...""▶
cument
##예능
##하나다
##로버트
가격이
##기쁘
##아이들의
CS
##☎
##LS
##여전
##시작할
##5·18
##반전
사도
##실종자
##자랑하는
ile
##대회는
##대학원
##성장세를
##후계
##예산안
공원에서
##손으로
스틱
##사용이
##중국어
##하드웨어
##활용하는
동향
##신청할
##또다른
##일정한
##봉사활동을
##시장점유
##이산가족
##사용하여
\'
##세우
##건축물
##늘리는
##프로듀
##비만
##브리핑을
석에
##법을
##판매량
##그러면
##주교
##필요로
##바꿀
##확인해
용지
##왼쪽부터
##희귀
##마케팅을
##박수
##한성
대신
지않
##자라
네트웍
##신속한
##도입한
기업으로
##이대
##이세
##이어진다
##말부터
크의
아르
##멸종
달라는
니가
##병역
HA
이후
##김도
##표결
보레
##나간
##상무는
##탕
##아이들
]●
##후지
##작품이
##투자해
##일도
##각광
》()
##96
##탁월한
##낮춰
##인제
##제공한
##논리
##느꼈
##반기문
##면에서
##신성
##여부는
재무
가구가
부지
자녀
##신영
증권방송
##1978
##구제금융
년은
idth
##책임이
연도
##때에
포스트
##리얼
만원씩
##시민사회
##새끼
~12
##박스
의학
앤젤
줄이
##결정한
學校
##전두환
##않으며
##반박했다
##설치하고
##이곳에서
##낫
##가방
##기법전수
##행정부
면허
##절약
##확실한
청와대
##외환은행
스포츠서울
##카이
##포격
##성장이
브리핑
##기대할
##사우디
경과
버스터
##말하고
##이해할
측에
##비판이
##졸업한
##표면
##복수
##증상
##차지한
##초대형
##개최되는
##전셋
##체코
##환경에
##94
##단백질
ca
기업을
##신성장
AE
담을
##국감
##윗
##판단을
##고려하면
##구호
##발생하지
BM
##김인
##양의
셔야
##금강산
교섭
##이루는
루미
##지키는
ref
##의미로
##아마존
문과
ell
##최재
##게이머
##논의했다
##했을
불법
##노예
사회적
##도요타
ther
##개최한
강도
##1974
##모른다
##벌이는
##에피소
위원회와
##인사말을
테르
##부임
##그러니까
##골라
하므로
##압축
##파키스탄
##작품으로
##대대적인
##보고서는
방해
##구역
##까다
##않았다는
양은
##곱
욕을
남미
##안타깝
추어
마당
##경기에
##1975
##보령
고로
매장
##퇴임
##확실히
##예상하고
전성
(40
##들어간다
##신속하게
보로
##가결
##까지
##희망하는
...◆
##지원하기
##민감한
##이뤄지고
주지
##아시아나항공
##주차장
##여권
##외모
##감독이
##가리키는
##확신
맞춤
##중산
그리앱
해준다
##89
##맛이
##민간인
##애플이
##“‘
##2500
줄리아
##2019
배가
##거리가
##배럴당
우여
##확대하는
##뜨겁
##긴축
##재미를
##미친
##개혁을
##꽤
슬림
##천주교
td
##근본적인
##조계
심과
##IoT
##상품으로
##연중
##절도
##주민등록
인간
##고사
##CNET
##에너지를
##실적은
##비율을
##대상에
##여섯
Obj
##사면
30)
##살균
##360
외환
##당했다
ear
##긍정적으로
##구리
##시즌을
##이외에
##일본인
사키
군요
5%)
##계급
##국가대표팀
김정은
박물
##독려
**
##테이블
##회원들이
##생애
##일선
##대원
##만만
DNet
##농어촌
##관리에
##극심한
콜라
##재판에
폴리스
##손잡고
##양재
##부문의
##생겼
##안전성
투자대회
##ZDNet
##집필
##97
됐으나
그림
민간
##신재생
##해설
##가족의
##이건희
##남경
효과를
atta
만주
##체험할
사업부
##금요일
##협조를
메가뉴스
도의회
##중부지방
·1
##탈모
거리가
##반성
##용산구
##감독은
했는지
##장관을
##박용
##중지
##지수가
##비핵
##북한을
인민공화
##r
##드레스
국대
수행
##연구에
계에서
##있나
이면서
##나타내
란스
##달간
##보면서
위권
##나뉜
##불과했다
형과
##못하면
연휴
##웹툰
윤리
지역은
##심포
ill
##데는
##높다는
##성범죄
##신한은행
##이코노미
##팀은
##잦은
출처
##이용하면
##놓여
##내의
##불량
##이정현
##바뀌었다
##삼성서울병원
##본부장은
isp
사랑의
##업무협약을
##훌륭한
##전쟁이
##속에서도
메리
##위주의
##트랜
##지난해부터
##시민이
##예상치
국민일보
##효율적인
성남
2%)
ik
##드러난
##방문객
##사용된
SW
전당
##VR
##선교
##자세히
##레이더
##입장에서는
##준비했다
##옐
센터와
외국인
국적
클리
##방송된
한국아이닷컴
##제안한
##공업
##다큐
##들을
##크기의
##전과
평창
##ETF
여러
##일일
joong
##왕복
지영
가구를
번의
)☞
##엔씨소프트
있고
##수직
##112
프로젝트
##차량의
##차례로
##이들에게
##끓
##유방
##비트
##아이디
##우리나라는
##결정이
##합의한
##요인으로
##충청남도
zd
거리는
##작성한
##북서
##야당의
아름
##선별
##메시지
##무제한
##법안을
곡동
##고양시
##위원회
통이
##면세
솔루션
영화제
##기술은
##1976
##상을
##전복
3%)
##lo
##기숙
는데도
##몸이
##식량
화장품
슬라이드
For
룸에서
##시흥
...☞
init
##현실을
##화상
##1.8
##통화정책
훈련을
##제안을
##해명했다
##참모
##웅진
##보자
##약한
##포상
##OLED
게이션
두로
##공방
##협상이
##롯데그룹
벚꽃
##도입해
##기술개발
##투자노트
##가능하도록
##캄보디아
Rolling
##전지
##부산일보
##희생자
보며
##출고
##안다
##방안에
##뭘
##선생님
##시속
##기술로
##동아시아
##해외에서
오마이뉴스
##전망입니다
피니
##기대했다
##뜯
##1.4
##대응을
##관리가
##혁신을
##진흥
##이어지
##교육과
title
##관광객이
##93
##픽
##밖의
##업체의
##계속되고
RO
월드컵
##동탄
##중학생
##주어진다
##부추
총회를
##금액은
##순회
##주목할
##막고
##무대를
##이뤄지는
벌이
##차질
니의
##장관과
##격리
##유예
##영역을
##기업들은
##外
마루
##만찬
##주된
##양쪽
##고구려
##바둑
##정교
졌을
##군수
MBC
##안전사고
자재
##프로그램에
##승무원
##집회를
##임대주택
방울
으리
안전처
##대응할
##해주는
##코드
##시진핑
##가정의
##체계적인
##위험한
##영등포구
식물
##0.4
##짓는
##차장
격이
라이언
손안의
##건물을
##장점이
##산악
##모델은
러블
시간에
##연안
##수사가
보훈
##select
행성
음에
##파는
##튼
cbs
##의지가
##성우
##마이너스
##발생하고
먹는
단에서
##리서치
조성
파이어
가수
##넘어섰다
##브랜드의
##인정받아
joongang
##고의
##재산을
##나고
##""1
업체에
##뚜렷한
##골자로
##힘들어
##불꽃
zdnet
##잡는
조치를
!”
바르
##내놓고
종인
##농림축산
##300'][
##게임은
SectionName
selectedIndex
양군
##택배
밀하게
oJson
##PB
##사람과
지역으로
##애로
##조성을
##확보해
##펼칠
##사항을
##과반
내외
쳤습니다
##사망자
##휴게
##정재
##조카
##커다란
##빛을
##화제를
채를
지출
##무엇을
회사가
##추후
##교육과학기술
##인식이
##무상급식
싸움
##언급한
##치유
##삼각
##울릉
YTN
##부산의
##평범
##그나마
##막는
##안정적
##싣
##보합
##올레
##사업비
살인
##휩싸
재배포
컴퓨터
폭행
##물건
##국토부는
러는
##학과
##할인된
##둘러싸고
5,
더라
##조선시대
##유학생
##기장
##라틴
##1930
##중재
사업본부
##하에
##법원은
##없으면
##토픽
##공동주택
##소감을
##국악
##연산
##얻는
##마침내
##정부에서
창의
##92
##대개
##노선을
인들에게
##데려
##장군
##일어나는
##명령을
##안정적으로
##않다고
##상해
시절
##한명
년전
전투
론의
##때리는
##이재용
##신문은
##약물
##지고
세기에
##신상
##전일대비
##워낙
##토끼
하기가
##떨어뜨
##매몰
##반해
##상처를
값은
볼라
팅을
##'3
##국영
##전투기
##기간은
##바이러
##김종인
##형태를
##재편
보라
프란시스코
kW
글라
##권장
##신청한
##새누리당의
재단은
attach
##이한
##탐사
자료사진
##최저임금
##엑스
##있겠
##저작권
##허가를
##애플은
##부친
이므로
##마쓰
##주둔
##수질
##고객은
천구
##일원
뉴스는
##노력할
##의원도
영리
##수요를
##설문조사
##1920
##월간
1@
4,
'☞
아라
##신당
##엑스포
##이상은
##뜬
##김윤
##실리콘
##앞으로는
##인근에서
##볼륨
##대략
##개인이
트에
결과를
##결정하는
항에
##총기
해군
##블라
##0.5%
영향
##정권의
SM
몬드
##금액을
##말씀을
yo
사진을
스트로
...‘
##코레일
##말았다
##차량에
##승용
날레
##적용된다
##91
##작가는
##보도했습니다
미한
박사
LTE
검색
##수소
##팔레
##탐방
##속으로
##대학에
코어
##외곽
##엽
##이노
##코오롱
tem
##머무
##속한
미르
##귀가
##현지에서
##투자자들이
##갓
##경제협력
##메신저
##증가에
##은평
##쟁점
##푸틴
##연구팀은
##마포
##쿠바
##기간보다
돈을
협회가
##구체적
##단호
##상표
##티셔츠
통신이
##마땅
##막판
쇼핑몰
##개발이
##드러내
##든다
무용
##조영
##정책의
?’
##다할
##출제
##실시해
##창원시
##반값
Tomain
##수원시
TemplateType
(+
##속옷
##교정
##홍삼
성적
##toMain
##한국전력
##날짜
##힐링
##RPG
##비난했다
주에서
count
##확인된
##해병대
기자본
##나은
##임박
관리에
##포스터
je
##기술력을
이명박
##교차
##각자
##물려
##정상적인
##전문가들이
련의
##권영
##야마
"(
GDP
##성균관
만화
##아스
##se
##변환
침을
##주식형
불교
났으며
##결과로
##방북
##민감
##처방
실장은
##곳도
##선언한
사우
##깔끔
##힘들다
##운영된다
##갇
희롱
##침수
이치
헬스
PO
용량
##대명
##특성상
##필요할
my
마감
##이식
하마
해지
아메리카
##당기순이익은
레저
두를
##Top
##주식방송
##저축
##참전
##최장
##Asiae
총회에서
##AsiaeTV
##부자가
##키우는
저히
상황을
##톰
tive
##뚝
##방식이
##'2016
명품
21@
##급감
##전체가
##랜
막이
##판매하고
##이천
##경희
##고스란히
##끝으로
##일대에
공약
욕장
##떠났다
##부산지역
##학교에서
##약화
##보아
##정전
##국가정보
##개발과
##부총리
##입었다
월을
##현대건설
##않는다고
시행
##센트
##도시의
##업무보고
##다름
##폭이
##구조조
##위치한다
세안
수단
주영
활동에
##성남시
안타
##것이라며
##반려
##재활용
##한쪽
##노력하고
지휘
##가파
##레이싱
##모집한다
##못했던
##안고
##저질
##스카이
켓몬
격으로
조리
게임즈
면세점
10-
##늘면서
##답변을
##쇄신
##들어온
##객실
##국회가
##안으로
##인터뷰를
##전동차
##확보했다
##나도
##가까워
##노동조합
##주파수
스톱
##반란
##1.3
##전투에서
##샀
##부회장이
##1971
##수성
##주유소
##오직
억원이다
##배터
##컨셉
##타워
##명으로
특별자치
##파크
정권
##들은
##빚어
##적도
개동
에서다
##계획은
##세련된
##당해
##짓고
번호를
##목표가
##101
산과
플루엔
##고장
##삼성전자와
##제도가
##대의
색으로
##숨졌다
##당국의
##이탈리아의
##서울역
##노숙
##청취
드린다
센터장
##집으로
##전제
한국경제
cc
##의원에
##사용했다
##주목받고
head
##솔루션을
##기쁨
##달러로
##임무를
##제주시
하이닉스
##은하
러스터
사이버
##여건
##종업
##어디까지
##참가했다
##부유
히지
##나면
##전작
##기여한
대사관
##시선을
##금융권
##재킷
##헤지
##같아요
##연면적
##아찔
##맞았다
##잇달아
발생
값을
##부진한
였다고
셨다
집단
##댄스
##중진
##준비한
##호수
##확정된
##각국의
회사를
비법
##늦은
미노
드립니다
##최영
##1900
##밀접
##아라
##어쩌
##고성능
##현대모비스
##합법
롬비아
카드를
##by
SJ
##홍성
위성
특수
##패러다
연봉
con
##수분
##잊지
##치고
##양해각서
##국가안보
##특징을
##Ltd
##학위를
오일
코는
##그중
##받으
##재외
백만
##날을
link
##활성화에
ax
위생
##생태계
##전락
##석사
##떠나는
##양보
##연애
##한라
여객
금리가
##낯
문제를
오토
##다를
균형
검사를
##하루에
##민주당의
##사용되고
##공급이
##진출한
##국방부는
##이젠
##받으면
##구는
##처형
##가처분
끄러
쾌한
트랙
##특허를
##개최하고
##석방
##시작된다
##고지
##요양
##태어
##김한길
##말도
##발부
##수단
##1968
##수산물
4·
##날이
정보통신
론가
##안팎의
##연인
##기준금리를
효과가
##축적
##삼국
##증진
동성
##변형
법안
##3.5
##환자는
##유감
##법칙
##성과가
##브루
##맡게
##가지는
##공청
##노스
##드물
##숨져
##출발해
##달성했다
##여러가지
##개념을
##공약을
졌기
##계획에
구글
##소재를
##인재를
##까닭
퍼드
직에
##감사의
##캐주얼
마에
KBS
##발대
##안보리
##고개를
론에
##오일
##재선
##홈페이지에서
##Best
음의
##듣는
##임차
##불편한
##전라북도
답게
##중고차
##아이들을
]“
인하
##투기
##맺었다
렌지
손실
4%)
##남서
AIST
##리스트
##소개하는
가을
##연맹
지사가
##최우선
았을
##자유무역협정
##교역
##실시된
##환경부
##제재를
만원까지
##땅을
ner
##고립
##앵커멘트
8%)
##죄송
ary
석으로
##경고했다
업이
##변수
##과목
협동조합
워즈
##주춤
##비키니
##시점에서
int
##찍어
##운영해
##거기
이었으며
##장면을
##민주당이
위반
독일
##핀테크
ug
##그와
##컨센
##마라톤
##생각했다
##제목으로
##갤럭시노트
6%)
BA
성기
##아파트는
##장교
##주장에
##남북관계
##의미하는
##한도
##판매량이
석과
품이
##르노삼성
##신흥국
##자사의
##화장실
여건
핫클릭
##정보는
되었는데
##딴
##분담
##1940
##일종이다
##컨퍼런스
팩트
생생
확대
##1.0
##붓
신라
##대회를
##억울
박쥐
한국의
##남산
msnet
┤│
쳤고
##컬렉션
##1963
##검정
##6,
판은
##대공
##6%
촉진
##느끼고
##미혼
##소나
##서서히
##1977
솔린
##확인하는
##제기된
)》
He
##3~5
##견제
##월세
##이벤트도
##최고위원은
##높인
ack
아카데미
##국내총생산
로우
##연쇄
##건강에
##양식
##치명
##예정돼
가전
만금
##라면
##권력을
##양호한
##원활한
##아파트를
##관련해서는
##명명
##제치고
##중점을
##주택담보대출
호와
##교토
##모습은
##뽐
베스
##온천
##적용된
##아버지가
NEW
##행렬
##다행히
##사업이다
##납입
##최대주주
상품권
일으
유니
##군사적
##매매내역
##설치되어
##바꿨
##벤츠
##시작되는
##과천
##정해진
##공간으로
##늘릴
크가
르지오
##당대표
창조경제
대금
버린
##배를
##햄
##점검하고
##설치한
##무덤
수수료
##손해를
##해경
됐기
모두
##숨지고
##우려도
current
##맘
##오마이뉴스
##공동체
넥스
##미루
##좋고
##성분이
유기
##입맛
##이사는
##사형
##토로
##시작되었다
##디스크
##로스앤젤
산업은
##기구
##현수
합을
##투수
왔습니다
##UHD
##지키고
##강화에
##1969
##전당대회
텃밭
받게
##계곡
##효율적으로
##번에
##퇴출
예비
공간을
##내보
##일어날
##할지
##개원
##눈길
##업체에
##않겠다는
초등학교는
##남성은
##공영
Mo
##과감
해달라
##앞바다
버랜드
##무엇이
##외교통상
컴퍼니
##되길
##강하다
지정
##찬반
##8%
##수업을
##일어났다
##있었다는
##소통을
##쾌적한
]※
버거
예고
##대부분을
##개발된
##돌아오
(?)
##달콤
##민정수석
##0.2%
##연계한
##쓰지
##한파
국회의
##지난해에는
##조경
##국정농
##연예뉴스
주류
##힙
##세계일보
##이견
User
##1948
달러로
제일제
파라치
##문화의
##물량을
##찔
##잃고
연수원
##시험을
박람
##마찰
년부터는
##일상생활
##풋
제이
##배추
##나들이
##취지로
##김원
##하다가
##아버지는
스프
##행사로
터의
##침략
##강의를
##장관의
##러브
##국장
##환경이
##마련된다
##인류
ory
##핵심은
나노
##1.2
##이해를
##뱀
##법령
##식민지
링을
##주한미
##사운드
##금융감독원
7%)
##알코올
##일정으로
북한의
천명
##명에
##탄압
디움
수도권
##코미디
디아라비아
ANC
INT
##열풍
##당시에는
##공무원연금
성공
에르
##부가가
##자녀를
##걸림
##window
##졸업생
##줄기세포
해줄
##예술의
##하기도
##CH
##내용에
ud
분할
##Pro
##나이가
##서비스에
##상한가
##자신에게
##뽑아
##도착한
##이후의
##민속
##삼고
실천
##다이아
##살펴보고
준호
##소아
##좁은
##부드럽
##제출했다
##효능
##일으켜
##외화
무늬
##편리한
##나카
##아르바이트
##북동
RT
##경기는
두는
##국회를
우지
##승차
##가나
##음력
##일본과
기간에
##문화가
##교육과정
##뻗
진료
##조속히
##부하
##비극
##일로
##카운
##교수와
##버리고
공사의
##남아있
##촬영한
##램
##자격을
판에서
컨벤션
년형
트럼프
##달에
##두려워
반대
회째
##나누어
UN
##자립
##종결
##국가를
##나빠
장한
##서해안
위원장의
##문제도
##엔진을
손해
##상세
##요청을
##대전시
##소장은
##용이
현주
##불만
##키즈
집에서
##true
##자궁
##아이스
##확산되고
##아픔
경쟁력
앵커멘트
병으로
##이곳에
비즈니스
##공룡
##사라진
##서초동
##호소했다
##락
##신기술
채무
##경기침
##있었기
##중앙은행
변을
##인종
##키워드
##원작
##베이비
대부
아지
기만
##두께
##신청하면
구치
##늘리
##물고
##박태
##""3
)(
##줬
##김홍
##우위를
##증상을
##부풀
##총회
##어린이들이
경민
##갤러리
##플라스틱
rc
엔진
##시켜
한나라
분은
##주체
##회피
##위원장의
난을
##레저
덩이
##악용
##전달하는
##정우
##TF
서에서
##때문이라고
##진지
##액세서
DS
교도
게이트
상선
현진
##사태에
##정하고
##유병언
##판매한
##차별화
텍은
##여부가
##자외선
감으로
분류
##외국계
.50
##하나를
##스코틀랜드
시나요
2@
유는
자다
플랜
대책을
##위해서다
##450
##주민의
##실질적으로
##상하
##전력을
##행정자치
##오해
##보충
##여배우
##출퇴근
내손안의
##권익
##연비
##전달하고
##민사
##국제적
2.
##제의
##냉장고
##주무
##시점에
##자산운용
연료
정희
##답답
##이겨
##발생한다
미안
티는
##고래
##라이트
##촛불집
##보금자리
무선
##이재명
##증가해
##페이지
##것인데
##시신을
##SBSCNBC
냐는
##팀장
##대회의실에서
##녹취
##휴식
##종합적으로
##채소
##청정
공학과
지기도
##야당이
##구축해
##넘어선
##간편하게
라클
##페루
미애
##국어
레나
위치
화성
##분양가
##명확히
##정도는
되었지만
##포함되어
##쿨
##돌아와
##일시적으로
병우
부대표
커머스
##작곡가
우리나라
##후보자의
예를
##연세
##탑재한
골드
##강구
##어떨
##추기
##105
##온다
gin
##굳이
##ma
모터쇼
##베이스
##금감원은
##교장
##매치
조사에
##넉
##감동
##경영권
##Se
수산물
##공간이
##흐르는
##공제
##진상규
##제일모직
##증액
##주장한
></
EF
합동
김재
##만료
##밑돌
##협력사
##누리과정
##현대증권
##스타일을
##아닙니다
억원대
##외국인의
##줄을
##추세다
MZ
메이드
개와
##함수
##개선될
##낡
##최근에
##커졌다
##나눈
##얘기가
##삽입
##없던
데스크
공자
##신학
##포인트를
포로
##나름
##요새
사자
개교
운다
##양육
연계
##거짓말
##초부터
##증권방송
##불확실성이
##농축
##직원을
시에는
##미국인
##정세균
##유적
족의
##덜어
##남성의
##조사가
##2,000
기준을
##손꼽
체제를
시피
증은
##SC
##재확인
##세계대전
교환
##종편
##교육의
##비전을
##경쟁률을
문으로
##판결이
중견
cut
##수호
##참가하는
노이
##산출
상인
##1962
롭고
##산맥
##반영된
##1∼
##불필요한
##실수요
어떤
##서비스로
!!]
##대법관
##신입생
관리공단
##항해
상이다
##미국으로
량과
##영향은
##돕고
##0.7
##1.7
##@
시도
##증여
##중대한
##독립운동
##바이올
##행정구역
성장을
##국외
##내놓을
걸음
##합창
##""4
##반발하고
##불러일으
취재
##국적
ence
##거기에
##고수들의
##220
##월요일
##학사
##속보이는
##성수
Op
##ᄀ
##고추
##돌며
났지만
##면허
카는
##결산
##구성원
베리아
##험
##김남
~200
그리스
##똑같은
##정부서울
ath
##소모
하러
##엔화
##헬기
isplay
##개봉한
##제휴를
##직권
##산타
##받았으며
워치
환율
##중증
##바다의
(25
##살리기
집에
##반납
##실수
##들면
##공정한
##서울에
##추진을
##구속기소
##故
##유독
##경쟁력이
산림
지방선거
신도
##본관은
##자랑한다
##대조
##오지
##없어서
##비박
reak
##텍사스
차와
티오
양성
센터의
업계는
##등장한다
##코스피는
테네
렉시트
폰을
##세르
##정보기술
##최근까지
매각
비한
##상품권
##국회의장
주세요
##초기에
##시내버스
##IBK
##거뒀다
##관계에
##켄
##귀환
##먹거리
##강조하고
6,
##기성
##자존
##실력을
##꼬집었다
디에
##영화의
##합의가
##기준에
##유치를
##공유하고
##일방적으로
벽을
##김미
##안녕
퇴직
##과제를
암동
##운반
##자식
##꼼꼼히
##금융시장
##불가능한
한도
##dd
##돋보
##멋진
##박기
##불이익
##않기로
.09
##경북도
##조기에
##가능하게
##찾아가는
##이명
##나라가
가슴
자유구역
9@
##불과한
매도
출판
##미쓰
##암호
렸지만
##바라보는
##보컬
옵니다
##아모레퍼시픽
##끊이지
(-1
##김씨
##체결하고
##혁신적인
##1/
##출현
강을
12)
##가죽
달러에
이사장
##인수를
##원로
##확산을
우의
치아
##어선
##음란
일에도
##업무에
##눈물을
##근무하는
##환경에서
##정병
구조를
##국제공항
##투신
##이용객
##고위급
~15
베트남
##쏘나타
동포
##생겼다
##보러가기
고요
체국
##친일
##잠수함
##깨끗한
##시상식
##우량
비트
##럭셔
##가솔린
##적자를
##가입한
##나뉘어
##진술을
##첼
##스캔
##위상을
##하도급
##나뉜다
##순찰
##일본을
##란
##행정안전
##날인
##핑크
##할부
##향토
로마
치다
##라이선
##달린
##벌어졌다
den
##준비가
상한
##이름의
##출시했다고
논란
────────
.0%)
##실장은
##중앙일보
CA
##이번주
레이터
##돌아왔다
##7,
##시뮬
##고기압
##소설가
공인
들기
##양극
##CG
##이전의
##전에는
##제천
##세력이
##김제
##입소
##분위기다
##높을
##시대가
##신고가
##상징하는
##호전
##상당수
##한동안
제국
##로맨
##사업장
##경위를
##비정상
##인원
미로
병의
##투자에
##감자
##옵션
##와이파이
##학생은
##박세
##일주
##피할
##소개한다
##촌
가야
특정
##구원
방한
NEWS
MORPG
##이끈
##방문을
##이끌었다
벅스
클린
##보이스
##법인세
##분야는
##제품과
##기탁
##박모
##공연이
##차량은
##0.6
##하도록
선도
##밝힐
##자리가
(21
##인하여
##재무장관
주식투자대회
면은
##계속될
##자치단체
##여왕
##정차
##카르
네마
##자부
라이브
##하우스
##많을
##법원이
##신분으로
선거관리
##청사
ript
발전을
##만들어졌다
##IBM
면접
##건설을
##버려
##대사관
##컨벤션
##산업단지
##우즈
##추격
학교를
##회생
브로드
위크
##청와대가
##분야별
##의미다
정밀
##분석하고
##고유의
##오디오
전도
표가
##박탈
##애국
##애널리스트
##권위
##금리는
##아이의
ByUser
elComment
##tartgetEl
elCommentByUser
ian
##잡을
##분석됐다
##산학협력
##여성들이
처가
##산은
##펑
영국
##앤드
시설과
##동성애
인포
##가족을
##효과는
ree
##예매
##이희
##표현을
##가능하고
들께
##방식은
##지역과
##스포
##의견도
##사우디아라비아
프린
##경기장
사령부
##만나볼
##요한
##기대가
##유류
MAIN
시간은
##압력을
##얽
##증설
##매매비법
공동체
고시
##독거
##뒤에는
##요금제
##사물인터넷
업의
##고창
##2.4
업체들이
##떨어지고
##쿠데
##브리핑에서
상가
운을
~11
##체질
##1965
##온실가스
산에서
전자의
##기술의
##부장판사
EB
버리
##미주
##쌍용차
##주도한
##신촌
##자사주
##시스템은
이것
##특화된
##상식
##차이나
서민
시경
##법원에
##사진과
##1964
만개
예약
##수중
##자유를
##자신감을
디스크
##프랑크
##퇴근
섬유
기관을
##시의회
##흑인
##재판을
평군
##코레
##한국형
으로의
테크노
##정리해
##계층
##영화는
##오늘과
MP
##경성
##두는
##인형
##에디션
##내세워
##차원
##총무
##대덕
##이곳은
간접
##韓
부양
##침묵
##몰고
##초에
스케
##혹시
라디오
##생각에
##최소한
##시일
##셔
##De
절차를
##정권을
##파란
##국민적
##빛으로
##1967
##이르렀다
타지
클래스
##지키기
##예방을
##최첨단
##체제로
##샌프란시스코
##화면을
media
##소상공인
##광교
주의적
##요청한
##월스트리트
요즘
##미래의
##부지에
##국방장관
##하겠다는
옵션
시켜야
##황우여
##벗어
##여의
일이다
플랜트
게이
ies
##서울을
##켈
대중
##고양이
##공급을
##전형적인
##정보보호
##젤
##할당
산업을
##취할
##놀라운
##플랫폼을
2(
VD
##고혈압
##유나이
##항소심
##더욱이
##생생한
##이럴
##걸리는
##아버지의
하락
##유선
심사를
##사실이다
##비치
##시원한
##전달할
##보류
##휘발유
##주최하고
업은
##사장을
책이
##올랐고
##부산에서
##룰
##이효
보전
부정
##대입
##벚꽃
##있겠다
트렌드는
년제
##충당
##대포
피부
','
##민영
##조립
""","
##마찬가지다
산업이
##서둘러
Categor
##비로
##주장한다
##길게
##모르겠다
##예상되고
해당
상공회의소
##자세로
##현황을
##바쁜
##수익률은
##최고기온은
##쿼
##원자로
param
yn
##소극
##발언은
],
##렉
##득점
##정읍
##BBC
림이
친화
##어긋
##대강당에서
##한계를
##내부의
##화폐
##교통안전
즈와
##신공항
##위대한
##쏠리고
##백제
주의의
태원
##카라
##식사를
호영
네티즌
##독자의
기업은
##타이완
##징수
##지니고
식당
##사죄
##기록이
여수
##탐지
##톡톡
##피자
강좌
##초록
blog
##개최된다
메디
방학
(22
##국책
##대책이
##언제나
##게임에
##유기농
##캐릭터를
재의
##출력
##입지를
##출시할
##'2014
##불렀다
##자격증
수용
eng
PD
##중에서는
##강서구
##아들을
##적용되는
##봐도
만인
##전남도
카를
##앞세워
##리베
##치료제
##기록하는
search
중기
##파기
NY
##쉼
##냉각
load
##일하고
엄마
비용을
##농구
##첫번째
아들
(23
##병사
##수행할
포스코
##증가했다고
##영세
##실정이다
어링
##에르
##편안한
##소리가
거리에서
TomainInfoLayer
##마비
##서남
##감수
##대지
##전염
##역할이
##업체를
니스탄
##1300
##콜롬비아
##해가
##등장했다
##부총리는
##간담회에서
신당
##옛날
매체
##차입
##여론이
##오류
프리미
##빠졌다
##초등학교이다
##꾸려
##달해
##줬다
스테이트
##앱스토어
##협정
ram
##강북
##당진
##감사를
##이어서
##제한적
##내용이다
##정기적으로
SDS
##다루는
##트렌드
##문자메시
##람
##실버
##인문학
##소비자들에게
##립
##대한민국을
##이철
·3
##턴
동계올림픽
##박진
렸다는
##성장에
실질
##게임트렌드는
eil
##발견된다
##아나운서
##필립
##주에
선관
##비닐
##끝나는
모상
원대
##사회가
gg
##구축하고
##헐
사퇴
제리
##학생들
포토뉴스
##드디어
드름
##그루
##과태료
-9
dom
##감추
##주의가
##활동하는
##결과적으로
레는
##강화하기
##미야
검찰청
##신경을
##치료가
##Nae
##전체적인
##박준
해서는
##국민은행
##앓고
##피해는
군에서
##삼성증권
##소나무
주거
##cThe
##참가자들이
##환자를
##영월
##청춘
성모
##송금
##지지하는
렉트
은희
관제
##난다
##수상자
매입
##미녀
##역사의
##어울리는
##Naeil
##실력
병원은
##240
##요소를
##이산화
##연방준비제도
하길
당국의
##건전한
##2030
##열애
##것임을
##만들어야
##돌연
##펼친다
LH
##북측
##이룬다
7,
등에
##풀려
명씩
##확보에
##심어
##청담
##속한다
##양질의
##덤
##생산을
차게
##추방
##충남도
##삼성그룹
##나주
##선점
##의사가
##레인
##주민이
##트위터에
속도
##'4
##전도
##엘리베이터
##비결은
##공안
##군대
##주총
어머니
것도
##분이
##침공
기업과
##시설이
##남부지방
##여지가
##펄
##낮다
##전승
##지역에서는
공사를
##원리
'));
##국세
##1800
##구름이
##공습
##네팔
##디자인과
##정복
##내비게이션
##FA
##전하는
글로
##역동
##전술
##풍경
##학문
##조형
##카자
##사퇴를
##1:1
##나서야
##상품이
##중남미
##포함하고
-15
##판정
.1%,
##미달
렸으며
성능
##김효
##생계
nocut
##국정감사
등한
##야스
##신부
##실물
##부평
##프로야구
##수익률이
뉴스투데이
로워
형사
##발전소
지속
여개의
벤츠
##팬택
##역사와
##단단
##웨스트
##장점을
##클리
##일반인
##국가에서
##곤란
##다중
##발견했다
##입문
곳은
##단계적으로
##등극
##""2
##학생을
##대관
뉴스로
ild
##안전관리
.9%,
##직영
##엄격한
로라
##속출
##주장은
##숨어
##세종로
##캠퍼스
##동계올림픽
##야기
##의무화
##개정안은
##방법이다
##우정
##근거가
##김일성
##남경필
##성희롱
##한시
판으로
##도매
##분주
플루엔자
##9000
##코엑스에서
##걷기
##전진
##1946
##위치에
##정몽준
##눈으로
량에
##그리스의
##분해
##희망으로
박주
불이
##행보를
##군이
##편지
##수행하는
##출발했다
##오케스트라
신경
쿠스
ens
lnb
##열람
##바디
##주상
##프로그래
시기
##동호
##모드
##명의로
##생명을
##겐
반응
##가자
##안희정
##어쩔
##피의
##대주주
##센트럴
운송
##무게를
활용
##심해
##젠
##자세를
위즈
##정신적
##기어
##마라
##전역
##음식점
##이용이
if
사다
##전세가
##대비한
##겪은
##DJ
##반면에
##외국어
파일
##자치구
인한
##리버
면과
현직
.8%,
##인터넷을
##상승에
##있다가
##모리
##헌신
##배경을
파티
##후기
침해
##대회에
##통과한
##시민들에게
학대
형태
##안경
##느낌이
##인프라를
##등록을
##줄줄이
##다른기사
##시중은행
##심사위원
~40
##주최한
##무거운
##데이트
##박씨는
스포
park
##미래창조과학부
##오키
##매니저
##분석도
##사교육
##전해졌습니다
어질
편에
##듀얼
##고민을
##망명
##최근의
##대학에서
##겪었다
##디자인이
중단
##계파
##에도
##취한
##발음
##교수를
##농식품
렸을
##하얀
졌으나
##법원의
##x
##기저
##LIG
##종목이
DR
##기소됐다
고려
##난방
##EBS
증가
##부재
##매뉴얼
러브
##나눴
##처음부터
##저렴하게
비서
##공연은
##끝났다
##사업과
유진
##당당
##의상
##세단
##웃음
##이슈가
##시장에서는
##로그
단계로
##퀸
잡이
##스파이
##산간
##구성하는
(24
SDI
##도청
##보라
드래곤
##총장이
##익산
##국가에
##잡기
차이나
##기념식
이날
철을
르다
##강제로
##당정
##표현한
##1961
##맛과
##크로스
##시행하고
##아이스크
nocutnews
모금
사채
TP
피크
##이관
##전망도
우를
##그로
너지를
전략을
##최고급
##공직선거
았으나
LA
##그러다
##참석자들이
##골프장
##적용했다
##document
공감
##정서
##임종
##휴양
##있거나
##화재가
##발표한다
##상품의
##본회의에서
인원
퓨팅
##국무총리가
##일축
##점거
##푸드
##투자할
심에
min
##재원
]‘
육성
.5%,
##개최를
##미드
플레
##흩
테이션
##선택을
##강풍
##부른
트리온
사업과
##조사할
##죽음을
##참석한다
##나쁘
나가는
##95%
##바람을
으려고
##CNN
##들어설
##보이지만
##박병
국악
##주름
##심상정
현장에서
##개발하는
##공개됐다
##사용자의
고양
##빅토
##다해
##정책과
##자기자본
##순차적으로
목에
##예의
##많다는
##철도역이다
##비결
##시드
년물
##빚을
##무척
분쟁
크래프트
##건네
##모텔
##주사
##견해
##담합
andler
##나눌
##설립을
만기
##유흥
##고용노동부
##권유
##재가
나를
##해를
##개정을
##상용화
##그렇다고
'..
##독재
##피하기
알파클럽
##개발했다
중개
##감당
##LNG
대기
##생긴다
##동문
시험을
##않는다면
remove
##여성가족
##포함된다
##개량
##무궁
##악재
##명칭을
##원내수석
##침투
##성관계
##지원과
##지난해에
uk
스코리아
##기자간담회를
란트
##브랜드가
소스
증으로
이크
##절차가
##일으키는
##낙관
##0.3%
##1949
세계일보
##인정하고
##감성
##차례에
##받았던
##달할
##부도
요리
##보물
##체험을
##하기로
##나왔습니다
##영주
.2%,
##인물로
##계속되는
##대학을
관장
##미소
결의
그렇
무장
##심포지엄
건물
##농림수산
유리
으려는
보합
##다툼
##여야는
##역사가
대성
곳으로
##고등학생
##헝그리앱
전드
##첨가
##당연
##하여금
##소주
##스티브
집이
플로
##고기
##끝나고
##사과를
.7%,
##방사성
도쿄
정수
##본점
##어디서
Is
##배제할
##장시간
##넣은
##정권교
조세
##일컫
마니아
##토마토
##신기
승인
##중이라고
농가
디는
통장
문화의
스타인
##처리할
##다스
##동력
##민관
##존경
##협동조합
##터보
파파라치
##식품의약품
되나
##전성
##보통주
말라
##피터
##필요성이
##기동
##1600
##보도자료를
orld
##만의
.6%,
##연기를
열이
종에
##금전
##주장했습니다
##옴
##"“
##아토
##우세
##자유로운
##회장으로
윤정
##넓혀
##행성
공격
플렉스
##눈높
존하는
##시장과
##지시했다
##대수
##비자금
##런칭
##하수
##주의를
##쓴다
##중심이
##하버드
##퍼포먼스
반의
##제시하고
이노베이션
##1·2
##부문에
##부속
밖에도
##비용은
##대권
##시그
##영혼
량으로
쿠르
##개교
##뒤인
##없었고
##채널을
##모르고
##알렸다
##사막
##강조하는
##도시를
##플랜트
ire
호흡기
##만만치
##판단해
오전
##추궁
##계약이
80)
##하니
##첩
화제
anc
##줄고
##iOS
##뭔가
##오대
##나이에
아무
##용의자
##되기도
##지속되고
현동
##주최하는
쓰고
##장기적으로
##아이콘
##어두운
##상반기에
##회의실에서
##등락
발사
##교육청
##싫어
##헝가리
파트너
##신의
##착륙
##뱃
div
##것들이
세일
##화해
##세인트
슬라
##선정돼
##처벌을
##상품이다
##KDB
독한
위원장과
공립
반떼
##문제다
주면
##디저
##악수
##김현정
##절차에
동네
이벤트
##미수
##정문
##박람
했어요
##경제부총리
##최고위원회의에서
##그걸
피는
##경험과
##프레임
##토론을
##단편
##총력
##판사
##행태
단일
숭이
사고가
##평범한
았다고
##수익이
##윤상
##장이
##시간당
##이완구
##기둥
##미안
##음원
##다리를
##지진이
근한
휴가
##남기
##아끼지
##경제지표
##VIP
No
비밀
##본토
##세력을
##포즈를
##자회사인
##일조
##표정
단체장
##자본시장
선미
승민
##부결
##중추
##저금리
##활발히
##감옥
##국제사회의
도시로
##사장의
##전문기업
10)
##지갑
##가요
천의
##ch
루미늄
##불투명
##출시한다고
##드러낸
##싶다면
병원에서
##경과
##닮은
##메뉴를
났을
##예로
##치안
##}).
##방사선
##조사는
##펼치는
##1966
##업계에서는
##혼란을
성향
##내면
##부모님
청원
##발언에
운이
##지배구조
##인천국제공항
##장갑
##정권이
##판사는
##포스트
cr
##멸망
끄럽
르며
지던
챌린
.06
경선
##반사
##취항
##하회
##유권
##프리미어
##기습
##강사
##수출은
##수준에서
##해적
##경제정책
vice
##쉽다
les
##다큐멘
##키우
##금메달을
##출연한
(26
##매립
9%)
책임자
##가능하다는
##설탕
##이룰
##로스앤젤레스
있어
##신탁
##하였고
##탔
##실린
##창출을
지방법원
중의
Yes
##감정을
##국내에서는
##대다수
조례
##지중
##회고
##일으킬
##자체적으로
PM
적십자
##어머니는
라라
##살짝
함으로
##김영삼
##바꾸고
##차지한다
##여가
증시파파라치
##제네시스
커뮤니케이션
##개조
##소금
##질병관리
##용어
##주축
##터뜨
##내부에
라기
업체를
##시간과
##조선의
어제
##구매하는
달을
##측면이
##헌혈
##국토교통부
##비행기
##선체
##되돌아
##전보다
9,
품으로
디넷
##해남
##늑
##구성을
##의무를
##중심에
##드라이브
##제외하면
센스
더라고
##al
##발라
치킨
##명성을
보에
##기가
##맡는다
도서
##심야
##인접해
##과정은
피고
##사연
메뉴
소니
##보궐선거
##배임
##위협을
dy
개는
##기대감을
##적게
##다목적
##새누리
##공식적인
##박찬
comm
##이용자가
##이슈에
##알려지지
르노
##민선
##국정농단
##던져
##우리금융
공무
구제
란도
##사직
##운수
##잇단
##잘라
##20~30
##고쳐
##실제로는
##고부가
교육지원
##전략이다
##깨고
##아무도
fin
##각계
##자정
##임명되었다
병은
##장미
##스티븐
##견본
##모른
##뽀
대표이사
##등기
##열악한
##키움
##해에
##백악관
##수수료를
##산업통상자원부
대박
##철원
##기상청
너무
문서
##권오
SE
##다음주
##읽고
##크기가
##목표주가를
##도입된
##인체
##조업
오드
##혐의가
우로
##부당한
##막걸
##허락
가면서
##공부를
##회의에
##공유하는
##장학금을
pa
##사은
##플러
##빠르고
##비춰
##어업
화제의
IMF
##업계는
##활발하게
##천문학
억원과
##가습기
##목표는
##인사들이
청소
##벤치
##감독을
##조정을
페어
.08
##시키
크리트
##인출
##최상의
##호평을
총선
층으로
.4%,
##모양새
##전환을
##보도자료
##선보이며
##딸을
##평안
##꿈꾸는
##조화를
##노부
##주도하는
##블라디
리터
열에
##동거
##검토할
##파트너십
##역전
##추대
##색다른
##서술
기능을
##이보다
행한
##속여
신청을
이거나
##여객선
##상원의
##금리인상
##퀄
##과징금
##기록했고
##value
##권역
##커진
##포위
##됐고
##효성
.3%,
##두바이
##미스터
##퍼져
##학업
교육원
병헌
년동안
메리칸
##걸렸다
##자산을
##한국관광
집중
##당황
##수납
지사는
##예산은
필드
##길이는
##지원했다
##시크
연장
First
ko
있던
##본관
##사양
##참석할
##닷
##고마
##중장
##남원
##부산일보사
##소셜네트워크
투자자
##감사원
##기술적
급을
공사와
##프로그램의
투자가
##학생의
##리처
##걸그룹
##자율주행
##챔피언십
미세
##개신
##점진
##모험
##새겨
평가를
아시아나
##반포
##부러
##태도
width
록을
##걸맞
##경찰서
##대응하기
##장례식장
##라스
##오렌지
##게임이다
##여성들의
##직결
편성
##들어오는
##서강
##게임이
회장은
##공격적인
##선택하는
##타협
##시트
##저평가
개국에서
more
##구입한
##건물이
아침
종교
##유보
##물러나
##소비에
##조망
##짙은
(27
담배
##궁극
협력을
##뺀
##글로
##시를
했다며
##재정적
##가족들이
##뮤직비디오
단기
리던
리브
##월평균
##크다는
MHz
##강정
##장외
##차관은
##교육부는
##유럽에서
##점유율을
##기자간담회에서
##데에
##공급할
##유력한
##흐름이
TML
##속해
##훔쳐
lit
##문건
##‘1
##고생
##영업정지
##의료기기
인인
지방법
##기능도
##삼성은
##표본
상거래
##돼지고
##지나면
##우리에게
녹색
##방침입니다
미국의
오면서
##미세먼
##웃도는
.05
이었는데
한은
##칼로
##전망치
니를
변동
월이
ast
##끌려
##성주
발전소
##이익이
##인사가
##클래스
##위원장을
##언덕
리지널
##로이터
##알리기
##창간
##폭을
##늘었고
으론
##벌일
##만이다
##이외의
##있어도
##이득
세데스
##새만금
##돌파했다
##자산관리
이민
##남미
##법학
##스트레스를
##교향
##신고했다
##실습
##그저
##반입
##정시
##챔피언스
##트로
.200
##년간
영의
크루
##사료
##결혼을
주의자
##구매한
##육성을
동반
Play
##박희
아일랜드
지연
워싱턴
##오늘도
Key
##타깃
##수단으로
##나이로
hankook
##접어들
이지리아
##스피커
##취약한
건강보험
정상회담
##석유화학
##사용되었다
##홍천
##단체는
##ECB
##과거에
##띈
폭풍
##불합
국정원
정부와
##하반기에
##후유
##230
##부통령
배치
##주의해야
##메탈
투자는
##달리는
##어워드
##테스트를
##늘어나면서
카의
##연다고
지역본부
##시리즈의
우미
##실험을
##사단법인
>(
면역
##성황
케이블
##요르
##위임
##스페인의
IF
허브
##목적을
소화
##회담을
세탁
피싱
Copyrights
##우라
월에도
스레
##그레
돼지
##문체
(28
아서
##나폴
주의보가
신규
##김관
##국민과
##명확한
##학생과
##case
스위
##DS
##기분
##자발적
ich
##밤에
##어렵고
##공장에서
'.
##받기도
sbs
##자생
##증폭
](
정선
114
##넘은
##우려했다
용인
군인
정산
##35%
##끝나면
##총력을
##판단하고
##변화와
##정치가
##조성된
##소독
##직원의
##최선의
가공
##그들
##성장한
##확대되고
##보스턴
##특징은
##동남아시아
하듯
초를
##다음에
##달러의
##동의를
##일일이
##줘
##김세
##밝히지
##의장이
##치러진
##강력하게
##아파트가
##샐
##매일경제
##증가세를
패스
##로열
동주
이종
리스타
##발발
##과거의
##튜
##싱크
##break
##취향
##여대생
##일련의
##붙잡혔다
##보이면서
스페
##보고를
뮤직
보지
##연이어
##칭찬
##거예요
##비난을
##생각할
##주어진
##칼럼
##0.8
rep
##서방
##은폐
##화천
검증
##정도에
##아이들에게
##원형
##튼튼
##끄
중앙은행
##서산
##외치고
슨의
앞에
쿠라
##단속을
##말아야
##수용할
##정운
##총리와
년에도
##주먹
##요구가
##동방
##건설사
연극
출입
헬로
##재계
##충북도
##불가능하다
주당
##교육은
##공개할
##추운
##묻자
##1,0
##요청에
##공백
##내려진
##열흘
##그러자
##기능은
##데리고
##된다면
##IPTV
##한국투자증권
##묶어
##고액
##얻게
##신개념
##완전한
##대기업의
##자꾸
##감안할
##학교폭력
##믿을
##내용과
##얼어
수익률
##심의를
##역으로
##발매되었다
##사무총장은
영이
클로
##저서
적이었다
##기점으로
##명은
##실어
##확인되지
##지방세
##프로모션을
맥주
부도
##지나지
##곡을
Zero
##참가자들은
##근처에
##김석
##읽어
mb
##해커
##물가상승
##보도입니다
했다면
IM
사망
인들을
##기다리는
##나치
##평화를
ix
##거치
##상설
##긴밀한
애니
##당신
##발명
뉴스팀
##밝히는
##시기가
계로
365
##오른다
##반응은
##딜러
##몰랐
##흉기로
##보고서에서
##대동
##못하도록
##정상회담을
선대
노동자
##미스
##유재
##대선에서
터로
프리미엄
##입건했다
으면서도
##조화
##해석된다
##결과다
hw
##없었
전체
캠핑
인물
##마그
##진실을
##내년에는
##진단을
##산다
##찾아볼
2017
요원
utton
##되기를
##관리하고
##시민들은
직업
오피스
##전제로
##향하는
##당사에서
##이화여대
##마시는
##서대문구
부자들에게
lin
졌는데
sy
##출범한
##이해하고
.07
##재즈
##학교의
제어
최저
...1
##조직의
##마트
##미네
##순조
##의정
##파급
##인명피해
김해
##과제로
addClass
교부
아래
브란스
##6·25
##문의하면
##아쿠
해지면서
##자발적으로
##낚시
##세웠
##한자
##등록된
##기아차는
##드론
##경제학
##명예훼손
##효율성을
##An
##여주
##전차
##단지는
##지원사업
IoT
지성
##국군
##부를
##인수한
노출
##될까
##급격한
##실패한
##확정했다
대회에
##체계적으로
##소득이
##특집
##한국전쟁
##총수
##평일
##102
티머스
##강화했다
ite
##수출을
조각
하셨
##대세
##중화민국
빨리
##전투를
##보게
##싹
##영원
##실적에
.5%),
##인플레이션
##탄력을
폐기
##방과
##받아들일
와도
##맥락
-10
코의
##괴산
##되살
시설에
comIT
우선
##적고
약한
특구
##개발자
사지
뮤지컬
엔날레
##'2013
##신재생에너지
##잠을
##입장에
정식
##냉동
##살아가는
##캐시
세무
(50
_'
서야
##참관
##1.
##입구
##존재하지
##쉐보레
캐슬
근로자
##도로를
##제철
##호출
##전략이
##차이는
##베스트셀러
##밭
하를
디넷코리아
념을
##인구의
##주재로
##서비스의
컨대
릅니다
##마시고
##민영화
##서비스도
##주니어
##지도부가
OR
##최소한의
##드리
왔고
훗날
##경인
##보스
아를
wow
##텃밭
##생각은
##숨지게
##통증이
래도
경기에
##먹으면
##야당은
##방화
##결합한
##교실
∼5
ish
신세계
##기후변화
##쪼
##백지
##시골
스크린
##내용도
##설치할
##지방에
##결정은
##결정된
##여행객
##가계대출
##도시철도
선한
완종
##그릇
##띄는
##연고
##오버
##3,000
##미션
##점검을
강수
##현장의
소셜
##인질
내려
산화
움과
어디서나
왕이
처음
lace
##구간을
##조희
##파격적인
병에
성동
호주
##물었다
##보험사
##인근의
##회복을
##적용하는
##자선
##곤충
베르크
##주장이다
##모두발언을
##목을
##주저
##부산시는
##참가할
역량
##카자흐
##보고서에
##생리
##맞물려
##차질이
##확대와
##자연스러운
##지식경제부
##강호
##승소
##재래
##표지
##한식
##삼성의
##시기는
##우리투자증권
##논술
##달러화
노동당
93.9
##포함하는
##차등
칼럼
드리드
##직원들은
##도봉
##12%
##강연을
##나머지는
##발표하는
파와
##얻기
##최강자
##과열
##라운
##활동했다
##업황
##추돌
대학생
##가볍게
AV
민들의
소수
소유
화면
##남극
##오프
##찰스
소형
##상임고
##성격을
##플로리다
스틴
##터져
##많은데
지션
##개체
업체와
##즐기고
##고집
##생일
하시는
##가입할
임대주택
##입양
##여고생
##알지
##가량의
##사장과
##박경
##백령
##자위
##관계자가
카가
##활짝
##월스트리트저널
##타는
인들
토니
치스코
##뉴스앱
원칙
##감싸
OM
().
##학력
##중세
##경우를
##무슬림
##만들겠다
지디넷코리아
##스틸
##에릭
단지를
생명은
##증시의
##휩쓸
러드
##스킬
만으로는
##신원
##게임으로
남동
##촉발
##제공되는
조약
속으로
##농장
##4~5
성호
##조속한
##'2
노무현
##세번째
##스탠드
##닌
##건수는
##미만의
##잃어버
유플러스는
프와
##조윤
##촬영을
##만주
##몬스터
##사례는
##두었다
##물결은
오를
혈관
sportsseoul
##상장사
##지적에
##슬픔
##마이크
##신속히
##방문했다
##처한
##불만이
##남아프리카
##언제어디서나
##갤러
##성별
##출동한
##참석하는
일수록
##금융회사
교육과
##국가와
##사용하면
고사
산동
##싸게
##담당하고
물량
츠는
##신동빈
98.1
여년
##신정
##취해
##김정남
##신입사원
rea
##의식을
즈로
##정국
스퀘어
##삼성생명
적으로도
##기득
##스님
##한데
##혼인
##개그맨
##달성할
##그렇지만
캠퍼
##게시판
##편지를
##빈번
##의혹과
토지주택
##거래일보다
매니
출연
##영문
##가진다
##견해를
##헬스케어
마력
워서
##지적을
오던
용을
##스노
##씨티
##공산당
##공정위
##되풀이
!"
지엠
화질
ina
##구경
책으로
..'
##땅에
##바퀴
용이
##바르셀
##춘천시
##친구와
서양
적이며
투표를
##홋
##약정
##즐겁다
안드로이드
'[
##오너
##질을
##말하며
##이어지면서
##구동
변에
##투자한
##도래
##목요일
##돋보이는
##위상
##어디에
##견본주택
##개표
##만하다
##1958
##보인다고
##MMORPG
##즈
헌법
##구호를
##제도의
))
분까지
jh
##얹
##관할한다
##성격이
##412)
##흠
접촉
##재건
##운영되고
이도
##봅니다
##중심언론
이영
변호사
##단독주택
##특정한
##주변에서
관찰
##동래
##솟
.04
~18
##쌓여
##준비해
최초
끄러운
동양
ool
##무엇인지
##정식으로
##제시하는
##0.9
##지나친
##효과도
##럭셔리
##총선을
##계획하고
##나섰습니다
##요구하며
##확보하기
작년
##차로
##롬
##필름
##무리한
##지식을
디언
##번도
##로스쿨
##찾는다
인터내셔널
##스쿨
##않자
##유상증자
##정책은
##탄탄한
##보상을
##일체
##비영리
##추진한
##카메라를
##스승
이사회
##108
cation
##본사를
##기아자동차
##성을
##인물이다
그는
일정
.75
##사이트를
##레오
##보름
##•
##귀농
##양이
##발언이
박이
##카테
성년
오바마
해주고
##시작했고
년차
##실려
오션
속의
음이의
미리
##선택해
40)
##판단에
##대학이
진도
##쓰여
##철폐
##등급을
##기록하였다
##바닥에
##일회
Each
Show
삼국
##매력적인
권익
라를
##낮게
한반도
무가
##구사
##_
투를
##찍고
book
##103
##외국인과
보의
##베타
##제작해
##트렌드를
##퀘
oul
##원칙에
분한
어업
황식
##맑고
##세로
##125
##김호
##365
##그렇다
##열정
##되겠다
##정당한
대투
십시오
forEach
##제도다
중부
##공표
##호우
##파악됐다
탤런트
##성장했다
##적혀
##알루미늄
##교류를
교육청이
하자고
클라우드
목포
##무죄를
##전쟁의
박영
##대정부
문화회관
##1956
다피
##아픈
으려면
##산업을
카스
##듣기
##역삼
##유용한
##평화와
명인
##공짜
어졌다
##판매할
##웬
##것이기
##군대를
.3%),
##충청북도
##대선후보가
##안을
카이도
장이나
##동안의
##지시를
##전한
##운세는
##사원
##평가에서
##심하게
##도입했다
척을
##않았기
##협의회
##국정감사에서
##이렇다
.4%),
##이규
##용인시
##콘셉트
##협의해
##간섭
플랫폼
트럭
##Ro
##시와
##파고
##풍성한
포장
##피트
##대안을
##과장은
##친박계
wowtv
리언
리조
##써야
##한신
(100
모는
안산
##대선을
.2%),
##인정받았다
##車
혜진
##발견한
iss
##계란
##사천
##재밌
중동
##얼굴에
##대우건설
경보
##닥터
##르네
##문화적
##본부장
체육관에서
##넘기
##보시
##어릴
##작가가
##주관으로
##글이
##영도
##기초자산으로
##눈치
##대두
lugin
##당이
##언론의
##우리나라가
##소중
##흰색
##1~3
##국립공원
##관광객들이
##헨리
##균형을
##청장은
##아파트의
##아들로
##이랜드
##경기도는
##들어선다
편한
폭은
##온갖
##콘서
다양한
##문헌
##박철
##환수
##부모가
##흑자전환
##확고
ZeroCount
망에
##사설
대기업
##SKT
##너무나
##추미애
##피서
##이바지
##일으켰다
다드
##발표에
IsFirst
IsFirstClass
##매물
##듯하다
##표를
##출발한
##해왔다
##선거가
봤습니다
##제외하고는
##우울증
##5,000
링크
##시승
##사이로
##해결하는
##toMainManager
##바가
아산병원
##업데이트를
##경제는
##시설물
##0.4%
##판단된다
##어드
.8%),
##설치하는
##8,
?-
##뛰고
##시집
##합산
##발전과
##소송에서
##이전에는
##연탄
##구조로
##모터쇼
평택
##파운드
##계열사인
##시국
##두번
##변화는
##하나님의
##고졸
##신진
.7%),
상무
양호
cre
금리는
##산업은행
리히
##트레
##책임자
##초고속
##해소를
르드
##압수
##도보
##에볼라
아주
자리를
##아이들은
GA
편으로
##김연아
##설치를
##열차가
##다양하다
##롯데월드
##즐거움을
속을
##가혹
##이장
##전북도
연구소는
(29
##전방
##보증금
##직거래
##목소리도
##조직개편
##캠퍼
##누드
##쉴
##학교는
##비롯하여
##소비자에게
##각기
##나지
##민경
##주중
##내세운
##등에게
절도
쳤다고
.1%),
러스트
##금호타이어
수요가
##Res
##오르며
강호
##개최하는
##벌어지는
.03
##세계경제
##한국거래소
##낡은
##붙은
##비염
##소문
##학교가
##진동
##조치로
##진출에
##등지에서
##줄어드는
##삼성중공업
##연구위원은
##씨에게
##고심
##항복
##2.6
##알고리즘
##가슴이
##김문수
분리
##마늘
타입
##홍수
회의가
##생중계
xp
배나
체스터
투자를
##검토해
##국민들에게
재는
##넘었다
##북한과
통위
##다녔
##몰라
불을
##모집에
='
##오산
박원순
##나경원
##아침에
##영향력
##논의하고
##모델인
##지지율이
##왕이
##대표팀
수술을
##연결된
##공개하고
##원내수석부대표
바꿈
##문경
##높다고
##헤럴드경제
##경연
##괴롭
##넘긴
##영종
##훌쩍
##이르러
##현실화
전년
##오후에
##전망에
##해외시장
끔찍
##얼굴이
##1100
##학계
##서울고
##이뤘다
##걸로
##적힌
fter
##표절
##학살
##해발
##관계는
선인
위다
##덕분
##옮김
조원에
##브랜드인
##설명한다
##image
##총격
##완성차
##고맙
##넘는다
##전문가의
##제공하며
",(
신문사
공예
##마련에
지분
##ht
##불거진
##공단
##봤을
##경력을
##1944
##시작하여
##오토바이
루는
##거시
##낙하
원까지
##국방위원회
본부가
##서비스와
##덧붙였습니다
##뮌
##좌절
##박승
##전문성을
##적발된
##상승하고
##어찌
##셀트리온
##정상적으로
률도
바바
방재
##적대
##돈으로
##↑
##군에
자전거
##깨닫
##서기
##장의
##하라
##해피
##부부가
.6%),
초에
##불쾌
회사에
모닝
##폭설
##멍
##보은
##안은
##배우고
##1953
##신청했다
SP
거진
한강
##환상
##‘2015
mer
마스터
##주를
##변동성이
오의
##겸임
##기대에
##1947
경희
##1954
렌즈
##개선과
##사태로
요구
시위
##Ar
##상원
##장면이
##기초생활
##맵
##몸무
##세븐
방송통신
인정
##거창
##양측
##용도로
##업체들의
##살린
##압력
##받았지만
##증인으로
##사무실에서
##익숙
##정태
##구두
##독자적인
##성장하고
##인정하는
골이
##교육이
##증시에
##행위에
OL
##신호를
일드
##납득
##정형
장터
##사정
대회가
##브로커
##행위가
##인성
##연구는
##수익성이
##오리지널
증진
##주석
정배
##릴레이
##우선협상
BT
##꼬리
단체가
##지방은
결합
##절실
##코트
##연구가
##벗어나지
1]
민과
##전교조
창호
도스
##가늠
##철저하게
슬로
##공용
##구급
##퍼블리
##1952
6·
이번에
##개인은
##전년동기대비
##힙합
개성
##간사
으로만
##만족도
##품질을
악산
-19
##go
##일행
##부산국제
ant
##국유
##점수
##차명
type
##오세훈
리우드
##합의에
##생산된
전문점
플래닛
##국무부
##지구의
가칭
##도의회
##관계자들은
류와
##무난
천안함
규모는
##1959
##줄곧
##카메
하여야
##꽂
##찜
##내기
##편찬
##특성에
##하와이
##사진제공
공단은
##서류를
##오디션
##옹호
──────
##살포
lose
이었다고
##상태였다
완전
##배수
##기울이고
##반경
방식을
##페이스북에
##오면
##상금
만대를
##그들을
##일정이
셔서
##끝이
##서정
도심
##학대
##노출된
##보았다
##엮
##중으로
##인정하지
오와
##띈다
##열매
로만
푸르
##살던
##하사
##규정에
##회장에
##경기회복
##적을
##상승할
##쇠고기
##기해
##오락
##앵
##담뱃
##급증했다
##이번에도
##당을
##조건이
##초중
##명칭은
대역
오쇼핑
##약속한
##답을
##최종적으로
##헛
##손자
산업개발
##구성했다
##남측
##나오면
##더했다
##됐다는
##합리적
창을
##않겠
페이지
##종일
##마련돼
8,
##창고
ouse
쟁이
왼쪽부터
##정준
\',
##구조가
##최하
##아프가
구정
아내
토크
##SS
일간의
선박
##돌아섰다
##펼친
##가깝다
##하는지
HE
##감동을
##인접한
##나이지리아
현정
##안착
됐는데
AT
##무이자
##실질적
##혐의도
##이밖에도
##내구
##단계에
##하겠다고
[☞
##그칠
##사우스
##사정이
차전
##위반한
##이뤄져
버터
##깨달
##염려
##토너
영향을
들만
선생
대상은
자로부터
##헤지펀드
##갯
은지
##안의
##원조
##전념
소송을
##농도가
##1955
##관련해서
##대표이사는
##지는
##부르고
##사람으로
매치
##성실
Size
##기업가
##마드리드
##상권
##하시
##구간은
##반정부
##적었다
##재무구조
##현지시간
ao
##내게
##주입
##리뉴얼
##알려지면서
##송영
개월째
##고영
##관건
##요코
##나가고
##으
급의
##급성
##선발된
##선수들이
누스
##미쳤다
##선수단
##캐스팅
초가
##투자자들은
호흡기증후군
##심재
##조성해
##가기
등급을
##바로잡
##비대위
##연속으로
##진심으로
##양대
##인수합병
복음
##중랑
##후진
기독교
ical
##샴
교는
민당
##비하
##사제
공이
##지문
##이석기
##온라인게임
##쌓인
##언론은
더불어
##리처드
김종
##김학
##습관
##끝날
##관세청
##낸다
##전한다
의가
##김우
##만인
##셔츠
전시회
바이러스
##단식
새누리
##인물이
##서비스업
##시야
##인선
##투자전략
통의
##그쳐
##소진
업계가
이러
##토종
##신한금융투자
##뷰
##1941
##마련하는
연속
##미래부
ft
##박주
하이닉
##가라앉
##관리할
##비슷하다
##마신
##마련해야
현이
##확률이
##완벽하게
영장
환경이
##형성된
##이사회를
##서울대병원
##주민들에게
##피력
##합참
##하나님
##KAIST
대결
림의
사범
##"‘
##구할
유엔
##웨어
##죽을
##위기가
##다다
##뚫고
##멈춰
##수반
##열을
##종목을
난방
##원장이
##숫자
##외출
가격의
##정보와
##-1
##남지
##정윤
만명에
##지식재산
##탄도미사일
##최상
##요소가
더라고요
불안
##극히
##그녀가
##벌인다
ah
sw
까지만
##박영선
##영화제
##대구경북
##당뇨병
##없다며
##횡단
##대리점
폐지
##우연히
##맞추다
##초기에는
ky
##접수된
##사회에서
##Me
##거둘
##기록은
##조선일보
##성산
치료를
##리듬
##공무원이
##도시계획
법무
##윤종
##없다면
##제고를
##복권
##응답자의
##특위
##이뤄져야
##비틀
티노
공산
##은행이
만명으로
##재미있는
##집중되고
##추진하기로
만장
##백승
##잔여
시키지
##평가하는
8·
##저도
소개
태양
##순익
##전례
##경복
##입는
##영유아
존스
후보는
##지원한
event
##하반기부터
령은
##남기고
##유방암
공주
##구간이
기후
##소속으로
##인터넷에
미사
인조
##뜯어
##누군가
ron
##막말
##헌정
앨범
요양
##배울
##입수
##직원은
##패션쇼
##껍
##알아야
##웃음을
##전기를
##최성
##NLL
##마음의
first
##유모
##뛰었다
##활동하였다
언을
##가세
끈한
지배
##주장도
##싣고
##방지하기
∼4
ust
##작품의
동음이의
##대신증권
##무엇인가
레이트
신과
친환경
##임금을
##조기상환
##남아있는
하고도
##개인회생
만삭
##개회
##115
질서
##일할
여론
이전
##도시락
##오가는
##자랑스
루가
수능
##강간
##돈은
##Con
##날씨를
##다국적
##획득한
##그야말로
##좌석
##대도시
방사
##있는가
든가
##귀여
##지칭
>"
##환산
##조국
2’
##마틴
able
수엘
용석
##가사
##김천
##1.5%
##보잉
##삼성이
##1919
tional
희는
##대선주
##사업부
##쓰나미
##주택을
##휴식을
##작고
##목사는
미스
##시행할
##아테네
##시즌에
##단독으로
자살
##분명한
##치료에
##구성하고
##찢
급적
##2.3
강한
홍콩
##전의
스러워
##세계파이낸스
removeClass
리아의
##자신만의
##세수
##최선
점검을
##닛케이
##하야
##본회의를
미와
##바지
들보다
##주연
##질타
##탈바꿈
##해외에
ai
창고
충청
##상반
##혼다
##부문은
인드
##무작
##차남
##치과
##원주시
##가난한
##초상
##분야로
오프라인
##촉구하고
##신주
##실패했다
##추진된다
사와의
기원
##설명회를
##장점이다
##작아
##국장은
##성장과
##선정됐다고
##토익
##가득한
##손실이
##양국의
##한겨레
선수권
##文
조절
##AR
##지친
##포천
중국해
##파악할
##Te
##되었
##쪽에
##운행을
##출마한
란이
##정론
##집값
##요금을
##이벤트에
##공개적으로
체적
##드럼
##원룸
##티베
##정했다
김동
##그릴
##학위
##제도는
국민은행
##당국자는
##드러났습니다
승진
##감상할
##경주시
##본연의
등은
##간판
display
##임산
##내려가
##부모의
비시
##독창
##주장하며
##res
##장인상
##모두에게
출력
##개발도
손해보험
한이
##밀착
##황당
##사업계획
##설명하는
파에
##대내외
##언론사
토의
##그건
##공직자
##기능과
음은
##형상
Param
검진
아나
억엔
천동
##개발할
##75%
경제인
지거나
##자신은
##질문에는
담당관
##매각을
##의료기관
##개국
##욕설
val
##양은
##동아리
민들이
##뽑는
크리스
##인정한
##대응하는
구니
##입금
##키우고
##프로젝트는
하실
##직선
들에서
##양양
##시장으로
##메르세데스
##옮겼다
용의
##밸런
##Inter
##아바
##루머
##Right
},
개발원
##물품을
##통합을
##그랑
##재도
##측에서
##집중할
##많습니다
계절
##임직원들이
##위례
##당연한
##헤르
##정치권의
출자
##210
##靑
정리
##착수했다
##더한
정책과
##보건의료
##앰
##선거인
##솜
##고흥
##규제가
split
az
고령
##배분
##안면
##브라우
##사연은
##주세요
##공정위는
물리
##정답
##키스
대학교는
##순서
##전무는
##대상이다
##길에
심리가
김태
##경보
##명예를
아찔
##모레
##연임
##교육에
##1957
##포드
##데일리
칭을
##당직
##충실
누가
##불고
##부족으로
##부족해
##점과
##대표적이다
segyefn
##불륜
업무를
##업체들은
거를
날을
##솔직
##미래에
##이날부터
AM
내야
부문의
##개정안이
서구
##무사
##인상이
##혐
였다는
지난달
##죽었다
so
##김영란
##스마트폰에
##아니며
##아프가니스탄
에미
##최후
##메리츠
##컷
퍼트
##때려
##코스피가
##중요하다고
또는
##딸이
##송환
amp
##기용
##타운
차도
##KBO
##결혼식
##수법으로
##아이파크
세스
신으로
##☞<
정책에
##일교
##현대제철
만약
교육의
##당시에
##교육감은
##전문가를
##9%
##마다
##해외로
##파이낸셜
##”
##이강
##아이스크림
점인
##유물
##나오면서
처에
##산지
##투여
##벌어지고
오지
##진해
개혁을
##CGV
##물고기
##흐리고
##오르면서
##해운대구
층과
##쓰기
##품고
##훗날
##방지를
##정관용
##나타났다고
##부산광역시
##좀더
GHz
##부응
##양구
##즉석
""))
##비서실장
oEvent
##최저기온은
currentTab
##만끽
##잡혀
##보조금을
##단장
##시선
김성
##맥도
##착한
##각별한
하였지만
##늘어난다
##부작용이
##여건이
##임진왜
##해석이
레옹
공사에
거부
##선물로
##낭비
는지를
yle
##DVD
##더이상
##중단하고
##확보하는
세인
유적
##발굴해
진한
민은
스킨
용역
##소행
##순방
##총독
##공사는
들에게도
연구원이
##바나
##부검
##드립니다
##현실적으로
영철
##남쪽으로
##전자상거래
규정
사격
)""
ris
##천문
##명단을
##평가는
##장기적인
##하겠습니다
##분수
##급증하고
##퇴직연금
HOT
##외래
##지원금
잠수
##전보
##치즈
##교직원
##운영체제
니아의
##상품에
##원년
큐브
##개를
##눌러
##가치는
##홍보를
벌레
##쉬워
##우아
##기회로
##목적이
##소공동
##모델들이
##시급한
이렇게
신동
##與
##HP
##적발됐다
스테이션
산성
틀러
##낮춘
##아카
트륨
##충무
행위에
##스토어
##커지는
어린이집
##아마추어
##포함한다
##저술
##대상에서
기나
##부품을
##매출액이
##동포
##오후부터
##평가하고
##리우
##거래소
##수입이
##종목의
##총학생
##식의
##홍대
##밀접한
##공천을
##룸
강에
야당
##정종
##현충
##나이트
##예술가
##중단을
생명과학
##제한하는
접수
학력
pro
##능동
##몸의
일에서
##신청은
##편하게
##폐기물
##최적화된
EM
##이길
##낮았다
##정부도
##성장하는
토지주택공사
레오
##정보화
평생
##방학
##보습
##방문할
##워크아웃
도발
##st
##맞다
##설치돼
##시간대
##인도의
##당첨자
##공략에
##장치를
##인기기사ᆞ
##일당
가시
미에
민정
##촉촉
##과감한
##강기
##시황
##현물
##교수로
##저자
음으로
Jo
이승
##부장은
##김보
##강화한
##대의원
##어떨까
##뉴스앱의
##사외이사
##신세계백화점
였기
합창
##빚고
##추천을
##소방당국은
##가꾸
##승려
##정찰
##놓인
##비유
##양측은
##한국수
##한명숙
랜저
##Lo
##감행
##도의
##지키지
겠는데요
민을
협회장
##때문이었다
킴이
타로
##뱅크
##후인
급으로
##재정위
##마련하기
협회와
##발견돼
##45%
##운동에
##플랜
##노조가
##주머니
##과도하게
##수석은
##어렵다고
인민공화국의
양구
##두피
##인건비
##징계를
##세르비아
##selectedIndex
##토니
##활약을
##힌
인승
##글래
실적을
작물
##불안한
##내부에서
LB
##각자의
##대단히
##현상은
##확대로
틱스
##남아공
##못했고
##떠오르고
##수석대표
무대
##지자
##취지
##85%
##통신사
##구워
##용납
ECB
##결선
##목욕
##역세권
##콘스탄
##단절
##오빠
억원어
##휴가를
##돌입했다
##보호하기
역할
##공학
##급변
##푸짐
##하원
##호환
##자신들이
##임대료
##평화의
##지점에서
속에서
##cho
##나라는
##약간의
_2
##프란치스코
타의
##저출산
쿠폰
##해저
##4.5
##금액이
##추억을
##커지면서
##반짝
##없는데
##민병
##격차가
##전체에
##취업을
무상
##제압
##좌파
##집어
단체인
##들어올
내지
##한두
##벡스코
##둘러보고
##아직은
##여드름
##디자인으로
##챔피언스리그
해준
직에서
##느낀다
##현안에
##케냐
영을
##대사는
##의원에게
##국내산
##머물고
##지나는
##준비에
ISA
##요구할
An
IV
##보여줄
##내정자는
##디자인의
져서
증명
##고기압의
루를
##접견
##한림
##창업을
.31
항으로
서장
##든든
위안부
##기관과
##전망하고
##귀성
##인간이
##강성
리비아
##'0'
##10,
##날개
##사례로
##전달한
돈이
##때와
##수월
해결
##가다
##그라
##사전투표
##줄어들고
마련
##취임한
.9%),
##후보에게
사회를
억대
린다는
서울대
상식
##겹쳐
##김중
##주변을
##낱
간을
##테라
ream
##살인사
했는데요
##신용평가
연습
##CF
##이곳을
음과
산업진흥
##시행하는
##우려된다
##11%
백여
##선임기자
##Mo
##원산지
개월이
##돌아오는
때문에
##문화와
##찾아온
##공급하고
##도구
##발로
##전하고
##조사해
##사람이다
실무
위원으로
']
we
메트로
##공산주의
사과
##국가주
##증거가
##아무것도
##1939
##세션
관계에
##APP
##전시장
해경
##중국산
##사라졌다
론과
조와
##샤를
##저해
##탐색
##하이트
##회동을
국감
##보훈
##나가야
##현안을
da
##포스
##더보기
##전쟁에
되었다고
##MV
##입대
금융투자
##가격도
##'2012
착륙
##달러에
##모양을
##좀처럼
스포츠서울닷컴
항의
##기기를
##도대체
##악영향을
##뷔
비대
창수
##있죠
##할까
##장소를
성모병원
월부터는
##표출
fault
##이루어졌다
##양평
메달을
##감소로
##시스템의
원영
##생각하면
##스타일링
##이달부터
##집무
##해결해야
석기
##장흥
##형평
단체의
##작전을
##실감
##건물은
여고
##주식회사
##푸르지오
만톤
##날로
##북상
##유정
##포함하여
남녀
신뢰
##안되는
##증가했고
##중소기업이
##벤처기업
##논의하는
##운영한다고
.’
yy
##당선인
##‘2016
##쌓은
발행
##닷새
##덕에
신문은
##소속의
##포켓몬
##카자흐스탄
언이
##거센
##결핵
##성금
##부위
##이유에
대변인은
##의미에서
즈에
카라
##바뀔
##예결
##미술관
캐스트
##시각이
##다짐했다
##보도가
##안개가
##콘크리트
##지난해까지
##다케
되었을
김정일
총을
##보여줬다
##청량
vers
##아우르는
##공지
##무섭
##최문
증과
휴일
함수
~50
##2.
##1400
##생각하지
##대상자
##아반떼
##가미
##함경
##기쁘다
##전기자
KR
중을
##270
##나옵니다
##시뮬레이션
이탈
##나로
##106
##결정적인
POP
##그친
생활건강
##사망하였다
vel
##덕후
##언론이
##푼
##빌라
##안티
##완도
##중대형
##펀드는
프로그램을
##법사
##고공
##중간에
##열쇠
르면서
##최상위
비율은
##114
##것이냐
##상승으로
겠고요
##포부를
통화기금
##때로는
##넘지
##아파
식간에
##가속화
##시간도
수아
주들이
유도
##아냐
##함께하니
아빠
##공유할
##시에는
##참여가
RB
cy
ign
##](
##궤도
##뮌헨
##차에
##책의
##피난
회째를
##엄중
##어제보다
터치
day
##친척
##하한
##던진
##폭의
##함양
##법안이
##회사로
김용
실태
##파우
##280
##판단이
진짜
##대면
##증정하는
##댐
워킹
90)
##성취
##전망치를
##비자
be
반이
티넨
##가열
##싸우
##정년
##국가는
족이
특검
##이남
국세청
##고민이
너는
하십니까
##근로자의
##사자
##낮추는
##park
대회는
##무분
##절단
##여부와
##들어왔다
##챙기
##CS
조선해양
상태를
##이름이다
##편의성을
발레
휴게
##총재가
##미미
시키며
##있었을
##플레이어
##걷는
##투자의
미투데이
##친구들과
""-
##관장
##최진
독도
##일곱
##라인을
##소비에트
##징후
##태평
##주한미군
##뜨거
마리를
##규모에
##연락을
여행을
##이재오
##진료를
##차이로
##1910
##급제
##멘토링
##매출의
나리
##컴퓨팅
우에
##보니까
경악
아버지
##크다고
##프로토
aj
##간첩
##않았을
##판매에
김치
##내주
##여사
##맛있는
##우리를
##서경
년이다
##104
##128
##전면에
##값이
##니콜
##사용될
##최연
##다음의
##연설을
##전문적인
##서울은
##││
##넉넉
##해온
##테마로
##호르몬
##국정운영
##동일하게
##에드워드
걸이
났던
코프
지니아
##울트라
daily
##작년보다
##달고
##세워진
##이해가
##걷어
##정정
라인을
##이동할
##하려면
##대우증권
##사용하기
##‘3
##영수
##일원에서
##출신이다
로에서
##명백한
치료제
##물리적
##폭넓은
NO
##알기
##정화
〉,
사각
##성숙
##팔려
PF
의식
##기피
##노사정
##조직이
르가
##개최할
##생활에
##전해진다
CE
##무서운
어떻
##이선
##김황식
##발표하였다
##썰
##남을
##건조한
##아리랑
##기업이다
##인사청문회
시계
지금은
##발목
##대학은
##증거를
##김두
##하동
##은행권
시설의
##알려주는
##탱
민원
##대웅
##트래픽
니와
매물
##공보
##동굴
##풍성
##뉴욕증
##말씀드
##핵무기
##기본으로
##샘플
적이지
##고교생
##조치는
슨이
##전문가가
##천재
규모가
의장
##한가
##요건을
##출근길
##텐데
5,000
##제주특별자치
회의는
##거래량은
##순이익은
파인
##전년도
##정류
##IPO
월로
##BB
##메르켈
##반군
##가구가
##종사자
##출석해
##대학교에서
올레
##왜냐
이에요
##되어야
##타이거
##하락하고
롭다
유업
##드문
##등판
##떠오른
##이르고
##증가와
##판매량은
묘한
장소
##경계를
##유일의
##지리산
바퀴
젊은
##MP
##가로챈
음성
##1700
##도로에서
NK
김진
##많지만
##못지않
##협상에
src
##행진을
##모델이다
통에
##챌린
##느끼게
##서비스다
##안전하고
##연구결과
##이미지가
##위키
##전속
##구속된
##바꿨다
##발표가
##버린
##서포터
자산관리
Click
##외교장관
운의
##병합
##준우
##USB
##동작구
##아래에
상보
스텔
tom
릴라
##기호
##항구
##출시될
##강원랜드
슈타
##주도로
##달라는
##화제의
##만다
##몰랐다
##상고
##줄인
##프랭
볼루션
재단이
(02-
##대신해
##거부하고
##성장률을
구미
주체
##인상에
##제공했다
##닉
성분
##낳은
##추세를
##근본적으로
임은
##FO
##목적은
협회에
##모델의
##인생을
##금융상품
##2016.12
두리
설립
##인원은
천만원을
휴양
##청와대의
##한국노총
강점
디가
품목
##폭격
텔레콤이
키스
비도
##동월
학위를
##방통위
급한
재와
##김씨가
##불렀
##1942
##부인했다
##소식통은
]1
티의
##사마
##개인과
##서로의
제과
##전량
##아찔한
티오피아
##진전
##돕는다
##양국은
낙연
미아
영웅
##안겨
폭발
##바로가기대한민국
상권
)[0
##늘렸다
베네
##관제
##자이언
##9,
##한민
##가져올
##관통
거래가
OECD
##삼았다
##돌아갔다
##후쿠오카
##송치
##있기를
##해준다
##코스닥시장
자산은
##디즈니
##최고치
##초빙
##초연
##지었다
##정부세종
중이
##홍익
##노력해
##누구도
##경부고속도로
##박인
##상임위
##아들인
##사람들과
##이용하고
특별위원회
만히
탄핵
##외계
오가
##브레
자마자
##목동
##집중하고
##만드
##발렌
##나들목
##모두를
##시행된
##건물의
##달콤한
##영감을
##오리온
설명회를
징계
갤러리
##260
##일대를
디지털데일리
카로
##다뤄
##보람
""..
ST
##카타르
##남용
플라자
##자료가
RP
방은
현은
##감금
##한발
##한수
##하원의
##받았습니다
##부지를
##원스톱
##경제민주화
##아세안
##업체와
##주상복합
##골을
##한지
학교에
##궁금해
##총리를
##init
##국립중앙
##국제금융
##팽팽
들까지
##남편이
({
사찰
##탈북자
위원이
##요리를
닐라
##마법
##전동
##알레르기
버섯
종목에
##만나고
##향상에
##신제품을
씨도
증에
##적당
##친구가
##살아있는
##신용대출
츠의
##생체
세미나
##자신과
국민의당
월말까지
##자리잡고
동영상
orage
##조성하는
터와
##JP
##초월
##교차로
##남자가
AY
이닝
##||
##조원
겠다며
##똑같이
##개인적인
##경영을
##여객철도
##도피
##3.1
##구속영장
##거북
##구글의
##소재의
##심각하게
##서울아산병원
welContainer
##완주
##동안에
##서울로
##모욕
##오이
##쿠페
생활에
##맡겨
##산사태
##사인
##행사장
wn
##분향
##사적
##지질
##재보선
##이벤트가
##워킹
##논문을
##지상역이다
##번호는
org
##강화와
##랠
병수
##죽어
의료원
##남해안
##히로시마
##유나이티드
##의외
##지방을
##하였으며
##직접적으로
##나우
##역이다
##행위는
##인가
##2.7
##김씨의
##제도적
##지역이다
##개최했다고
##바람직하다
##꽉
##안해
##피살
##스피드
##장소로
##제품인
##자금조달
VCR
##주전
##미지수
##클러스터
린은
##모형
키의
##입어
##파르
푸르트
##급속히
협의회는
##활력을
##높아지는
##루마니아
##빼고
추적
##술에
##가구의
##당선된
일부터는
##국제적인
게시
그레
##리스
했으면
##깜
유입
##극동
##피해자가
민속
티를
##무늬
기원전
업체는
...-
분기에는
업체들의
우와
##영국에서
##웰빙
##환원
##공격에
##유니버
##종업원
##애플리케이션을
겠죠
##고작
##마을을
##다큐멘터리
자율
##했더니
##자격으로
ins
##복사
##봉쇄
펀드는
##320
##개최해
##납세
##정립
##불어넣
##하였으나
##랭킹
time
##급성장
##대검
##경험할
##성공할
##진출할
결국
##경위
##미모
##황사
하반기
##LPG
##비용으로
##연결되는
cl
시대에
##데스크
##사이를
##뉴욕에서
얼굴
##한의
산업에
##머물러
##한국전
##잇따르고
##내무
##줄였다
##1943
기대
##장편
부인과
##밀도는
##그러므로
##네오위즈
##돌아가는
감정
기타
##용도
##있겠지만
##곳의
구름
실종
##전향
##역임한
부장판사
ocial
##영산
##국회는
##쏟아져
##광범위한
##프로그램도
책자
주의에
##고객들을
##툴
##분배
##자격이
##반대하고
##농성
##탈환
##개신교
##채로
주말
##통학
연대는
##하려고
##인식하고
##부분에서
쿠니
##주인공은
##시스템에
렌트
##제네바
##있어서는
##123
##거라고
##유지하기
##명단에
##화요일
##받으면서
##모순
##면담을
##한양대
테라
##케어
항이
##me
##친노
##멤버십
##하락을
##모양으로
##취재기자
##부문을
##상황과
##3500
##획득했다
##헌법재판소
-12
##체력
##폐업
공장을
##이상한
##덕후들의
##안전성을
로써
개발사업
'""
##산재
##미사일을
##표현했다
'·
7·
차장
호수
##승계
##공판
##역학
##오스만
##선장
##뇌물을
##누락
##대법원은
##끄는
##담배를
##성장률이
메드
생은
##te
##교사가
##독립을
##루이스
##베네수엘
염을
봉사단
##방영된
##활동한
##바비
##짚어
내용을
##증가율
##랜드마크
##성경
어떻게
##주제를
##받았다는
표시
현충
##지형
##겨냥해
##나폴레옹
##판로
##참가한다
##오키나와
##(,
##백작
##올림
##규격
##이력
idden
##통산
##리베이트
##비는
##사서
##클로
##활동은
##보답
갔고
##차종
##수입을
##일본어
##건강기능
아니
##출원
았기
금호
홍원
##걱정이
##맛볼
##인정했다
##돌리는
##울주군
영동
하네
희의
##대담
##동경
##유신
##여론을
##파주시
##형식의
린의
##역외
##이라는
해볼
##건전
##몰린
##경제성
##변호사가
상도
##거울
##화백
로또
##지켜야
만달러로
##사무실을
##순식간에
지침
##먹는다
##원주민
##그곳에서
총독
##WW
##살기
안으로
##선생의
##이야기는
##샤워
소리를
요일에
##신중한
-,
부사
지리
##보험금
##생산성
남성
##디바이
기까지
##대용량
##활용하고
##영암
like
##받아들이지
ME
##Le
##외형
##측과
사령관
##의문을
##정도였다
##판매되는
##유익
##과학적
##해양수산부
##서거
##브렉시트
운행
##결집
##입당
##횡성
##심리적
과천
##동지
에른
##모를
##자고
##상장을
##북쪽으로
보존
저스
##특례
##개선된
##불안정
##이어가
##선물세트
##증가하면서
##전원이
##까다로운
전세
항은
##수은
##라인업
##국무장관
##행사에서는
##계단
##토목
##부족하다
원씩
""]
225
##양주
##커져
##키울
##일자리가
##식별
금고
##발매된
##발생하면
레벨
진로
(){
##러닝
##기준은
문화유산
##부가가치
##펌
##컴백
##비과세
##액세서리
##지방자치
##중소기업에
##바다를
VR
##소스
##잡힌
##파면
##변화의
##선택의
##말했다고
협은
##꿈과
##대응에
안동
이체
##안에는
##함으로써
##달걀
##두꺼
##사고는
##취업자
##개선해
##발목을
##싶었다
##입장은
##자녀가
##필라
##페이스
##말하면
##고안
##외에는
##고려해야
대만
##yy
##갱신
보조금
##산업이
##상황입니다
##휴대폰으로
착한
##제설
##스마트폰과
##sh
토론회
##제출하면
##중소형주
간이
##습격
##문화관광
##외환시장에서
##세분
다니는
##부적절한
##포지션은
##소셜네트워크서비스
작업이
##영상이
##주민들
##장소에서
##간이
역세권
##스탠더
##정진석
##않거나
축을
##지킬
##강화된
##북한인권
내륙
##부스
##스트리트
##쫓겨
##조정했다
반은
소영
##적격
전자신문
##국토교통부는
개씩
권력
키즈
##주목하고
##생산한
##코르
##사실과
##오름세를
##후보자에
배출
##330
##확대했다
공의
##구의
##암컷
##왕국
##인터파크
플렉
##성의
기록을
량도
##쌀쌀
##확률
##방향에
##경진
##만장
##피부가
##옮긴
##14%
##섬의
공간으로
##이사장이
##쏜
판의
##2.2
##않느냐
##압박을
##전망은
##회사측은
##사이트에서
형제
##불에
##장기화
##넘을
asiae
##때문이라는
##것일
##남는
##녹지
##표방
##직원들에게
아베
##탐험
##답하고
##수장
비용이
##엄정
##해병
##달라질
##목표다
말이
문자
병세
책은
##렌즈
##면밀히
##유럽과
##변수가
##투명한
놓을
연평
##숨겨
##이온
##소문이
쓰레
##세미
##메트로
##부부는
##아토피
##않았으며
##다이아몬드
대왕
ive
##끔찍
테크놀
##정치에
##모던
##몰락
##태극기
##라이선스
1▶
소매
##약탈
##출처
네트웍스
추는
##카다피
-16
##공동연구
##어우러진
대인
슬링
Top
##군부
##대졸
##천천
##부작용을
##알릴
##관광지
##삶에
만원과
##좋아요
##정론관에서
##드레
##스폰
##근거를
##줄어들었다
##혼조
##인사는
##탤런트
##학생부
##내실
##평가된다
##교부
매일경제
##서두
##호기
기온이
##아닐까
이주
##의석
##흔한
##이정희
##형태가
시설로
##얼어붙
##해소하기
##조인
##추진에
##페르시아
##프로그램인
사리
##차려
날로그
##사살
##한참
##경험한
##높아져
##예컨대
##한국사
하진
##미르
##우라늄
##찾아야
##주민투표
New
lan
그룹과
메이커
##장성택
극장에서
##적법
##청와대와
##대금
##알선
##회의가
##음주운전
입학
##아들의
보와
##내림
##대접
##호평
##공간에
##반발이
으로서는
##상향조정
bal
##SH
##태안
##강렬한
##매트
##바다에
##상승이
용은
프스
##수평
##안상수
키가
##성적이
##여동생
##무상으로
##펼쳐지는
##기차
해야만
face
jose
##고객에게는
비율이
스럽고
억달러로
##높아지면서
소환
악단
메이크
##상급
화했다
##거액의
##드래곤
##저희가
##스타벅스
∼6
년마다
하였던
##바르셀로나
##상수도
##타당성
##나라에서
##원내대표와
##팜
간부
공은
운동에
##App
추세
##결렬
##모노
##구축할
##1951
##수련
##수서
##초음
##양상을
##의원들
joseilbo
##도쿠
##조지아
##정부로부터
방과
##직격
##1.1
##국제기구
산면
##잠깐
났다는
프라이즈
won
##플래시
hankookilbo
꼬리
선교
##샌드
##왔던
##채팅
인력을
##규정이
##태권도
##희망의
##자동차를
##계열의
##싶다는
##수행하고
##엔터
##융자
##set
##지정해
##전문가로
긴급
롤라
짐에
##가마
##울진
##문의는
##올들어
##위험에
##부위원장
냉장
##방콕
##요약
##원안
##정치자금
:0
란의
##벗어난
Hidden
##조별
##그치지
##있고요
##판단한
건조
청탁
##지각
필름
##산업에
##손수
버스를
중국의
##수위를
##법무법인
##정책으로
##BC
##백성
##가하고
##사업도
##살리
##검토를
##교회의
##시민과
##앞당겨
꾸로
절감
터카
##길은
##둘레
AL
강제
내며
##아시
##불리며
##강조한다
##대한민국에서
##대주
##산소
##문의가
##없었지만
전담
톡스
##버스를
##스타일의
##정부조직
##이혜
##멀티미디어
##선정되었다
##미치
##빠질
##코어
##만전을
##선수는
##누출
##유니폼
commend
더는
##투표율
##적다
##경복궁
##표현하는
이센
##미성년
##해외진출
명예
모로
##것만
##망원
##NHK
##프로그래밍
씽크
##문신
##사이트에
##서울시의
##없었다고
##우선적으로
##과징
##기적
##야심
##부탁해
##선정하고
##주민들을
2·
군산
##걸음
##선명
방송을
##대체할
der
##무겁
##강타
##개가
##지위
##동향을
우드
야의
##축사
취재단
reen
##국경을
##등장해
##영농
회사는
##선거법
##어디로
##체크카드
봉을
##누르고
##믿는다
##경기부양
였을
##트윈
분위
##아가
##히어로
##스마트폰의
승용
월께
##무지
##1.9
류에이션
##기대감에
##나타낸다
##테마파크
##'<
##파악해
##한결
##자동화
##시스템으로
어드
능력이
베이징
인포맥스
││
##디저트
##비교할
##주도할
##처리가
##하이라
##le
##구본
##사생활
##무대에서
##참석하고
##보석
##주범
hani
##가로막
보스
##111
##재료를
##취지를
##크기는
##탑재해
##전략으로
##중화인민공화국
##음식물
하긴
##삶과
##정연
경찰서에
##피아니스트
##따르는
##이자를
##케이스
##홍보대
##0)
##침대
##패소
경기장
##판타지
##시립
##이케
##저널
사이드
##지정한
##플래그
##방송에서
##이례적으로
##배운
##최정
##탱크
##무차별
##추정하고
제표
ass
##김규
##대북제재
##불허
나들목
##1936
##설치했다
##보이스피싱
##데이터베이스
##보드
사업단
##2.8
##소비가
뤼셀
##공범
##막내
##좋게
##보험료를
##국한
##군주
##예상을
##분양가는
덱스
희가
##체인
##것들을
년까지는
##지주회사
남자
##뇌졸
##춤을
##감염된
##바뀌는
##이전을
##사람들도
냐고
중생
##숨을
star
##13%
이웃
조현
##견학
##받던
##분자
##플루
##광진구
##도지사
##정하는
##제주항공
##민자
일까지다
##진술했다
##한국철도
##물결
##담보로
##포획
##공로를
개발기구
ater
##달성한
##접근이
##생산하고
##지인
나기
상사
상스
##염색
##예쁜
##이씨
##DMZ
##정영
학교는
##공문을
##인사말
##연구진은
지은
BB
명령을
ggle
강은
##뒤에도
매가
##id
##107
병과
진환
##센서
철학
##엘리자
경찰청은
##당선인은
##하늘을
>,
##강릉시
##다가오는
Storage
##의거
##보였고
##한번에
Button
##팝업
##생산이
##사모펀드
##획기적으로
##뿔
번가
Log
##개선하고
##직원들을
##가문
##사채
##이호
##볼거리
##태스크
주의와
\',\'
GO
길은
If
개년
리치
운트
##부수
##같았다
##비로소
##청계천
##삼성화재
##상승세가
##'2017
연재
##많기
##역은
오늘도
##관측도
##설명할
##예정으로
혜택을
##움직일
##브레이크
##코스피지수는
제안
##돌아갈
##이스트
##머물렀다
변이
##담화
##학부
이야기
##사례도
##폭발적인
##관망
##아름답
##평가해
##어머니가
##투자정보
##넥센
##물의
##사거리
공동모금
national
Recommend
창작
##짐작
##황태
##위협하는
##발산
##머리카
##영국과
모바일앱
##만족도를
겨운
##역사는
##제한을
보고서를
##향을
##자원을
##증가를
”-
실현
##양을
##이형
##가격의
##숨겨진
##지급하고
##다문화가정
##영덕
외국어
##우상호
##않으면서
기관은
##전기전자
##환불
하지도
##수년간
##임박한
불량
전사
태우
##섹션
##수돗
##폐막
##와중에
##커피를
명에게는
팀과
##구출
##한국산업
대책위원회
##계정
##기울여
공장에서
##극복하고
##다우존스
##진행하며
##엎
한지
##yyyy
CookieKey
##isHidden
CookieStorage
##실속
추석
##박선
##집착
##자구
되지는
여부를
##단체가
##크라이
##여기에서
##주요기사
##확대됐다
┼──
##김철
##달래
##혈압
##더구나
##둬
##거느
개에서
문제가
##소방관
결산
##옮기
과학원
##복지부
##찾아와
전문대학원
##비관
사실을
##되지만
##일으켰
타가
##사범
dele
서해
##복선
##실은
##통증을
억달러를
부패
Div
##길로
##배워
##라이벌
##스마트정보
##증가가
글라데
선거구
행사가
##소유한
도시철도
연설을
##그것도
##즐겁게
##청나라
##정무수석
##'2011
##대남
akao
대학교에서
김기
##특이
2009
##혐의에
##힘으로
....""
매우
##호재
##물놀이
당선
##남짓
##규제개혁
##않겠다고
##지도부는
##대치동
##범죄를
##처리하는
##학생들과
##강을
##불복
##가슴에
##걸림돌
##관계로
에미리트
스파
##백남
##로드맵
##살처분
##조성한
##예상한다
경부
##빚은
##세탁기
##왕국의
##골드만삭
거래를
주기를
##무리가
##물질을
성인
~14
##PS
##개점
##현금을
어리
##함락
렉트로
해주세요
##영향력이
##접근성이
##투자유치
여부
세종시
니즘
싸이
##창녕
##바뀐다
##비판하는
정책의
조원으로
##계류
##안쪽
##스프링
##위협에
##판단할
녀의
라와
##라며
우리의
##['
##하나하나
##서브
##인정받고
당체
(31
##5~6
##유치에
##접하고
##취약계층
가계
##하마
##행사도
력발전소
##굶
레븐
유한
##공예
##남의
로미터
##하느냐
##이상이면
iew
##성분을
##우병우
##이동하는
갑니다
##방송에
청약
쿠버
##대출이
SectionId
##김부
##사이클
##시너지를
##국제통화기금
순천
##없이도
##지켜보
##시장점유율
익을
##시청률
냈습니다
##여기에는
WC
엣지
차기
""●
##구조조정을
리크
##반문
##윤곽
##세우는
##파생상품
했나
##쓰인
##걸었다
##기초연금
블릭
서버
월은
조종
회전
##높았고
##운동이
##지원은
##행복을
하였다고
##with
##출연했다
##왼
구호
벽이
##뉴스팀
##댓글을
##속도는
##항공모
##매수세가
##이면
개월여
재테크
choi
##질의에
##떠올랐다
강력
##씨앗
항에서
##불확실성
##모집한다고
##퍼포먼스를
변속
이정
rap
##귀를
##낮고
##평등
##문자를
##시위가
##신청서를
척이
##농산
렸는데
소득세
ound
##방식에
##영업이익을
##지적했습니다
##사실에
##안정된
##지도를
##지중해
##아메리칸
##바위
##남대문
##흑자를
##니시
##모호
##다르지
##절반을
##송전
##어지
##시드니
##아닌지
##떨어진다
now
아가는
##없애고
적이라는
폐합
##오카
##팔고
##밖에서
트레이
##결정될
##존재를
데르
##“1
##어학
##여성과
##한국에서는
리코
종민
터에
-11
##리튬
##코카
##뉴타운
월초
##포기하고
##다크
농산물
##막바지
##1938
##event
상대
##담임
##2.5%
리라
팀에
##혼잡
##밀라노
##국민참여
##유관기관
##작용했다
##인터내셔널
##英
디의
##리뷰
##정경
##경영진
##만남을
##은행에
관계자는
##심도
여명은
장치를
##구간에
##동일본
##매출과
##안전에
##임기가
##템
##아사히
##콧
##만취
##지을
##업종별로는
##규정한
##맡았던
##문제점
##가정에서
계획에
##곤두
##금산
주의보
##만난다
##지구촌
강사
하가
##주위
##달성을
##작년에
##최씨는
##이가
##업체로
##위원은
##작품에
##주기로
점포
##법이
##한달간
타페
김무성
##성향의
도도
명대
ert
##넘어섰
##프레스센터에서
##쿡
시했다
##교훈
##AS
##숨은
##내셔널
##천천히
##투자는
농민
##거쳐야
##임기를
##보장하는
##우수성을
##용기
##자전거를
년엔
능한
##국민은
##순수한
##인연을
##축제를
##카드사
규어
##0.7%
##보호하는
정말
##심층
자들에
##그룹은
##휴대용
##포함되지
##에티오피아
영역
현수
##병력
##주력하고
이은
평론가
~16
##수제
##가정을
##왕의
##썬
원식
##리드
##방류
##소셜커머스
##건물에
##선거는
##총장의
##liObj
훈장
##폭풍
##소방서
자키
파울
##워커
##포항시
##디렉
##승마
##이동이
##고부가가치
##답한
##탐구
는지는
##비공식
발적으로
##빅토리아
##평년
##휘두
ward
##1937
##조세일보
##하나대투
##잣
통과
성에서
##lnb
press
welTab
##sectionId
에요
##진한
가구의
##파업을
##단계에서
조류
##번씩
##의약
##나갔다
##나눴다
##자녀의
##회의는
##팔레스타인
##넘쳐
##국고채
##뛰어넘는
##놔
##고온
##붙인
물질을
##성폭행한
##2017.04
개장
락이
##곡은
##만일
##담겼다
##뛰어들
##컨센서
수현
##박민
##춘추
##간호사
##내일은
##마일리
##수상자로
##금융위원회
다지
##중성
##책이
##등에도
##불렸다
교가
##대마
##디아
##원시
##홍석
##구성한
다이오드
##명목
##외교관
##이정훈
##예방하기
롭지
##스탠더드
새정치민주연합
##잔류
##MD
##마술
##수컷
##향년
##거부한
##추석을
했음에도
농촌
##평면
당해
##장내
##휘말
##1,2
##채권단
##한다며
##흔적이
##감사합니다
##미시
##변속
회장이
##잡는다
속초
수업
(60
##길고
##맛집
##방수
##금리인
개발을
이미지
##주도권을
BO
)',
##행안
타리
토를
##갖췄
##민심을
분기부터
##않겠느냐
활동이
(55)
##국가로
##대목이다
##에디
##흔적
##임기는
우성
터키
##논평을
##지시한
##대변인이
##도시에서
겹살
교정
##인피니
##토로했다
##특별수사
##Korea
##뛴
##백과
##파인
##감소할
##절반이
##에버랜드
##거다
##밑에
##성북
""""
##토요타
##얇은
##강수량은
무형
자이자
OTRA
##'</
##도발을
##사랑과
##탄생한
스타그램
문고
##값을
##수입은
##중단된
##제기된다
new
라시아
##꼽혔다
##의도가
##처음에
##판매는
장려
##교내
##109
##기관에
되었다가
마이크로
##일본으로
##있겠습니다
##높지
##초당
GC
##Th
##바꿔야
##유지해
.2016
##정보통신기술
충돌
##복제
##철새
##길이가
##롯데쇼핑
##데도
##러시아가
##유영
위원을
##기승을
우라
##750
##모발이
##배치해
##우체국
##추가해
##나타나지
##왜냐하면
##조성된다
’.
##李
##교복
##550
노래
##불로
##소망
##초기의
카르
##빛나는
##자체는
##달이
##비하면
##이종걸
##부근에서
##하이닉스
령의
우면
저장
##칠곡
올해는
##식중독
##잃었다
##거두었다
##트위터를
##ar
##몰입
##마르크
##전기가
##적용하고
##입술
##주도하고
##먹은
위한
##계기
관광객
##고객과
##모티브
##지급할
##확고한
##한미약품
##동창
##고령화
##주요한
-20
##우루
##순위를
##거부했다
##조선총독
##핵실험을
##투자의견은
나비
##브래
##'',
자에게는
##바이에른
##설립했다
하자면
##개인적으로
스콘
저를
##결별
##돌풍
마저도
##135
##가져다
##안산시
##외교부는
##주식시장
##창의적인
##commentCnt
년경
##분들
##연기가
##있음에도
##습득
##지역별로
##여겨진다
공직
##연락이
아이패드
##공직선거법
발로
##생필
##화순
##진행을
집회
##고종
##반영하는
준희
##김범
##오전에
##주민과
장으로서
##가족들은
김경
##사도
##통장
제도가
##우즈베
##관광객을
종금
##코믹
##하셨
##호소하는
크레
##무궁화
##행동에
RC
곳과
잡기
지는데
##입니다
더불어민주당
##없지
##기업체
##투자와
##모르시나요
##민법
##함정
ash
##견디
##실현을
나로
##구강
##마케
##분비
##입상
사이클
회장의
##의원회관에서
##시찰
##가정용
##FOMC
##않습니까
##오늘부터
미네
취득
##양성을
##필요는
텔레콤의
산단
학사
##Date
##차량으로
##매일신문사
##생산할
##쌍둥이
##서귀포시
##출시한다
금강
영양
오로
##되나
##기조를
##주인이
만달러를
window
##선수를
##푸짐한
미래에셋
ystem
탄이
통운
##경관
che
##입법예고
광다이오드
##브리
##영결
지점장
##공공부문
##진행되었다
절기
##격파
터에서
기업들이
우회
핫이슈
##무대로
##언급하며
4'
##볶
##한낮
##지역인
##도입하는
##‘2014
##가와
OSEN
port
##크로아
##선정했다고
##강변
##경감
##가문의
##공세를
##민족의
##조성하고
노선
##거취
##십자
##만장일
##소속사
##끼어
##뮤지션
##수익형
ssage
난이
척의
혈을
##조찬
##남양주
##방송인
##도교육청
##건넨
##이내로
##사들
##가져야
##경품을
##알뜰폰
##인디언
보좌
##호세
##물리학
##일제강점
종일
##캐피
##요청할
##중도금
##예정대로
##정상화를
##대한민국에서는
##고품
##예상돼
##생명보험
##왓
##pro
##안타까운
직접
##확인을
IL
##기재부
##취득세
중앙일보
야권
분야의
##성장의
구도
##기하
##연립
##키운
##기다려
##제공을
##힐러리
##1914
##프로듀서
##보온
##사촌
만들기
##먹어도
##선호도가
##백인
그래픽
##역사에
하기에는
##됐던
##치는
##배우자
##회복에
##한국은행이
신호
이건
##하청
베르트
스페셜
주의료
##안정화
##전문업체
리밍
##18%
##CPU
##밤부터
##나서면서
##도움으로
프티
91@
##지대
##낮추고
##자신도
과목
사로서
##서울이
##데서
##정제
##요건
##제출할
##위원회는
바는
##구인
##토양
##놀이터
##할아버지
뉴스데스크
(33
##부동
##동쪽으로
재벌
직은
##사이드
##남아있다
##수목
##아파트에
##중요하게
##하락으로
##노린
하에서
##상승률
##부분이다
오버
##상류
(0.3
##Rights
##부행
##덥
왕은
우유
##섞어
##실명
##대응이
##한자리에
##최병
##17%
##조종사
##쿠폰을
##사의
##이마
좋아요
##계기를
##빼돌린
##구축하는
##읽을
##특별검사
##전체회의에서
한진
##맡는
##사태의
비정규직
##단정
##보살
브라질
##의미는
학교에서
##도와주는
##국회의원이
190
##버티
##했기
##언어로
##가던
.['
##방법에
##항생
##122
##달아난
개방
##딸기
##옥션
##취지의
##기자들의
##상태이다
이달
##조상
분만에
##기업은행
연준
##선진화
##중심지
##꽃을
##건국대
##않아서
##점유율은
브레
##SF
제도의
##설계를
##제기돼
##러시아는
##개인정보를
##tv
##계좌가
##부위에
##거리에서
##재정위기
##광주광역시
세븐
양주
##정용
상황에
##원칙적으로
행정부
##지능형
##케이크
##개선하는
본은
##조장
##압도적인
##기반이
##칼슘
상태에
하려던
HTML
##수치를
##영어로
##공인인증
뉴타운
##부담으로
##불가피한
ju
##톈
##해리
##도로가
##예방에
셔야겠습니다
##넘나
##죽고
##신청이
##이승만
##수단을
##운행하는
##정부서울청사에서
##맞을
##합계
##대기업과
##임진왜란
##제주도는
##FM
##변호인
주요뉴스
##위원장과
##쿠키뉴스에
##제너
##통신은
##프랑크푸르트
시중
충전
##공세
##공소
틸리티
##사들이
##한국도로
단지로
##프로젝트에
주부
##고소득
##결정된다
##연석
##자의
##선출된
##소지가
##정신과
##대표에게
WSJ
##논란의
##해법을
##붙잡아
##종목에
##제거하는
##넷째
##해법
문화가
##진상조사
##혁신도시
##지원하기로
노현
송이
##클레
##거행
##유닛
##왔습니다
##업종이
대통령이
##오픈마켓
아마
왕후
##날카
##you
##총파업
##바라보고
##방통위는
##현대차의
YN
수첩
형주
##걷고
가구에
##사랑에
##연루된
##지점에
##매출액과
족을
##도둑
##왕자
조사가
##공간에서
##이리
게이머
했거나
##오로지
##주역
개국에
##친화
##알림
##휴일
##도시형
##파일을
##대통령도
##춥
감염
친박
##당권
##요미
##확보가
##정조
##650
##다가온
##고객만족
##기록했습니다
스타트
##기숙사
##대한적십자
대도
증의
##매매가
##수요일
##졸업했다
노버
어에
iti
유공자
##공무원의
##상당수가
##최초기준
철강
병원에
점이다
##대회의
##인력이
##경량
##모닝
##저조한
Inter
##분과
##경쟁률
##공기가
##남았다
##낮췄다
au
##성능이
##수강생
##요구된다
감찰
비만
사옥
##통지
##넓이는
Fed
##한숨
##마니아
##경기도의
감치
비교
##동급
##슬림
##김기춘
Default
설턴
습관
왕을
코가
공원을
##발행한
##설립해
##시의원
##지점을
##0.8%
원으로부터
한인
휴대
##로즈
론으로
logy
##분양을
##회원이
ng
나물
##검은색
##경영에
##해결에
##회사에서
경기를
박주성
##거꾸로
##건설업
##불이익을
izationDiv
guideCategor
6@
##다쳐
##말리
##어버
##언더
##부여하는
##Reser
메일
##He
##제시된
##테크노
##유도하는
##광저우
##의미의
##콘퍼런스
##장사
##파행
~13
##내한
##노선은
##세계로
##지내고
##올림픽에
##정치적인
애나
##하우
작업에
##톨
네오
월세
대학의
##앨범을
##서비스인
##양념
##올라온
##도시이다
가중
발전에
(52)
런던
##틀을
##부문별
##당첨번호
##아날로그
##압류
##커넥
만큼은
유튜브
이어야
직으로
##노선이
##회복세를
##동반한
##2017.03
##집결
산업과
시간의
##원심을
##제시할
##지속할
##직전에
나르
주며
##좋다고
천연
##전체회의를
bps
##법에
##재연
##항성
가지로
##없어요
##1995-,
##어쨌
##고분
##상세한
코리아가
질과
##전선
##살펴볼
##지급된다
한일
안에서
티넨탈
##정관
##핵무
##시스템과
##금융감독원은
##개개
##전통을
##정몽구
##하나은행
유아
티에
##민심
##질주
거리에
##통하는
아름다운
##교육문화
##맨체스터
On
곡이
번을
##차체
##친절
##물질이
##일원으로
동화
##뿌려
##가족은
##급증한
##href
##정치적으로
배럴
본부에
##바이올린
교원
##입성
웨이트
##시도를
##아무래도
##감기
##수요에
##사가
##원어
##허경
##중앙대
##혐의다
혔습니다
##운영되는
주유
##부흥
주의가
##변동성
##이라고
##관계부처
##구간에서
##평가받고
##질적
##호황
보장이
”(
모니
지향
##논란은
##발표는
##무시하고
##포털사이트
lim
old
##사르
##친선
##영화관
##부상으로
##매칭
##비방
##패스트
##해결해
##파리에서
EI
대고
##급진
##가슴을
##응답이
삼척
##계약금
##대응해
고지
##조언을
필리
##닌텐
##유언
##만나게
##컨텐츠
##언제든지
논의
##교양
특별법
##구글은
##안정성을
올해의
##고민하고
##추정했다
##사회적기업
확률
##음향
##국가적
다이스
##여기는
##포스코는
##저조
##정명
북한은
FOMC
##시작될
미경
##에이스
##원유철
##조성에
##확정됐다
##면치
##샤오
##줘야
산으로
##않았으나
어린
##지폐
##oid
##노원구
##혜택도
##도시재생
mk
∼8
##침범
##틈새
##검증을
##축사를
##건강하게
##캐나다의
제네
가지의
##부장판
##유지하면서
##단풍
##획정
문이다
##전역에
##조치에
부서
##곡물
##요동
##착각
##달리고
##결정한다
##같은데
##후원하는
조금
간다는
##Man
연구소가
##이코노미스트
취약
##도마
##드릴
##아부
##수준까지
##연행
공연을
.0%,
##국제유
##사태와
##가입자가
##확실하게
##비비
##의무적으로
##거둬
림으로
##교사는
##구글이
##적용을
##0.6%
##라인업을
hj
##달을
##전대
##적극적
령에
##사명
##합친
##항일
##소유하고
oon
##대청
##스태
##익스
##아내가
##옥수수
신영
주변
쳤던
취소
##뜻의
왔지만
##요청이
##실시된다
##안심하고
##조선민주주의인민공화국
고성
##파헤
##법정관리
안심
억을
##들지
었어요
지도록
##접수를
##1935
##버지니아
공동취재단
##AD
##거야
##일과
##중년
##치른
##인생의
##보험금을
##상호작용
##엔지니어
##설문조사를
료품
##화답
##도시가
##사하
##쾌적
##가리지
##모임을
##시절에
##들어서고
##전쟁에서
##유일호
##파산면
##퍼스트
##be
##당국에
##당선자
##마이너
##부부의
##불출마
케인
950
##지체
##의료진
##잉글랜드의
##썩
여만
##목회
##복음
##요격
##이후부터
##랑
현상
##실세
럼비아
세기의
##세계가
##소득세
##정씨는
##태우고
##호조를
지금까지
지회
##탑재된
##금융위는
##부사장이
사용자
##3.4
##관심은
##마음껏
##지어진
##특가
편한세상
리버
예측
##과실
##부분도
##인수위
##연결되어
##집계됐다고
르바
체포
##};
물이다
##사의를
##선발한다
##광학
##수동
##안도
##오디
아리랑
##고향인
##사람에
##소련의
##고민하는
절로
##넣었다
##뺏
##사무처
##위협이
##화면에
##소외계층
##이용자들이
##})
##단어를
##데뷔하였다
##간행
##113
##병력을
##여력이
##오후에는
##길어
##봄철
수이다
##아랍에미리트
##건강과
##1918
##국민투표
케이팅
##})();
7@
정규
##도시는
##한국타이어
##초보
##고가의
##우려에
##임금피크
##우선협상대상
)`
유세
##로고
##로맨틱
##인원이
##장르의
##펀드를
러닝
ICE
##버는
##오다
ual
플라이
##가급적
##인천광역시
중근
##논평
##치어
한국은
##특이한
##식당에서
##정치인이다
##모델에
##소통의
class
물질이
하겠지만
##외교안보
##운영하며
본부를
##구축에
##발견해
방어체계
##페어
찌감치
##폼
##체온
제약은
주었다
##변경을
##하락할
##지자체가
##표정으로
구장
현안
##뽑은
##원대
##일삼
##펴냄
0%),
##왔으며
##위스키
##악취
단체와
하시기
##5.5
##국정화
##을지로
##장난감
##움직임에
의무
##끼고
##시총
##지루
##경선을
##호흡기
출발
라이더
##결정적
##브라질의
##푹
궐기
농장
망의
연주
]☞<
##베어
##요르단
##그리하여
##전거래일
과잉
##노골
##원소
##장인
##퀄컴
다문화
##방송은
##사고의
##환자들이
##규슈
##제한이
##주관한
##탓이다
##방글라데
그로
##라식
##학자금
##지켜보고
##지속가능한
##플레이오프
##한나라당은
진주
##홍문
##회화
가이다
개사가
개월에
##자료는
##정의화
##투명하게
##편리하다
##2.1
##기술에
##감독으로
##감사원은
##기념하는
##고급스러운
(50)
##감성을
##공사에
##태양의
##김포공항
##대기업이
Option
##꺾고
##접경
##부회장의
##아버지를
신형
##똑똑
##마을의
##투자은행
극복
##우려하고
##회복이
##요원
##탄핵심판
##추상
##교재
##콜라보
##동상
##증세
##힘써
보험료
##성동구
##없이는
##정황을
##1932
세계파이낸스
##먹기
리그의
##대표에
##주장하였다
전공
하천
##No
원장은
##양국이
##서울시내
##참여하지
켓을
운동장
##물량은
##케리
HAAD
ache
##하이라이트
##굴욕
##방송이
##차질을
##기사제보
##다양하고
경정
##애완
##이도
##찌라
##하자는
##한국지엠
##시작하면서
##간단히
##작업은
##캘리포니아주
HP
키퍼
##낮출
##선풍
##않나
##부장검사
##프로이센
##김근
##누워
##배열
##혈관
러를
##발표될
##전방위
한나라당
##독일에서
ci
토는
##시군
##윤창
##참가를
##가전제품
##아버지와
##밸류에이션
##농림축산식품
##많게는
##성공적
##성형외과
##시상식에서
대북
##가락
##버거
##블로
##위배
##빌보드
##올림픽에서
##널
박을
요청
키지
##저수
##카니
##벌써부터
##성균관대
##유럽중앙은행
노의
##오세
());
chan
##생활용품
##은행들이
##살리는
##성북구
##장소에
~17
##무책임
연합인포맥스
이냐
##추징
##노조의
FT
##마카오
##'2010
경제자유구역
예상
##평상
마리가
##영업손
##대한상의
알라
250
##고충
##약을
2008
##무기를
##예방접
##강조하며
##시리즈는
##지켜봐야
폐쇄
##구에
##메달
지구에
##특강을
##화성시
IR
지오
##모로
##의왕
##나무를
##협약에
##관영
##서재
##구조의
##나타낸
##모델하우
##일으키고
##떨어지면서
강원도
##개정안에
##미국에서는
150
##수준은
##차가운
##감소하고
##되새
##루트
##예멘
일자로
skim
##정황이
처분을
##시신이
##장례식
##허용하는
##호소하고
에코
##시판
입니까
##때문인
##올스타
##임명된
elp
##밀어붙
##판매되고
##비단
당으로
##전통의
##금지하는
##계신
##난이
##책임은
##추이를
##화재로
능력시험
##Reserved
이온
##아오
인데도
##;
용수
접속
##배양
텔레콤과
##기대되는
투아
##빛의
##미래가
##사라져
##홋카이도
##잔디
##쪽은
##대학로
##살았다
##청소년들이
ime
조원의
##대회가
##호조에
인제
##서쪽으로
##형성하고
##환자에게
##유가증권시장에서
##반격
브란스병원
##건보
카드가
##거치지
##비핵화
##한국무역
혜정
연금을
##UAE
황금
##기름값
##자기가
##으로
##라오스
##무상급
##실패로
##웨어러블
##소각
##열광
##돌아서
##박수를
##역할에
##기밀
##동조
##밀레
##'100
여겨
##예쁘
##보너스
##표현이
Image
##경제성장률
재호
죄로
초등
##몰두
##실사
##어머니의
##돔
##따서
바키아
##문서를
##전액을
서류
토가
##[☞
통신에
##시민들
##이목을
극을
장성
정화
##거칠
##박물
##아쉽
##태워
센터로
##전병헌
##평가한
lus
vis
##'5
##무사히
##이낙연
라니
출신
##각별
##섬에
##3.6
##국제선
##기술력
##시중에
##이란의
##지방에서
##전통적으로
##노동개혁
##유의해야
##파산면책자
탄생
##팔린
##단계로
배추
##동요
자신의
##가입을
##공개하지
버스터미널
함대
119
##법규
##주가에
##발견하고
##외교통상부
##팔을
##언론인
##엘리트
##2017.05
구축
보살
터스
##열기로
##인물을
##여러분께
##정체성을
##시작한다고
루의
-50
##정우택
스튜디오
##기자는
##불가피할
##주거환경
##소말
##제출받은
SF
##충성
##가파른
##충실히
만건
세금
원유
측근
정치적
##함유된
##못했다는
라미
직장
##승무
##화석
##사흘째
##사망하고
소닉
##한솔
##구하기
##농업기술
##원활하게
##판촉
##전자책
##지사가
##향하고
##활주로
##시리즈를
듯한
##장충
##코코
##우려로
##조성할
##공약으로
##보고했다
물인
##메이지
데도
림은
직무
##구조적
##바뀌고
겠습니까
##마련한다
불가
쓰기
조판
##공화국의
##지속되는
##추가했다
##탈세
가들이
##시절부터
##중소기업을
남용
ata
##Bo
##창건
##드린다
업체들은
arset
##명확하게
##기내
텍사스
행사에
##진입을
##우려하는
##소비자들은
##계획도
##자매결
##장착한
움의
##''
##불발
가능한
##올라갈
신화
임원
하남
##사저
##수락
##제대
##폐암
이러한
##실태를
##해외여행
##발견되었다
body
##청와대에
혜영
~25
지자체
##다루고
comCopyright
릿수
##as
##나갔
##한진중공업
버전
##나고야
##비정상적인
김포
테스
##마곡
##파나
##대학과
##펼쳐진
내부
##사이에는
##일어나고
바나
레스트
행위가
##액티브
##건강기능식품
##개명
##산업용
가면
##여친
##KCC
##타이틀을
##선고받았다
##깊게
##접종
##한반도의
패널
##뒀다
##하나도
자리에서
##독거노인
##뛰어나다
##반발했다
##결의안
##급등했다
##깊이있는
##출시되었다
텔링
naeil
##대안으로
EL
개미
##클렌
##회견
##인스타그램
##우리나라에서
##모친
##액체
##역에서
##Kakao
쇄신
##늦춰
##도난
##며느
##선조
놓았다
##첫날인
##패러다임
##색소
##박지혜
Pa
WTI
##보성
##마리오
##산업혁
##먹어
##버튼을
##미만으로
##때만
##짧아
##116
##브로드
의혹
##서울시와
##통보했다
##뺨
수련
##크롬
령으로
(53)
##걸린다
##인정할
##인지도
##잇따른
##발전시켜
##-2
##밝혔다고
##시행한다고
높은
단순
철이
태풍
부한
##열정을
##협업을
##판문
##맞이해
##전월대비
냉키
앤드
요시
해방
##Sh
단지에
##함께한
##사라지고
##악성코드
##인정받은
##모음
##논란과
##투쟁을
##효과로
##공감대를
##대통령선거
##드라이버
##분위기는
덕수
주사
##밀가루
##서로를
##이슈를
##적절히
##못하였다
123
##눈여겨
##정책적
연구센터
세라
##매번
##왕조
##친이
##최태원
##그렇습니다
##배재
##재정비
정보시스템
공신
##도입할
##막걸리
##영역에서
##있는지를
mou
##햇빛
##선택이
##1933
##연구하는
##인센티브를
##명실
##개칭
##의구
당국에
##대표도
대우증권
##국제회의
##리더십을
TOM
##이복
버렸다
##공격이
##올리브
##1928
##확인하기
##지카
##117
##정동영
##것이어서
##통상임금
##깔려
재원
##시행에
##억류
##부적절
##정치의
##테니스
신약
##핵심인
##낮아졌다
##지역에는
감의
##낳고
##수순
##써서
##개방형
##업적을
##거론되고
과이
장군
##물은
운동의
하더니
##보도한
##개인정보보호
##바티
##연도
##알았다
##스리
결과는
##경로를
##창의적
##거래됐다
##전문인력
##씌
.02
##밥을
##수지
##스튜
##학기
##몰리는
##미끄러
##여유가
##하나씩
##쌍용자동차
##박명
실적이
##공모를
##노키아
##프로세서
상정
##빛이
##온몸
##운행이
##도착했다
##추종
lobal
##앞으로의
CT
함의
해인
##가이
##도요
맞춤형
##시행한
##아마도
##시사했다
창구
##Jo
##PF
##야권의
##접촉을
##무엇일까
##지원으로
##강남역
##최대주
시킨다는
##영화배우
더멘
##스타일리
##스타크래프트
공대
에프
##받도록
##소녀시대
##스스로를
공고
나카
##예뻐
특보
##수교
##것과는
##적십자
석유화학
##1924
##채택했다
다의
##탄산
##것에서
##쓰러져
##여객기
##재능을
##흘러나
년대부터
##배신
##빅뱅
##추위
##관리와
##안정성
단말
생각
##백혈
단지가
일레븐
##성장동
여만원을
##발견되지
##취재진의
##맺어
##훈훈
##법안은
##인허가
##표현할
##거주하고
스틸
재활
##도울
##자바
##의견은
##적용될
##패러디
##강화한다
##내비쳤다
색과
학은
(54)
##압구정
##이순신
마음
##좁혀
##행사다
##중국으로
브로드밴드
녀가
##에프
##거쳤다
##디자인은
브리지
하려다
##상승세
##잘못을
##연결기준
##참석자들은
##발열
##안개
정보화
##기사입니다
##직속
인데다
##배경에
##활성화와
>▶
이든
##00
##방송사
##새누리당과
태영
##내놨
##확인이
##블루투스
##경청
##길러
##노해
##모두의
##사실도
됨으로써
sm
##주자
페르
##불신
##영위
##오송
##밑으로
##일정은
##다산
##전광
##한약
##구하는
한경닷컴
진해
##소관
##노리는
##시멘트
혁신도시
##2017.06
##낳았다
##방대한
##현대상
##1934
##안전자산
배정
##구명
건설의
놀이를
##천정배
##당선인이
CG
심원
##따르
##콜로
##접한다
연구소의
##소통하는
##운전자가
##프랑스는
++
리사
연말
휴직
문제에
##임상시험
##총괄하는
##시니어
##이론을
부자
워진
##다투
##듣지
수익을
##내놓지
##전후로
##퇴진을
현에
##HS
##미드필
##보였던
##이용자의
##전기자동차
##중앙선거관리
EP
루살
##뜬다
##박시
##박은
날인
##이글
##흡입
다니며
##전적으로
내과
##이즈
신고를
##가능하다고
계선
.01
징어
##계룡
##도가
##박현
##비주류
##지적하고
##뉘
기동
벌을
##살이
##식이
##해요
##놓았다
##돌고래
##중시하는
##발표했습니다
##쑥
##관중
##장윤
상황이
##채용을
##최적화
해양수산
서초
죄를
##부시
##표류
##세미나를
##신용등급을
홀로
##버블
##정오
##토마스
##유발하는
##중요하지만
##건물로
##발전할
##법적으로
##성명에서
##의결했다
##전기요금
자주
정진
##결단
##벗고
##허니
##동국대
##유지를
##일반분양
##출혈
##마을에
##특징이
명이었다
##롯데호텔
##받아왔다
광명
##격상
##증가율은
##없었습니다
##반란을
##국민의당은
##SD
걸음을
업체로
##책임지는
##않고도
##한국방송
##집이
##부산을
##피어
##책이다
##불안감이
##예정이어서
##대역
##띄게
##거슬러
##관절염
##주제는
##하세요
방식으로
배의
##발길이
##씨에
##적잖
##총을
##토착
노조는
세까지
##선수의
##결정됐다
반에
아와
##극우
##버섯
##재일
##억압
##하트
프로야구
##일방적인
##불가피하다
보리
##얻지
##악수를
THAAD
KO
시설은
층에는
해피
##단연
##정홍원
##생산되는
##필로
##미국산
##하락에
금에
폴트
any
##실장
##3·1
##여당이
##□
##삼양
##신안
##심리가
##입주자
##직후인
##한국으로
sedaily
참가
힐링
##떼어
##남자의
##사장으로
##점유율이
##이걸
##6.25
##움직이고
라에
##생략
##안종
롯데월드
장례
##배틀
의정부
##강동구
##신고한
##아픔을
##개선하기
##서울시장이
##소비자물가
##틸
백과
##디스
##파장
##2,0
##외교적
##회사인
복구
수권
208
##환전
##경전철
##귀여운
##승리로
##정리한
##흐름에
댄스
더블
##분실
##안장
##축제는
##사무총장이
##기생
개선을
##개선할
##최저가
티가
##강해
##낭독
지원과
##키움증권
소아
160
##무안
##화를
모델을
##118
##강사로
##이르렀
##서울시립
##유지되고
##일찌감치
##폐지를
##공개한다
##추진한다고
##날려
객들이
일까지는
민생
##로컬
##산화
##3.8
##과거와
##그녀를
##추징금
##충주시
##아름다움을
##사다
테리아
##부르며
사유
루살렘
##바다로
(2010
히로
##다친
##알카
지역인
국회에서
##개발사업
저지
url
##시조
##심플
물량이
방으로
ica
##관철
##어둠
##제자
##하차
##불법으로
##연결합니다
치인
##사들인
##발표하면서
##height
동정
##세액
##이양
베이거
허가를
##합동으로
ye
살롱
##부산에
##승부를
##초래할
##표명했다
간호
대법
우려
##“3
##영천
세트를
##55%
##성장해
##채권을
##트랜스
##러시아와
##생각보다
##관계자들과
시황
##단골
##뒤덮
##삶이
##스무
##051
##검사가
##일부러
##조항을
제르
활성
asc
##하려는
##편안하게
난에
수신
##의무가
몰이
##장안
##정계
tock
##위기의
##폭력을
##국무회의
##옮기는
##추위가
##이루어진다
5'
FI
##묻고
##소속된
편은
해튼
##개찰
##폭등
##시각을
##활기를
인으로서
퍼레이션
##떠오르는
##평소보다
이수
##도메
##인준
##7~8
##지난해와
##윤영
##계속된
##산업부
##에피소드
##베이징에서
러의
무슨
장면
##연례
##무게가
##국민권익
##프리드리
##유키
##것일까
##풍경을
##구속했다
##contents
Lo
색된
타마
##후의
사회에
##원내대책
##후보자를
""","[
##변경되었다
모스
무진
##환호
##만족도가
##서울지역
nivers
##소외된
##불가리아
##국민건강보험
##초까지
미세먼지
##그랜저
##방과후
##이해하기
##전환하는
공작
인성
ply
##의문이
##기획재정
##보였습니다
소인
연기
##감리
##PER
##상품권을
머징
##낯선
(51)
(56)
##가지로
##인위
##추도
란한
카드의
##서울지방
레스테
손으로
##마련이
##주권
##사외이
##아내와
운동본부
##띤
러가
##CI
##분사
##크리
##행자
축제가
##그룹이
##알리바바
##컨설팅을
##일본에서는
##생선
##시에서
##질환을
##조회공시
##윤석
##결국은
해달라고
아울
창한
##간사인
##여건을
경력
##떠날
##아까
##가지를
##건수가
##스티커
##제작을
##이용자들의
_3
##삐
국무
##표적
코드를
##아프간
##적당한
##현지에
##성장세가
##중수
법인의
##일정에
##못했습니다
##센텀
##시작을
##블랙박스
##유수
##이공
##종의
##kim
##조정이
##무리하게
##캠페인은
##주요국
소프트웨어
봉투
우산
크와
타협
파주
가지를
##남다른
##신사업
##엄마가
##자유선진
##괌
구동
노는
예수
##법의
##기반한
##조용히
서기
푸스
##그늘
쳤으며
##규모인
##우리도
##충청권
##판결했다
법적
펭귄
##매직
##선에서
toggle
aw
격은
타나
##정모
##최모
##엇갈린
##장학생
##가할
""><
##거기서
##취득한
##기여하고
추위
##개미
##문정
##건설에
##올라와
##근린
##헝가
##나서서
##이광호
##해군의
비례
##가든
경제적
##떨어지
##유출된
##진성
##시작돼
##밝혀지지
##말과
웨이는
(57)
처로
##바그
가지수
##한국토지주택공사
##서태
##죄를
지도자
##지역별로는
생존
##분식
##국가들의
##미드필더
어느
칭은
suc
기념관
##보건소
##방위사업
코르
##보태
##자란
##호는
##신중하게
##해당된다
소생
##상여
버스가
브리프
##걸어서
##불리한
##취재진
##해경은
point
##츠
##마구
##송원영
##논의한다
##재미있게
##지나면서
실습
##역내
##임플
##결론이
##인터페이스
##野
##따돌
##사령관
##유산균
사절
현장을
전에서는
시장위원회
언어
##퍼즐
##안전과
##최고위
장수
마지막
바람이
했음을
##업무상
쓰는
##보병
##영상은
##지나고
##진출해
##서민금융
##kg
##태운
##특사
##편이
##노해섭
##본선에
##블라디미르
연방
##아래와
##활용될
##경쟁에서
##국내에서도
마킹
바오
##점쳐
##무더기
##번째는
##선순환
##전역에서
##격차를
##사고에
##작성해
##‘2013
##행정자치부
##맞붙
대표는
##22%
##You
##소설을
##판매된
.0%),
##났습니다
결승
##뒤따
##용서
카쿠
##새겨진
##생기면
##팬들의
##떴
갈등
##문장
##도덕적
판과
회찬
##정당이
##발행하는
트릭
황후
지구는
##가치와
##단계를
∼19
항공사
##반영할
##시술을
##시청자
##애정
##깔끔한
##참고로
##산부인과
##한마디로
##간절
##양천
##그리는
##분량의
##파업에
해수욕장
7691@
영남
##박형
##정직
했더니
##―
거는
마한
조원이
##후보들이
##손목
##인포
##인증샷
##국민들은
##미래에셋증권
##시행을
##역할은
##직원들과
##2017.01
류로
났는데
##라운드
##수요는
##location
##넣는
##늘린
매니저
쪽에서
현재의
##안건을
##판매해
##Comp
##변화하는
##없었다는
##임직원이
##두뇌
##새우
사고로
##시공사
##낀
##박창
현상이
##급부상
##보이기
##표했다
항공우주
##과태료를
##사전예약
##강화하기로
##번복
(48)
##순조롭게
##그려져
##낙폭을
##주에서
##효율성
개성공단
##좁아
##검토한
##스타디움
##온라인으로
##연휴를
##영화로
있습니다
##금융통화
(☎
##날은
(58)
##가지가
##국회법
##반발을
##이견이
##지수를
##강화해야
SYN
##외의
##기분이
##불안감을
나스
초교
##서북
건전성
##접근을
kj
곡으로
##김모씨
##목록이다
##그치
##성과는
Mon
##외관
##전폭
되기를
##도중에
##부분의
##양천구
##크리에
##증가율이
1'
벽에
조기
##원동
강경
고발
공포
##신현
##현저
##2.9
##독일과
##소비를
##토론토
##토론회에서
##BO
군에게
##돌려보
)’,
low
##산청
##박지성
##외부에
##남중국해
##멸종위기
##사업자가
##산업혁명
##자본주의
프터
##무언
대까지
퓰리즘
##부위를
##일간지
##구제역이
니에
##말기
주차장
##활동으로
인플루엔자
투기
##고고
##쇠퇴
...2
##나타낼
##이야기다
##전국경제인
##SL
##퀴즈
##집중호
##기본계획
##분양한다
CP
주소
##꽃이
##2∼3
##익숙한
Cache
));
##3.
##126
##공략을
##독일은
##슈퍼마켓
1·
문예
체결
##부설
타기
##절제
##영화에
##자동차의
##스커
##불과해
정상회의
보급
##용적
곡은
##매사
당하고
itch
##체결을
.2015
ength
화도
사회가
카드로
##천안시
##트레이드
강연
중립
표는
신문이
##언어를
두천
##삼청
##악기
##출사
(0.4
##학교와
"")[0
검은
##때를
##통일을
##보수적인
##않더라도
##역사교과서
곡의
무효
쳤지만
##남편의
##매장에
##상승세로
김상
##▶[
##법과
##아동학대
율과
##대를
##신은
##앱은
##선대위
##사용자들의
##공론
##도착해
##수사의
##창출에
##파장이
##판단이다
경영을
##가르쳐
##많았던
불황
##GPS
##확대가
##환경과
##현대차그룹
num
stop
##===
##매력이
##여야의
##자연의
금융그룹
##살인사건
##2017.02
호점
##양파
##CNS
##윤병세
##지방이
##공개하는
##생각이다
##탑재했다
##캡슐
호르몬
##과정의
09
것이
##금융사
##번호를
##차지해
##기원하는
ELS
off
##강소
##구자
##멜로
상하이
##WWE
프레시안
##이해관계
##찬양
##기관을
##다가가
Value
##개발도상
.</
##심폐
##양승
##수혜를
(32
##이웃을
##대통령직
Le
년새
##고개
##군을
##일리
##아니기
##단기간에
##쥬
복무
ray
##발동
##역의
##적재
##원장의
##Be
##쓰면
##""5
##대한항공은
질은
##안치
##제작에
##result
샤오
##문턱
##경쟁사
##전략은
##판매된다
고수
##옐런
##도저히
##선고한
##여중생
##상황으로
적이라고
##판매한다고
철의
##애도
##양형
##폐렴
##면접을
##발휘할
##체제가
##요트
##리눅
과정에
##그다지
##비율로
기법
집은
##기뻐
##하느
방지법
##실수로
##크기를
##할리우드
현을
##로렌
##비선
##카톡
호선의
##거리는
##표준화
##표창을
##설립되었다
##놈
포드
ady
##내연
##저의
##도약을
##발전의
##통폐합
부천
##낭만
##뚜껑
##성악
##나가기로
##돼지고기
##관람객들이
##CP
##교감
##배기
##뷔페
생명의
##가정에
##올라왔다
양식
##개업
##무색
##태화
##합병을
Player
시공
것으로
##뇌졸중
한국일보
##우즈베키스탄
(-2
##회색
농업기술
##선택했다
##스톤
유치원
##사흘간
##양재동
##현실에
품과
##경악
##링크
##배급
##ABC
##호흡을
##진출했다
##중학교이다
바위
##착안
##부산대
##지장이
##티베트
##복지부는
##가닥
##센터는
##공공기관의
##이산화탄소
##│├
##로마의
##영토를
##계획이며
고루
##될지
##일한
##16%
##압력이
##자작
메이트
전부터
인기기사
##분류된다
##이해하는
엘리
율도
##방침에
##차지했고
##민주노동당
##3.7
##선정을
##구속하고
##소비자를
설치
##번식
##아랫
##절충
##경력이
##기여를
##정면으로
하겠
##겪을
##산란
##펼치
리거나
시켰고
-74
##재혼
경제의
##단체의
##머리에
##범위가
##산림청
##직원들
##1929
##리스크가
##예비후보는
ene
##메리
##영서
##오인
지사와
##방안은
##오픈을
##1925
##한국과학기술
보시
전달
##마디
##느꼈다
##기술이다
##이별
##판다
글라스
##가구를
Topic
##조금이라도
##공존
##주면
##추이
##임의의
우정
ere
..."
##도전을
##동력을
##운동의
##운영한
##자체에
##클라우
##홈플러
##뭐가
##형식을
##핏
##갈색
##명인
##윤성
##바람직한
토스
##편견
##게스트
##판결에
]·
지혜
##창구
mouseo
mouseover
120
ork
##결합해
##품목을
##인내
##진격
##최고가
제일제당
##0.9%
##대설
##잃지
##인류의
##제도로
##축제가
##투자로
사관학교
##급격하게
##못했다고
계산
무엇
##링컨
특보가
##4.3
##부스를
##여수시
##어촌
##햇볕
##경쟁에
##넘어설
##생산에
##양측의
##천연기념
채가
ics
##입에
몬스터
##북한군
고도미사일
##프로젝트의
웨딩
##대승
##산모
##숙명
##121
##연말정산
##World
ise
##엿볼
아시안
##던졌다
##내다보고
ᆞ중
!..
##매개
##성탄
##열기
##웨일
##해줄
PLAY
##물의를
##선언을
##소개한
##언제든
공공기관
##1931
##안팎으로
##유가증권시장
-13
##괴물
산업체
##영국은
되더라도
##역설했다
운수
##싱어
##명의의
##대학수학
트럼
##넓게
##성도
델피아
(47)
##남편과
##상승해
##통해서도
##가평
수준을
##금융당국은
##김진표
##끝내고
##축산물
격호
##겪어
할머니
##전셋값
##항목을
##무라
##손잡
레전드
(49)
##전문성
##종합적인
각한
##최현
##용기를
##고객들은
##늙
##우익
##전시는
##관측된다
##동대문구
##보호하고
##부진으로
##주인공이
##AK
##시력
##웃고
회사와
##중에도
##요코하마
##임시국회
##단원고
##여당의
##폭행한
##사학
##스와
##옥천
디자
마로
수주
입법
##친정
##장애를
##만나세요
tabList
비뉴
용산
##이문
##가지게
##버전을
##사망자가
##줌
처의
##대정부질
기야
##안건
##사각지
구입
올라
##구한
##존속
##탈피
되므로
##유대인
##이스탄
##재정부
##넘어서는
##획기적인
년말
프에
∼10
##뛰는
##제명
개월을
##무너진
inter
뿌리
##차분
하는지
##구간의
##기여했다
##드래프트
##롯데호텔에서
##째
모습
저작
품은
##자처
##버렸다
##봉사단
##스테이
##우려해
(2011
##3.5%
##올라가는
##박광
##6·4
##토지를
##폭넓게
##전환했다
##바람직하지
릿지
마와
이라이
##KEB
##의장의
##확산에
##확대한다
##쯤
##바닥을
##통화를
지원사업
무료
씨티
##차례의
##담당한다
##경제협력개발기구
면세
필지
##운명
##전립
##Contents
우먼
##막혀
##반가
##가깝게
##국가들이
태훈
히기
##병을
##지뢰
##청각
##그렇기
##그리스도
##주목해야
##페이스북을
##여론조사에서
##트럼프의
##안전보장이
SKT
##돌봄
##조짐을
츠와
##유배
##진천
##나라에
##우수사례
9·
미용
##쫓아
리기도
##추가된
##증권방송오픈
##자수
레스테롤
##검찰총장
##금일
##업소
##골키퍼
##영화가
##비슷하게
##–
##스텔
비율을
land
##달러당
##레코드
##차지할
##투입된
##불은
##비어
##열병
##티저
##무너져
##아이티
##초등생
전단
##다닌
##이만
##가량을
##개념이
##건립을
##성수기
##정운찬
##관련하여
##좋겠습니다
기름
하임
해의
##받자
##원서
농어촌
##사표를
##오라클
##합격자
##과거에는
##뇌물수수
##법제사법
##하락세로
아슬
제시
(45)
Base
##동작을
##행사의
한국시간
##콘서트를
##항암면역
##갇혀
##문구
##예민
병원을
##증세를
##축제의
##다문화가족
RE
질로
커녕
##바짝
##검찰총
##느껴지는
##인사하고
##상사
조사는
##소녀상
##지원도
##줄어든다
랑드
##시외
주시면
##것이지만
facebook
프랑
##피를
이슬람
##맨해튼
##철학을
냈고
##개포
##어뢰
##메이커
##현실적인
##1)
##개화
##라이온
##브레이
##원래는
##출신이
##1923
##금융지주
##할머니는
##바삭
##적임
##칼리
금액이
자원을
##법률에
##행사할
##세계유산
인용
##풍요
제에서
##이례적인
##노릇
##조롱
왔으며
##문화유산
##기압
가이드
##양국간
##블리자
국수
십리
재현
참사
##수만
협상을
##아울렛
##펀드의
##히틀러
Off
##레알
문학상
캐나다
##근무한
##초반에
##확인됐습니다
mon
##만점
##가져온
##밤사이
##공무원들이
##경산
##다듬
공원에
##브뤼셀
줄기세포
##근처에서
승환
##의회의
##장모상
##논의하기
##천명
기관리
##min
##돌파한
##아이는
##녹화
##옌
.”(
##용량
##필기
재단과
##맥도날
##정책금융
##출시되는
##대대적으로
##군포
##니혼
##맡을
##흉기를
##각지에서
##흥미로운
타와
##있음
##면적이
##온도가
##밝히면서
##우려되는
초기
##극찬
##낮아진
##지사의
##패턴을
##막상
례로
림에
열의
##한대
스카이
##선관위
##피해자의
##단종
##딱딱
##오차
##최악
##플레
##명칭이
##시행한다
##국토해양부
맥을
##명성
##방제
##재수
피해를
##재구성
##전년동
##요청하는
##유상증자를
##스마트브리프
실제
리스크
##ISO
##톡톡히
##경제적인
##이에따라
##치명적인
##구비
##수협
법인을
시대를
##127
##박종일
##빠지는
##찌라시는
##유형문화재
##종북
선정
DIS
que
##소명
##인조
##잃게
국이다
##155
##세력의
##이유도
마을에서
##작용하고
##환경오염
)”
엔터
##신념
##사업화
##노동시장
use
##딸의
##일가
학부모
##나트륨
##생각한
##상승률을
북핵
시간여
##거리로
##스토리지
##연설에서
##보건복지부는
고추
로이드
##다하고
##분석에
##문제점이
##싶습니다
종합지수는
##글에
##부당하게
유명
OSPI
##166
##Sch
##기사가
##보내기
##선수들의
##휴대전화를
##넘겼다
##십자가
##중앙에
투자신탁
##때에도
##참고인
##두산중공업
##정책위의장
-18
##노려
정신을
제도는
##없음을
##관계자의
##엔지니어링
확보
##협의가
##선정하는
##전시회를
##사용하였다
범이
##모기
##미러
##호랑이
정보보호
##홍보대사
포가
##관계자와
##백과사전
##en
##고인의
##뜨겁다
##플래그십
##최소화하기
##갖지
##상자
##공기청
##감소하는
##높아진다
브는
ETF
##특임
##가상화
##공로로
##냄새가
##대신에
##없으나
##구도
##숫자가
##의사의
##이들에
##효율을
파괴
ven
##이륙
##이학
##일러스트
갈이
수인
##앞을
##읽기
##천체
##게임빌
##능력과
##사안에
##1.3%
##어우러져
##녹아
##주신
전에는
변화에
##4500
##대한민국은
마비
ulti
##연구와
일로부터
##부르기도
##일축했다
HS
칙을
##벽을
##사칭
##국가정보원
##우리나라를
##샀다
##상기
##스톡
##장애가
##고려하고
##사라진다
##씹
타고
##의대
##차는
##봤더니
##이사를
NC
래스카
##항공권
##도쿄에서
##효과적이다
##안드로이드폰
어려
##방정
##언니
##적의
##내놓는
##마리가
##아이템으로
##근원
##발암
##아저
추세츠
##가르치는
피자
(35
##져야
##한마당
##선착순으로
tw
##색을
##종속
##늦어도
##사연을
##자체의
##좋다는
##출시해
##흥미를
##서울시청
##추천한다
오면
##낸드
##저를
시하는
파울루
##카리스
##소득공제
연희
##내걸고
##모양이
##증강작용
##태스크포스
##ID
정에서
##종교적
운동연합
##국제유가
##불우
##CES
##유발할
##휴대폰을
혹한
##NC
##레바
##성찰
##신비
##머물렀
##손상을
##집계한
태백
##늦어
##설비를
##행동이
##일어난다
##전망됐다
##취지에서
돕기
입장
##최승
경제가
인구가
##추천한
##경제활성화
##상태입니다
##봉화
##높이의
##별개로
##세대의
##정치권이
녀를
등록금
##진단과
##일어나지
##현존하는
빔밥
형인
aid
##밝게
##정인
##나오기
##싸움을
##포기한
가중처벌
비엔날레
##가졌다고
lf
중고
##간신
##특수한
##1922
##섀
골든
공군
##방산
AA
병호
홍천
##업주
##추월
##당하는
##인체에
##펀더멘
##차지하며
숙이
##급히
주머니
##반대를
##장으로
찾아가는
##벤치마킹
##수상하였다
##파울
##고효율
##시도한
##주력할
##극복하기
##판매량을
책에
##실증
팰리스
##프라임
##공급한다
푸른
##환매
等學校
상태가
##지적한
국민연금
##금융당국
##임명했다
apping
##라스베이거
##알아보겠습니다
Bo
날이
방법을
##일각에선
##꿰
겼고
병철
전산
소득이
bile
##공장이
기업들의
##ta
##메릴
##무디
파운드
##눈앞에
##신생아
##참전용
##멧
##기흥
##영원히
##컬러의
나지
oom
##낙선
##예언
장에게
##자리로
##지자체의
젯밤
##고층
##고려하지
##스트리밍
실내
##필터
##끌어내
##레이스
##서명을
되었다는
enter
##알렉산드
##역사적인
##회의에서는
클라
##반찬
차례의
##소수의
##음악회
##전화번호
##하향조정
관리시스템
인턴
##ET
(000
##운동은
##전화로
##현저히
대한항공
##사업비를
전인
##벡터
MG
경상
##보르
##식재
##다니며
##수자원
##콘테스트
##수해
##달랐다
##변동이
##생산량
##소홀히
##시점을
##에이즈
##전략에
##제동
##중심을
##설을
##세울
단지는
실리콘
##노력으로
옥션
##대교
국장이
##국민대
##실종된
##1.2%
##124
##남학생
##선사한다
##위반으로
##추진키로
##킨텍
##몸무게
##현수막
##저감
지역이
##발의한
##CT
##띠고
##갖춰야
##직원과
##소말리아
##아이들과
교육지원청
success
교향
##우월
##전이
##외무성
Forma
##경제적으로
##우리나라에
##동명
##마사지
##방문하고
료와
파견
##믿는
##상근
클리닉
##베이커
##언론을
##프리드리히
##軍
##부진을
##가족들과
##금정
##평을
##넘으면
##상대식
##시민은
##조현아
##국민안전처
##연세대학교
##프로그램과
조정실
##공간의
##전시를
##점진적으로
군단
환을
##허술
##교육부가
##컴퓨터를
##하반기에는
DD
깊은
##섬을
##여덟
##광복절
위원장에
##지원금을
강이
브를
##다닐
장비를
정책이
##계좌를
##통보를
##활동과
##좋습니다
##김양
##산행
은행장
##뉴욕의
##전문가는
##방면
##신민
##양당
선진화
##평창동계올림픽
~▶
출동
uto
##높기
려다
하드
##권혁
##먹지
제거
초의
##가설
##이하인
##정체가
.2017
##밝혔지만
##토론회를
용기
ave
##두지
##강점을
##발굴하고
##아시안게임
ley
##닛산
##같다고
##상품과
##구입하는
##상장폐지
모듈
타당
흐름
##NO
##145
##원에서
##표정을
겼습니다
##예상치를
화이트
##체포된
##특종과
##사용자는
3’
##카트
스테르
##덧붙여
##간격으로
TT
영호
##단양
##수술이
##전력이
롤라이나
##성명서를
##해수욕장
도전
##농약
사고를
##MBA
##가동을
##개인적
##범국민
##금지하고
##소요되는
매직
크리
##안방
##잭슨
##차츰
금액의
인사를
케이드
##거두고
##뒤집어
##스마일
##국가보훈
##받았으나
##제시한다
영재
##만회
##한빛
##관행을
##다리가
##벗어날
##지급한
##환자와
배달
조회
##Sp
##소득을
##표현의
Reply
##시작했으며
ds
점수
##인격
이마트
##부모와
##쓰면서
##파악하는
##다자
##등록한
##상승하는
##벌어질
##산하기
##정당의
##충분하다
↑"
##칙
(03
##매운
##판단되는
.40
=='
##매경
)[1]
##동남권
##재탄생
조선비즈
아키
##내건
##염증
##오비
oung
##이름과
이었다는
##투자의견을
경호
팡이
##압둘
##""10
##나름대로
##생태계를
##트럼프가
점도
##쥐고
##면모를
색은
##검진
##군민
##독보
##벨라
##노력에
##디자인에
Handler
~29
##tts
##명나라
##사정을
##한은은
""));
##1926
##게재됐다
="")[1]
##oEvent
공개시장위원회
##ttsPlayer
delCommentByUser
닥터
계층을
성폭행
##내에서도
##이마트는
##스탠드에서도
##텔
번이
##없음
##해답
##상승폭이
PB
-35
##09
##히데
##132
##뛰어든
경쟁력을
##1921
##노력하는
##림
##레버
##벼슬
레이더
학교의
##조감도
##결정하고
##지원된다
##스모
##비판도
##없어도
##눈과
##유소년
##일겠다
##지리적
##토너먼트
위원장으로
##음모
##살균제
미콘
수송
위협
헬기
##주와
##공연과
##올린다
##해석을
##답변했다
##지지부진
stopDefault
##품은
카르타
##비롯된
##수치가
##어깨를
갔습니다
##1912
##시민사회단체
##여타
##가로수
##이대로
##화물차
,5
희룡
240
##안무
##여름에
##재료로
신장
카트
##수박
##콜백
##챌린지
##국세청은
##이스탄불
##중견기업
##엘리자베스
##참여하였다
적일
##발돋
웠고
의결
홍성
IPO
##시식
##무혐의
##아쿠아
##주가를
##국기
휴대폰
##시장도
##어쨌든
##예방할
##즐거움
enews
마치
##문명
##밝히며
동남
디다
##결함
##왕세
##거래량
##기부금
##발언으로
##낙후
진흥공단
##시범사업
##안타깝다
주공
준의
##주소를
##소비자물
BMW
##변론
재건축
##타이밍
##프랑스와
분해
족은
##la
보장형
∼7
제인
##생활이
##인원을
##한국일보
크스
clu
##개도
##공로
stit
##이주영
##중동호흡기증후군
향이
##사실로
본이
잔치
##내란
##21%
##긴밀히
##선교사
##여직원
내의
주의는
##사이가
##윤동주
##마음대로
##만드는데
##전까지는
상생
##가격과
##놓치지
##악순환
##처리에
##적용됐다
##현대차가
##입건했다고
암은
##폭주
##휠체
네이션
##모이는
##문구가
##확산될
##1.7%
경기가
태세를
##AFC
##군수는
##음악과
##제거하고
##자동차보험
##성당
##셀프
##입항
##종식
##백령도
##비트코
##피하는
부장검사
##미래부는
##param
골의
##짧게
명까지
##삼겹살
##적용돼
##퍼블리싱
망과
##유령
겠어요
기구인
##주민을
##나서기로
##민주당과
##목표주가는
##“4
##등에서는
##내몰
##상응
홍준표
보르기
##구축한
##산업은
##얼마든지
살해
율로
##CO
##건넸
##청라
##호반
연하게
##사이에서는
##중점적으로
기서
##원더
##혐오
##기프트
##정도이다
너의
##냉방
##먼지
##빌린
##싶지
듭니다
##도입에
##현대의
소추
sta
##송년
##언젠
##코디
##23%
##비즈니
##건강관리
##제기하고
##골고루
##노리고
##송전탑
##의사결
##식품의약품안전
##식탁
##일대의
##투자설명회
##깎아
##오가
유승민
##김해시
##복수의
##진주시
##스웨덴의
##블랙리스트
##검찰과
##명절을
##지향하는
##필라델피아
##뿜
로선
##총영
##형편
##세상이
##조금만
##특혜를
##압수수색을
Me
김현
온은
줄을
##개각
##사당
##어닝
##투약
부장은
##본다면
##지표가
##혼란이
##외환보유
##쿠웨이트
바의
손을
yon
##가출
##여인
##관악구
##전문가와
##무형
##출격
##포유
##박사가
##분노를
##저성장
##하는데요
특례
##알몸
##무너뜨
##헌법에
##배터리를
교대
jav
##나열
##해역
연구회
경기에서
##촉구한다
##만장일치로
오기
##똑같
##텐트
##서식하는
##이벤트로
경기장에서
##감소했다고
##스마트하게
##소프트웨어를
감소
특화
TPL
##고취
##내어
##Sta
##낮에는
##치렀다
월중
##고덕
##굳건
##컬렉
##수영장
##전통적
##줄었고
##1905
##성장률은
곳이다
필리핀
##1907
reaction
ome
##설날
##165
ender
##봇
##ho
##설이
##제한된
교장
비나
해보
lic
##공언
##천막
##탈취
##원리를
##이해와
##지적한다
베스트먼트
''
##객원
##스텝
##상승률이
##檢
차단
##떠넘
행복한
##경선에서
##섰다
##황정
게시판
##경희대
씨로
##65%
##개편을
##만화가
백신
벼락
작인
##송출
정의당
##교도소
##기획한
##코트라
##밤새
##싸워
##김관진
##생산자
##기록되어
##한국인터넷
맞은
최종
##포맷
##점포를
혁신센터
##전개하고
Mapping
)>
농구
다툼
풍의
##감추지
##무너지
##이동해
##지침을
##가수이다
##트럼프는
##호출되는
##팁
',"
##복직
##출토
eter
##격려했다
##달라진다
##못했지만
##부드럽게
##추천하는
비오
신대
품의
##내밀
##New
ok
해라
##VS
##생기고
""【
##노화
##산하에
##엔진이
##고려대학교
##민주주의를
##수년
그룹에
##기억이
##대화가
##전환할
##어린이를
##운전면허
##추진하겠다
linenews
워터
##위를
카카오스토리
얼리
뿐이다
이행
##방문은
##악화로
##의혹도
##교육감이
##구축했다
PLAYED
TOMAIN
DISPLAYED
미트
##보리
length
보트
##돌출
##키가
개월의
문화원
##그러던
##업종의
##일평균
##북한에서
splugin
력도
##돌고
##경제와
##역할도
##""20
##상황에서도
금감
##여자친구
]▲
##태광
##허벅
있었다
##많다고
##버냉키
##업종은
##후원금
##참여정부
##문예
하다며
##설립하고
일단
中學校
운전을
##공청회
##필두로
inner
##부합하는
##자율적으로
ontShow
welButton
sCookieKey
IfZeroCount
sTemplateType
oCookieStorage
TemplateMapping
addIsFirstClass
##네트
##유비
##한동
##OCI
##고품질
##도쿄도
##됐으면
너를
홈런
##자살을
umber
##고용지표
##수행한다
##올해에는
##책임지고
##관계자들을
관측
##“2
##금천
##삶은
##스탈
##어획
이탈리아
##가족들의
##기록했으며
##봄을
##하인
##공감을
##기관지
##시점이
##심리를
##전시된다
소울
출혈
##최후의
돌을
위탁
igh
##수뇌
##배치된
##어렵지
##정신이
##충돌이
##크기로
ascript
먹고
얏트
##아사
##회부
##관객을
##일했다
##주민은
##출판사
##되었다고
반전
##호가
교회의
나갔다
##길거리
##모임인
##안토니
##추세가
##고용창출
##EX
##산유
##색상
시설도
##초점이
##jh
##머리가
##도로교통
##세무조사
##손해보험
##일시적인
##있는데다
.80
##정자
##도시에
##사고와
##취하는
##경제뉴스
바스
임에
찾기
##국조
##마을에서
##중요하다는
NP
배송
헌정
##들러
##자연을
##방안으로
범죄가중처벌
element
##뱅
무안
-17
##묶여
##쇼트
##수니
##정호
(46)
##은행과
##알렉산더
##갤럭시탭
##콜백함수
년층
손이
##마실
##잠복
##펜실
##고소한
##사태는
##예고했다
이나마
시장으로
##르네상스
##스테이지
##할머니가
##포트폴리오를
경대
치오
##애틀
##유머
##장동
건전
기다
돌아
##기체
##죽자
시리아
##것이나
##결단을
##공개해
##기법을
##협의체
##있다면서
javascript
혜원
##돼서
사업체
...3
##당사자
##전반을
국회의원
##어린이날
##당부했습니다
야가
##김봉
##경향을
##법무부는
##활용하면
공원과
##1.4%
##이동하고
청래
##고질
##선명한
##김정은의
dd
##영재
##맞추고
##실천하는
##조사했다
수호
##어리
##자외
##울릉도
##개선되고
##영리
##주며
즈키
##바쁘
##튀어나
##김정은이
여당
해에
##이룩
##열차는
##1.1%
##기대되고
마사
웃음
작성
##배에
그리드
gain
##광고는
##서강대
##엇갈려
##챙기는
'-
##GT
##차고
폐기물
##성과급
##언론들은
##활약하고
##원내대표의
증권방송오픈
'?
다오
##틀어
주니어
##매니지
##모습과
##잘하는
본부에서
##1927
##국가인권
##부산저축은행
3·
##맏
대륙
명당
##박동
##감염병
##차량용
##도입하고
##폐쇄회로
,0
##동백
##불분
##공기를
##김성환
##아쉬운
##금융권에
##만들어낸
##입학사정
##대통령으로
재위
##프로세스
연령
째로
##송정
##앞다
마을을
정류
피의
##면서
##싶어요
##자택에서
##필수적인
##한시적으로
Ar
##이춘
##든든한
##역삼동
##운영이
##조건에
##공유하기
(04
##동종
##백두
##모습도
##한도를
##실태조사
경고
##각별히
##분양에
##행보에
##따뜻하게
##국회의원을
리타
현금
##쓰일
##증축
##흉기
##기억을
##대사를
##블랙홀
##아이슬
##선거관리
##취재했습니다
##투자자들에게
##z
##제소
검찰이
납니다
여건이
##KTB
##오대일
##거치면서
권역
패로
##왕실
##조준
##초창
##팽목
선관위
지수를
##과학자
##1908
##isLog
guideBase
guideBaseElement
식사
##앨런
##효자
됐다가
##향상된
##정신건강
리노
등으로
제품의
##기록하면서
##이유에서다
학에
##도발에
##참으로
대포
재단에
##유가가
##전월보다
##이루어지는
##비스
##아미
##햇살
##모아지고
##시장조사
##예의주시
##이용자는
##한국인의
학위
##거뒀
##옮겨져
##중저가
##예상됐다
##피트니스
##경사
##교두
##상큼
##잇몸
##교향곡
##향상과
##가상현실
한방
개국의
##카이스트
##트레이닝
역대
##AT
##확인해야
∼20
##Al
##장래
쿠르트
##전국을
##출시하고
차입
350
##대구의
수다
에너
연결
##소양
##진열
##6~7
##반영하고
##조선시대의
##세종문화회관
##촉구했습니다
##망가
##임관
##파이어
##분야에서는
##기초생활수급
##의회가
연구개발
##현대산업개발
##돌발
##처럼
도니아
##공개를
##은평구
애를
예탁
피트
##로펌
##망설
##주일
제조업
##배치를
##여론의
##의회는
##재판관
##한정판
##1,500
병사
##동국
##승합
##지옥
##개정된
##밝혀져
##소통과
##통계청
##후원을
##세상에서
각각
한우
~60
##‘4
##가옥
##문체부
##인하를
만도
cal
true
##밤에는
##우려의
##좋지만
##콜센터
Child
##상습적으로
개헌
효성
##최씨
##SPC
##갖추게
##기금을
##섹시한
##투자자의
메탈
보게
##연천
##존슨
##생명의
##지방선거에서
##작사
##턱없이
##스페이스
##딥
버튼
음력
진행
ism
개국이
##국공립
##그려진
##금속노조
##위치하며
바게
협의체
##의뢰해
##각광받고
##프랑스에서
증거
##숙련
##통합해
##광둥
##전가
##치우
##역동적인
##외제
마라톤
##대화의
##문구를
##신혼부부
##주민들과
##보금자리주택
##연방공개시장위원회
##중등
##영어를
##변경했다
##회장에게
눈길
민석
클레
##구치
##국면
0000
##당나라
##1917
##꼼꼼하게
##환경부는
딩을
##드나
##쪽이
##갔다가
##평가한다
려한
##건데
##남궁
##유고
##허물
##3·4
##달렸다
##친구를
총연합회
##바이러스가
혜경
##머릿
##승선
일본의
##선정할
##올레드
##요즘은
##쪽에서
##오늘날의
부여
섹시
##취미
##풀고
##기자와
##새벽에
##옆으로
##수사하고
##몹
생들이
##응하지
##육박하는
수목
##의총
##특산
##적자가
##피하고
##녹색성장
랑카
##경의
##입힌
##규모와
##밝혀야
##성향을
》(19
(2012
광복
광양
##BS
##실크
##특색
공원이
나가고
##보편적
##정착을
##1.6%
주곡
##오만
##이행을
##공격으로
##시민들과
##있으면서
인이자
##6.5
##모은다
##해소하고
##행복주택
상해
##김구
##아크
##청도
재단의
##좋았다
분야에서
##사업에서
##유리하다
드려
호쿠
장관이
##340
##구매를
##지목된
##코스피지수가
rop
관리가
동아리
##사회로
##이한구
##추기경
##농수산물
##총액
##후면
##노선에
##분야가
##화웨이
기보다는
##비밀번호
##지진으로
톤의
##이회
##퇴원
##팽창
##com
##구로구
##전문점
##부인하고
##콘텐츠가
##역임하였다
ls
프레스
(60)
##됐지만
##로그인
은혜
.60
ARK
총연맹
##중산층
##대검찰청
정차
##결의를
##마감한
##홈런을
##전일보다
)]
##둥근
##통진
##미네랄
##작용한
##철회를
##햄버거
##스타워즈
량진
~24
##시베리아
뜻한
비어
iel
##부안
공구
실록
오석
포도
##서진
##장세
왔다는
최고의
##국내로
##국가보안
관심
박상
히트
Tag
##내며
##상경
건에서
렸으나
부문은
##공개돼
##밑에서
##발돋움
##부근에
##들어있는
##오랜만에
##거는
##두달
##강당에서
##지지율은
##서비스하는
##놀란
##세척
##그치고
##끝나지
##제공한다고
돌프
천사
##윤치
##이우
##HMC
##나에게
##않았는데
##골절
##한남
roup
##33%
##청약을
차트
후에
nhn
##장맛
##절개
##하순
##전체회의
##추진되고
##구속했다고
대란
코니
뺑소니
요금을
##달러가
##실패를
##지정을
##생생하게
##삼는
##옆에서
##플러그
##확고히
##권고했다
##평생교육
##팍
츠를
##129
##For
##결실을
##전환이
##목조
##어휘
##준비할
##해수욕
##부드럽고
##크리스마
나주
상실
태현
파생
##의자
이었기
##4.0
##싸우는
##엄중한
##팔렸다
원지
sun
##제지
##호국
파이터
학교육
##교황은
##더해져
================
##꽁
담한
심장
회사로
##남자는
##내외의
##문화에
##밝혀진
##이용을
하자마자
##예루살렘
##확인하세요
적자
.70
##3.2
##런던에서
##크리스티
##세법
##편향
##분쟁이
##크라우드
게도
윤식
##이치
##비리를
##절감할
##활동의
##구청장은
##간선
##분출
##파병
건수는
는다고
시민의
##사례다
##인수에
만원짜리
빌리
##ro
##옥상
##정액
##가시화
##방법도
##성격의
##없애는
##바다에서
수렴
##마우
##전입
##간신히
##모시고
##보급형
##이력이
교수는
방향을
비용은
##출석한
포인트를
##한국거래소는
##비주얼
##크로아티아
보관
##관공
##첨부
##게임과
##누리고
##되돌려
##원료로
##소나기가
##벌이
##대관령
##결혼식을
##인명피해는
##내전
##품격
(44)
##올라간다
지청
합성
##구마
##배로
##병영
##정회
##매물이
##본점에서
아스
##고강도
##상업용
##성완종
기관에서
##결정으로
가상
##굵은
##면이
##분화
##풍자
제주도
중에는
##결합된
##급기야
##분들은
##여기저
##셀카
##셰프
##질서
축제는
##과감히
##분류되는
완주
##it
##밀린
##요소로
준영
중지
##독감
관리자
##서청원
##시설과
##자사고
##단행했다
##최고인민
카오는
##부진에
##실효성
##영예를
광호
송파
이식
하리
##마린
##조폭
시네마
##류현진
##보낸다
협의회를
##목소리로
##어려웠다
##크리스토
##현금으로
광수
##첨예
할만한
****
##133
,000201
##기획재정부는
spi
##닫기
##얼룩
##박영수
##사항이
##선발해
##차장은
##군청
##급등한
##생각된다
##의과대학
##평년보다
미션
##농경
##샴푸
##피곤
##엉덩이
##오프닝
##확장을
##시작하고
핵심
행선
##CM
##출항
광주시
이제는
(0.5
##목재
##입찰에
##카드로
스프레스
##인지도를
##단기적으로
작이
##단선
##대가를
##투표에
script
##종신
##브랜드는
##자동차부품
##구금
##발맞
##서천
##통틀
##먼바다
##바나나
##버스가
##제정을
##공급계약
##스토리를
재훈
##교량
##포화
라이터
피해가
##왔지만
##인도적
분열
양양
(36
##날씬
##시한
##99%
##감독과
##전년비
##진행돼
속이
##소실
##일깨
##탈레
##화랑
오페라
##다시는
억달러에
##딛
유키
일기
##누르면
style
산지
##검색어
##스마트폰이
모드
##이근
##교섭단체
##도전하는
##새정치연합은
해설
##더는
##마른
쓰레기
##권한이
##대상인
##일컫는
##취지에
##전원에게
##무주
##물과
##보장을
##은행은
##창출할
##쿠데타
##텍스트
##기대하는
##상점
금융지
테크윈
하기만
후보자
##영역에
##융복합
##필요해
젠테이션
##비판하고
화합
##엉뚱
name
##유지될
##이상일
##등에서도
홍철
##머니
동의안
하느라
##가리는
##연계된
##서부텍사스
mydaily
ty
##혀
부실
행진
는지에
명이나
억원은
##모습에
##자연과
##북아메리카
##윙
상자
세도
##an
##마오
##박원
##제반
##오르면
##이재현
##내년까지
##대응하고
##무상보육
##영장실질
##옵티머스
##요미우리
##이적하였다
PR
##+0
##억대
억유로
##발행을
##저마다
##테러를
전문기자
##대구광역시
가도
복권
복귀
##RO
재개발
##살았던
##아태
운동이
##가만히
##국내의
##자리는
##주호영
##직업을
##여성에게
##부는
##TPP
##제자리
##주위를
##준우승
##캐스터
##당선인의
##자영업자
##나비
교육은
부사장
##380
##변하는
categorization
발찌
살의
영주
확산
##비아
##서한
공직자
##뜨겁게
EE
테나
희상
##리모
협회의
시간으로
##선도하는
##내리겠습니다
air
##수위
##케네
연구소장
##무료상담
##있어서다
비선
사당
채는
##시아
오히려
##회담에서
절벽
주어
하죠
##택지
##한산
##부담은
##테크놀
##효과와
`,
두가
소음
##에듀
##시각도
##시대에는
##유통기한
##확대된다
놓는
발굴
##소총
##범위에서
##수도권과
##이루어지고
##±
서원
rom
##Li
##국빈
##세라
히어로
##24%
##대화록
##이득을
##존재가
남해
멘토
##국과
ower
##신뢰가
##내리면서
경매
##YG
##con
##후반기
##지금까지는
>☞
##돌이
##반출
##변함
##호재로
##노력해야
##원칙으로
##일각에서
밖의
진입
충주
btn
##발자
##이소
##발간한
##알아서
##시작했다고
##경질
##재앙
모델로
문제는
##공연장
##분쟁을
##찾아내
##앗
##순항
사업비
##기장군
##대주교
##양사는
##이통사
##원작으로
##헉
국어
님과
##마루
##한껏
##극복할
##매거진
##여자가
##통계를
부에서는
POINT
##되었는데
##주기적으로
인삼
##피겨
...5
##취지다
##재판에서
##사회적으로
##담을
##여성들
##입구에
크스바겐
##버전으로
##무엇보다도
##너머
##신병
##폭스
##삼성과
##연결돼
##한차례
##퍼레이드
##서울지방경찰청
건과
골목
식도
토벤
##순창
해수욕
(59)
##재산이
##정말로
##진술한
자동차의
환급
##진공
지원단
##방향과
##배경은
##영장을
##컨퍼런
##근무하고
근을
꼼수
평소
##-3
##내진
길에서
##간소화
##승리한
(2014
ervice
##긁
한글
utf
##놀랍
##볼보
##슈팅
기기를
영장을
##도로에
##보일러
##끼친
##눈빛
##콘솔
##현판
##고성군
##남녀노
##시도가
##2.6%
##과자
##구석
##악의
##코팅
조건을
##동국제
##무시한
##조계종
보건기구
고도미사일방어체계
##번주
##성서
##상대방
##인정해
##고조되고
기어
보험은
여년간
##생각도
호실
ICA
##밤을
##트루
지수도
##유세를
##승용차를
##업계에서
##항공우주
##방송통신위원회
미화
##덕수
##업무가
진상
##견지
##글과
##옥시
상블
피가
lor
##경선에
##실시되는
보복
에겐
촌동
##고난
##금방
##전전
##점프
##과정과
clude
##위해서라도
등산
##4.4
##맞추어
##이들과
##국정기획
act
##배부
기술이
분야에
##부산항
##혼자서
##몰리면서
##선출되었다
배기
분경
커버
##해독
##나만의
##책으로
억원까지
##치료하는
##도교육청은
니치
표로
##쉬는
증권사
(42)
attr
##박정호
하기까지
##경제민주
경제연구원
##베네수엘라
##필요합니다
##늪
맛을
중재
##번거
정상화
##내정자
##노력과
##리프트
##채택한
##도쿠가와
카미
패턴
펙트
##다룰
##이거
##일기
시의회
##실업률
보증기금
##근로자가
##예보했다
##지역발전
##프랑수아
##명소
##백수
아이템
##끔찍한
##출시됐다
체크
ush
##앞뒤
##커리
##근무를
##조윤선
##못한다는
##중소기업중앙
##뤼
심도
직이
##간직
##마인
해서도
##교사의
##계획대로
##과징금을
message
항쟁
기금을
오름
후원
(34
Head
##검사는
##부천시
##이머징
##장착된
##평가에
##공개된다
##추가경정
AX
매경
술은
##찔러
조직을
##의장을
##같고
##누나
##지켰다
##심폐소생
##이전까지
길로
##벽에
##스팸
##유실
##캐리
사회는
##김동철
##발사한
##임종룡
##참석을
방향으로
##출연한다
##금융위원회는
101
Mar
##에콰
피해자
하다면
##교황의
##임산부
##중입니다
##기자들에게
인공
틀을
alk
ier
##지날
##""6
##언급을
##대학생들이
08
이해
징역
형근
##최동
##끊임없는
무지
부음
##눈의
##제트
용품을
##동맹을
##불편이
##기간동안
##환자들의
##파열
##흥덕
의학과
(0.8
##다녀온
##방식과
##이슈로
병원으로
##참석하지
##특징으로
##금융당국이
라서
##수퍼
##옥외
기술과
하게도
##기회도
##상에서
##press
오다
##선구
##제수
##열기가
##키보드
##토막
##6.2
##죽이고
##메시지가
##투자하고
##거품
##시동
대출을
##입주를
##총회에서
##선거운동을
Elements
기호
마진
##공신
##위주
##편에
##호위
방송은
중국은
##뿌리를
/4
##비잔
##계약은
##엔진은
##쏟아지는
##시스템이다
##포로
##가량이
##결과와
##고위험
##댓글로
##해주고
일지
##사랑스
##중요성이
##지속하고
##시작했습니다
웍스
##안락
시설인
##악재가
create
##의원총회에서
##특별전
##경신했다
6'
교체
변의
##광물
##메타
법이다
##해군은
##대한민국이
##킨텍스에서
경관
동탄
##시비
##해협
대표가
~30%
##28%
##택시를
##시행된다
##서울시의회
##불균
##음악에
##올랐습니다
##중소기업청
##예정이었으나
유발
후배
##중력
자였던
##백두산
##선언하고
##제한하고
##한국수력
LO
##닐
용과
주파
##환기
휴게소
##난항을
##말라고
##종류가
권리
세제
이죠
∼30
니까요
##운전을
##유도할
##페이퍼
##행동으로
장구
##스타일로
##주변에는
##캐릭터가
##객관적으로
##펭귄
##날씨에
##모르게
고용노동
##웃돌았다
도라
여분
##앉은
##이니
##할인을
##현황과
##발견되는
##예산결산
##자리에는
##콜레스테롤
보선
##통역
##논의한
##사안이
##준결승
##1906
##수시모집
change
##추가적으로
01@
##예견
##예배
캠페인
##대학교의
##중심지로
##컨센서스
##상황이었다
##잠겨
박지원
##노회찬
##단장은
##바티칸
##조사와
##완료되면
##코레일은
##난징
##갖춰져
##건너가
##선박을
##주택시장
숙박
##발현
##오기
##유람
##영유권
##지혜를
##급속도로
##농촌진흥
꺼풀
암의
새마을
##비상장
##완성된
##전라도
##정보의
ByTag
##주민센터
ByTagName
getElements
createElement
공영
구멍
경찰이
##이씨가
##진출이
##2.8%
##중앙위원회
다발
역시
이라서
##대상의
##승객이
##노동자의
##만들어져
##사진으로
##위메이드
sa
구역을
##사회는
##4.5%
##성황리에
##시민들을
append
##1∼2
##NAV
##양일간
##운영과
##파악한
##당선자는
EV
##맡기
##시게
##회사와
##김시
##명도
##미팅
문제로
##기쁨을
##자라는
주의료원
##코스닥지수는
##콰
##선동
##응답자
##법정에서
비히
##밝고
##쏘아
##쓰촨
##188
##370
##여행사
##자문을
##절대로
##효과에
##휴가철
charset
##샹
법정
치사
rite
##도우미
##수익성을
##출판기념
##거머
##번갈
##적색
##최전
##대안이
##개념으로
##패키지를
집합
티움
스페인
여명과
##긴장을
##업계가
##오하이
appendChild
##몸과
##세정
##야후
운전자
##레시피
##발사를
##체제의
##최우수상
##회원으로
적금
lue
##JR
##sw
##기초로
##디도스
##벌금을
##실형을
##창출과
##농림축산식품부
임신
주관
##가도
##살림
##용접
##센터를
##이르게
##의료관광
##예술의전당
##유서
지구의
##불평등
##뾰
예프
중형
##공수
##길이의
##맞벌이
##손님이
##남양주시
##미래전략
##0.25%
##선보인다고
관세
##박차
더민주
mail
##공모가
##몰렸다
##붙였다
##테일러
##피부의
##기여하는
토르
##재위
##지바
##노출될
##손바닥
##스테인
##창업자
##의사소통
110
##자재
##제때
##찍는
kb
실세
한류
##한몫
##기능에
##부채를
##의료비
##조직에
테크노파크
요소
##꼽은
##존엄
##강남권
##맞추기
##방향이
##했다가
국제도시
어선
##양악
##논쟁이
##평가도
기관이다
##기관으로
##격차
##논산
##알라
병원의
##대선에
##환경의
##2100
##사용자들이
줌마
NLL
##05
##제과
##제도에
##극단적인
##자발적인
##원내대표를
sch
##?)
##격퇴
##한목
##강화될
##시네마
##오전까지
##완료했다
##예탁
##불쾌감을
##전국으로
##‘2012
##한나라당이
##랴
##점퍼
##발매한
시키면서
바야
타카
##내포
##바우
##성모
##가방을
##임의로
##상승률은
##예년보다
껑충
##성직
##저격
##인기다
##조정에
##활동도
##후폭풍
주식회사
##불합리한
##브라이언
개최
김민
음모
##버전은
##직장을
##무더기로
##적합하다
##달의
푸어스
##나와서
##바라본
##한민구
하나은행
##식용
##이나
당하는
`...
##정권에
##들어가면
자들로부터
##날에
남도의
층짜리
(61)
##걱정을
##마그네
##먹이를
##신상품
##온도를
##그동안의
##기술력과
##뉴미디어
##가이드라인을
##he
##시민을
##재조명
##저질렀
정유
##활기
rain
##마음은
##역할과
##토머스
##협력이
##추진해야
##농림수산식품
미수
아우
성매매
타당성
##말에는
##물러난
##보좌관
##용역을
대학에서
##이루어질
jy
##로얄
##수에
##맞이한
##서버를
##이세돌
##이씨의
##이해찬
##재가동
##평가할
##생각으로
##즉각적인
##겸손
##복역
학에서
##겨울을
##영업점
##파라다이스
3.
수화
##즈음
문화와
체적인
##obj
급등
##잠금
타워에서
##사용하며
##등으로부터
##정산
역량을
##850
##모양새다
##형사처벌
##급행
##쌀을
##제후
평가가
상으로는
츠가
##다들
##수배
##장터
대학은
##김태호
##당신이
##경기도가
##내세웠다
##아시아의
되길
시밀
##hy
원들은
##구청장
##명실상
##범죄에
##오픈한
##효율적
##상생협력
##팡
군도
노사
.99
hap
per
##넓고
머리를
사업인
##건강이
##민원이
##드러내고
##판시했다
##모습입니다
무니
##끊어
##성지
dice
##2.7%
##명예교수
##스펙트럼
와인
##적기
##차라리
##지지율을
##해역에서
냈다고
##개발사
##시설에
##당첨자는
##제주특별자치도
온의
타오
##공매
##금고
##미화
##반지
##엔저
운동가
##순이다
##아들은
##보였지만
##출연하는
##구해
##눈은
##물로
자영업
중에서
##경기의
##울산시는
##꿇
내면
중진
##기공
지역과
##노선의
##열리며
##최측근
지적
##제왕
uper
##유형의
##1.8%
##인정된다
##관계자들의
교동
나우
멀티
##남게
본부의
##MVP
##NFC
##WSJ
##도의원
##삿
공여
##묻혀
##도자기
##안았다
##찾아서
##순교
##투병
투명한
##144
##거래대
##완만한
##현실이
##지원하며
##어린이들에게
윤근
##청송
병원성
##마세요
##무분별한
##치러지는
##수상했다고
보름
##검증된
##귀금속
##대중의
##시험에
##진정성
##과감하게
##비판했습니다
##또래
##수와
##약국
##이홍
##늘리기
##수분을
##아래의
##예비군
시스템은
##한국소비자
망은
윤희
잘못
##군과
##안재
경제부
커니즘
##박세연
##신주인
##저비용
##콤팩트
##활동할
##있을까요
##형사소송
학이
##미처
##북유럽
##붙었다
##인정을
##추락한
##부과하는
##기고
자동차는
##자유선진당
+1
인척
##구입해
##코리아는
##10~20
사면
안녕
헤란
uck
##잡스
##하단
드레스
##리포터
##외부의
##용어를
##팔리는
범죄수사
##게시판에
##0%
##공휴
##당혹
##모발
##휴전
버스는
##드리는
##론스타
##포르쉐
##자아냈다
##둘은
##메일
##살릴
##월성
들이는
##개막식
##것이죠
중견기업
##상승하며
CF
기통
블러
치과
##묵묵
##문성
##다니엘
##전원을
##최연소
##공격하는
##유라시아
더러
청춘
##농심
##번영
모니터
슈타인
##은퇴한
##초음파
##아래에서
##AA
##이튿
##거론하며
##현대중공업은
제휴
##치르
##터진
##폭파
팀으로
##발판을
##통신이
##급락했다
DF
외부
##만세
##서영
##대처할
##뒤에서
##무기로
##생산해
##입장권
##컨설턴
##거부하는
##30~40
##내로
##부쩍
##개혁의
##그렸다
##낮부터
##라이언
##보수를
측정
후쿠
##것들
승무원
이코노미
##경제채널
)◇
갈비
일엔
토토
##던전
##레몬
##토요
병원이
한다며
##강도가
##이효리
##작용을
##정상은
##한국여성
##독자적으로
##아이슬란드
##야채
##동물의
##백운
줍니다
##독일이
##우려와
연구원의
##무의
개발에
이슈팀
##싱어송
##흔적을
##야스쿠니
##예산안을
##매사추세츠
석한
자금이
##함부로
##시장에서도
Al
문일
##변모
##불사
##안주
인지를
##돌아올
##획득할
##지방재정
구이
야는
##각막
##기업들
##분당을
##전략과
##추세에
##않던
##의성
##자서
##같지만
##글에서
##주말에
##하루를
##생생뉴스
##의사결정
##이와함께
##매니지먼트
두언
방역
브스
##회상
##20,
##VOD
##나오자
##예방하는
그가
텍의
티슈
##비축
##아틀
##펴낸
##단지가
##브렌트
##신산업
##진도군
과학수사
분기까지
##포함하면
##노동자들이
Be
UHD
work
##느끼지
##동유럽
##사이즈
##아파트로
##남아메리카
으러
##치닫
##아내의
##연기자
##우려는
##이견을
##본회의에
천년
---
##어필
##이보
그랜드
##상승했고
##수석비서관
명중
##처우
##캡쳐
여의도
##차량과
##개선됐다
##승용차가
##증가세가
장으로부터
##아파트에서
시내
야만
##겸직
##눈부
##짐을
##것이지
##시절의
##사유가
국민카드
##개인투자
##서울고법
계단
천을
##인연
##사장에
##시위에
##아이유
##한상균
##간단하게
바흐
lect
##모으는
##성공회
##원세훈
##잠재적
##지휘관
##조성사업
random
ps
파니
##미수습
##미친다
##황당한
##청구했다
순이
##공관
##본청
##이뤘
##대결을
##1.9%
##예정이었다
##매듭
##장로
##민원을
##솔로몬
##재취업
##정병국
##비슷하거나
양대
##섞인
##소유의
##시크릿
##유승관
##전립선
##키프로
##표면에
##금융정보
##초과하는
재미
##퇴장
##기업공개
##종목이다
동서
성주
##북적
호기자
##남성을
##미흡한
##발표와
##스포티
##음악의
##과정으로
##참가하고
##대책은
티모
##금성
##쪼개
기술의
소리가
alth
##KIA
##박재완
##연구의
##총장을
##영상으로
##요구되는
##중앙정부
##자원봉사자
귀촌
##박쥐
##주영
이라면서도
##남북정상회담
];
싱글
jin
##늦추
##메카
##정주
##화소
##가리키
##다이빙
##사회부
##어린이가
##초기부터
##대학수학능력시험
병기
##말의
##유난
##TOP
##결혼한
무대에서
##하나대투증권
,【
##쭉
나래
림과
합리
현악
##무르
##산을
(43)
##구체화
##단체로
##지급을
##허위로
close
##갤러리아
##피해자를
##숨졌습니다
슬기
인방
##우뚝
선까지
##모여서
##은행을
##한국계
##회의록
∼9
개다
##거침
##교외
##리퍼트
##오해를
##풀어야
##2200
##여성들은
##일렉트로
빨간
##간식
##이봉
worl
##부인이
##순서로
억여원을
트로이트
##응답했다
##현대그룹
##최고위원이
##아인
##장담
##소방방재
##선제적으로
##새정치민주연합은
경색
남에
자회
##미즈
##신세
##포크
##의도로
##잃어버린
series
##교육과정을
갑을
님께
대국
양산
하곤
##재야
##파동
##기리는
##친구들
디자이너
##연출했다
##유통업체
##전략공천
##지금보다
##콘셉트로
##택시기사
##지극
##통근
##등이었다
finance
언제
##입자
##포근
당이득
##PBR
##aid
##증가는
##2400
##출발하는
##핵심적인
##뉴스스탠드
요법
프팅
##양심
##하부
사항이
##내리지
##의식한
##출전한
##하락해
##경상수지
##전달보다
##광범위하게
##중소기업과
이성
##이긴
##가담한
##사라질
##사무국
##정유라
##한반도에
##일부에서는
##광화문광장에서
##선불
블록에
##전화가
##브라우저
##최저치를
##한국가스
오르
평형
##27%
##얘기도
##얻는다
##왕조의
기자회견
##내부적으로
##모건
##패스
##헬로
lock
##나아갈
##많아서
조사에서
##모색하는
##어색
들과는
##늘었다고
버려
축제를
##연출할
##자국의
##책에서
연구원에
##모멘텀이
##의심되는
Li
급이
외곽
(05
##아홉
시멘트
##가구에
##잡아라
##경영권을
##내에서는
##시행되는
##알려지고
##수요자들의
##국토해양부는
##만기가
##전국적인
##제작하는
##지켜보는
##게르
##동독
##반쯤
##성실히
##필요성
##희망이
경비안전
연합회는
##위해서도
금도
올로
테랑
##갖출
##버핏
##수변
##개발로
##수단이
##구조개혁
##주식형펀드
##파트너십을
##형을
##전반의
##제안에
##취향에
시스템이
##경진대회
##손질
##신곡
##웃는
세력이
##의회에
##파문이
##1904
##발생했을
##사무실에
##선양
##시마
##월등
##콩고
도로를
##기조가
##비판한
각이
나서
도우
영월
코트
헤드
(06
##FT
##전단
가스를
스트리
시스트
##각오를
##김해공항
##서울시교육청
다나
',(
##mo
##패딩
##펴고
처리를
##자신감
##제정된
출마
정관용
##시대적
시설공단
OK
경진
시브
여래
##삼은
##안랩
##초저
순위로
##프린터
##내놓는다
음주
전무
주문
EST
##건지
##구례
##모나
##인계
##태조
Link
##ISA
##못하다
##법원에서
##NAVER
##OK
##소원
##137
##제품들을
##금통
##관심도
##음악이
##성과연봉
##시국선언
##안전행정부
애틀
박대로
이티브
인원은
##애프터
##콩쿠르
arket
##청년들이
##POS
김지
만대로
##도입이
##자동차가
##쿤
오빠
##미나
##138
##규모도
구청장은
##누구보다
##금호아시아나
황제
##두터
##시키는
##양극화
##찍었다
##거래량이
##불리기도
##정리하고
##차단하는
##가장자리에
##비상대책위원회
네가
여신
##수축
##수주한
##지나가는
##중앙아시아
교육이
부회장
##군부대
##기업도
##불안을
##예술감독
##정기국회
##청소년들의
오케
중간
##강희
상공인
은행에
##연주를
##경영지원
##역사적으로
##원내대변인은
5.
탄의
포는
##국화
##더위
##애매
##미치고
##신격호
##오가며
##오리엔
##조건은
##올해보다
##괄
담이
마니
][[
##구조는
##비상이
##역부족
##보이기도
##예금보험
승부
열린
##변질
체육관
##건전성
##레바논
##엄격히
##변호사를
객을
맛이
해산
계획이
느냐는
연평도
아트센터
##부담해야
##텅
도비
박희
나이트
##420
##나서지
##당하고
##멤버로
##백승렬
##지방도
##준비해야
##해결책을
##의도적으로
월생
##속을
##뉴스는
##조치다
폈다
##제막
##모였다
##성과에
##행장은
개발연구원
_4
천리
##뒤흔
##강보합
##독립된
##버라이
##센터장은
##에너지가
##조정하는
##문화콘텐츠
##사탕
##신이
있으며
##그림이
##통틀어
기회
row
##마무
##연차
##조은
##유로화
##정권은
극단
토미
3.0
##혈중
원숭이
중심의
##3.9
##샐러드
##음식이
##정부세종청사
움에
##시간의
##최문순
##통과를
##했었다
##주식투자
이혼
##옷차
##푸는
여명에
##480
##전투가
##어렵지만
##주목받는
##체험하고
시사
행진을
##유학을
##지구를
##2.4%
##복선전철
##여성가족부
##입단하였다
##가금
##강석
##집주
mart
##접목한
##국가안전
아시안게임
확충
##장만
##편도
line
##관람할
##분포를
##아내를
##자극을
##재원을
##입력하면
##조사하는
##이코노미스트는
##대란
##더운
##트렁
해왔던
##136
##결승전
좌석
##관문
교직원
기구를
##일반에
##공부하는
##드러나는
##시교육청
##자기소개
##전년동월
##2017.1
단가
동일
##방패
##손익
##해치
패키지
##내려다
##부적합
##수출에
##청소년의
##경제자유구역
##박범
대학을
##다변화
##단속에
##면적의
∼2
가맹
##두개
##서열
##사라지는
##의원들과
##하이마트
ans
##리치
회담을
##사소한
##장치가
##공항에서
##제기하는
##참여하게
##마무리하고
LD
##주립
기준에
oggy
##관계자를
##관계자에
##종합대책
##조류인플루엔자
##문이
##290
##설명한
##통과시켰다
>'
기성
업종은
책임을
##기관장
##실수를
##오르내
##올리면
##일회성
##입주민
다를
##달여
##로빈
##시모
##사명을
##이상학
##이벤트와
##피지
##담당한
대통령의
##해결하고
##두어
##모하
##방중
##용지
##크라
저작권
##건축가
##지식과
##드라이빙
##일이었다
캐롤라이나
##롯데마트는
관람
##최명
##한마음
##외부에서
##네티즌들의
##시장에서의
##항소심에서
이브
핑크
##JW
##계통
##튜닝
교육에
되었기
시간대
##세트를
##지스타
##수준이었다
판결
##4.
##고른
##티몬
평가는
##bnt
##담당자
##약보합
##네티즌은
##결승전에서
##만들어내는
범을
##상계
##서적
그런데
##개인별
##내역을
##느낌의
##반대의
##식이다
##왈
성명
##밟고
##액정
##체조
나라를
행위로
##Cor
##총선에
분기에도
영업이익
##관람객이
##크리스탈
##포기하지
##포함되었다
살에
##건을
안정을
##본명은
##빠지지
##수행한
##싼타페
타인데이
##예약판매
##듀오
명이며
##175
##pst
##목사가
##부정부
##완화를
##마케팅에
##유도하고
##순매수했다
격인
교에
##강세가
##약세로
##브리핑룸에서
남은
미야
분당
주신
##송구
##수임
##후방
우스는
부두
재기
-14
##옹진
질환을
##달하고
##뒤이어
##생명과
##참여하여
##표시했다
##KOTRA
##IR
##서예
##전업
##현관
##레이블
##유럽에
##파나마
(2013
ane
##다져
가톨릭
기회를
쳤다는
##기득권
##김진태
##세대가
##유감을
##프로필
##슐
월엔
철원
ora
##서점
##설명이
##한국산
##대구에서
):
태경
##딛고
##애를
##연제
innerHTML
jw
차만
_'+
rama
##her
##다이묘
##수사관
className
분향
안양
표지
##맞추는
##특허청
##털어놨다
지니
##가쓰
##녹차
##제품도
시키는데
##0.00
##설비투자
실련
Img
##책에
:208
##대중화
##마닐라
##행위로
##국민행복
##이미지와
##힐스테이트
Ncl
##my
차르트
Nclk
##중앙당
##지배를
##침체로
##테라스
##oImg
##언급하지
##여름방학
##커피전문점
listAll
NclkHead
welLayer
listAllSection
welTabContainer
번은
##찍힌
현장에
2018
##맞는다
##요금은
##인수해
구조조정
##정기예금
##농협중앙회
=0
##강은
##쇼크
##응징
##이서
##과제는
##소환해
동진
##넘길
##학자
##갑상선
##강좌를
##무릎을
##문자로
##유성구
##홍보수석
리우스
##개정으로
##부동산을
##수학여행
##화학물질
론적
의약
쪽의
##Br
##고화질
##부산과
##정체는
##지내는
##추천했다
물품
체류
##구룡
##설사
##은은
대부분
##습관을
##시즌이
##주도의
##다음날인
##판단하는
##폐지하고
7'
인증을
##변수로
##Comm
##낮을
##도용
##오정
사업장
##[10
##상대를
##짠
버는
자위
집권
##김옥
##리터
##최민
gate
##현대로
##확보와
##동양증권
##칵
##빗방울
##재판이
##기업에서
##응원하는
##安
단다
달래
신성
약관
토시
##아레나
##출입국
BY
벙커
우병
##호화
복지관
본부와
##비무장
##금융거래
##눈높이에
As
개척
##쇠고
##광산구
##구분해
##스위트
##왔는데
##점검할
##코스타
##대표이사가
감면
##~)
##목에
##예방과
##조선인
##증진을
##축제로
##추가됐다
장현
##산둥
##ATM
##유익한
##자리한
.2014
##계획으로
##시급하다
##액면
##타원
##해준
##구성이
##기간제
##발대식
##신고리
worldi
##경합
##마당
##셔틀
##순례
북도의
##국가별
##오염수
##총동원
센터장은
##객관적인
없어
탐방
##am
##어민
##정현
##커브
##수록된
##시위대
##암호화
##요금제를
##그보다
##도왔다
##앨범은
##양측이
##초고층
시스템에
##데스크톱
##부당이득
##연구위원
##투자자가
XX
##탭
창규
##도산
##석좌
##소용
##안과
##책상
##척결
##현의
##내린다
##분석하는
##움직임은
##배경이
##원피스
##집중된
##구글플레이
디스플레이는
농축
북면
유형
준은
칠성
펀딩
(38
공간이
##구성할
##앞세운
##엔진과
##하락이
##파이낸셜뉴스를
bus
##미셸
##불행
##취하
##내외로
##돌풍을
##충격이
국립공원
─────
##관계자도
##반영되지
##비공개로
##부분적으로
##간과
##노무
##임영
##했어요
##네덜란드의
##젓
약이
##농도
##엣지
정치를
##공시를
##선임했다
꽃이
##무능
.""(
##곡으로
##상한제
##삼성카드
##있습니까
크로스
##김부겸
##방안과
##사유로
##일대는
##침입해
TSE
##감량
##선천
##차차
##칼을
##구조에
논문
##LP
##강민
##양수
원대의
##시기와
##엄마의
##초유의
##2300
##국회의장이
온천
##호의
금융권
모터스
illi
##NAS
##데에는
##만나다
##살아온
##없었기
##용어는
##입주가
##정상에
##해수부
비난
##고루
##자백
시험에
##공간은
##홍콩의
##람보르기
##외환위기
##제작했다
##등교
##보직
##공연에
##농성을
##받아서
##쓰이고
##전월세
든다
창이
##ne
##들썩
##울주
만주를
##430
##관여한
##넘어가
##다룬다
##받거나
##배당금
##배웠다
##스탠다드
##임시정부
##지역아동
해고
ric
##아슬
##폐사
##답변이
##대단지
##식재료
##온전한
##천연가스
##박사학위를
##국물
##자민
큐리티
(40)
##농도는
##트라이
헬스케어
##평생학습
하기보다는
##서울메트로
그럼
##각료
##이내의
##출입을
##02-7
##공급되는
##탄핵소추
##대표적으로
##조사됐습니다
급은
우트
##거장
##대화와
##인도분
##동기보다
##입주기업
##컬럼비아
##카탈
##바뀌어
##뺑소니
##열차를
##옮기고
##지시에
신용평가
##느껴진다
##체불
칭으로
##134
##1911
##자리잡은
##촛불집회
##삼성엔지니어링
전파
UAE
##군데
##봄이
##선형
##탔다
사거리
##단지로
##아르메
##일상을
##장기적
##폭행을
https
##등장하고
##완료하고
경계
##법관
##서원
가격을
##준다는
##안전행정
##정치권에
상업거래소
##노동자들의
아도
연비
Lab
##이토
특산물
##행사와
박물관은
산업진흥원
##서문
##의전
##캐논
##한승
공학부
##쇼케이
##요구한다
##고기를
##성능과
##있기도
##해달라
##리스크를
##희망한다
##click
##마무리했다
때로
##수족
##천둥
##19%
##국민들
##귀중한
##사상을
##신설해
##저자가
##통째로
##훈련은
##있었는지
##늘었습니다
트인
##외상
##지녔
공기업
ible
##모처럼
##예측했다
##하루만에
동구
##현주
##모델과
##수익금
##숫자를
##충격에
##트렌디
##트리플
##청문회를
##콘텐츠의
##인터넷으로
##서울광장에서
AF
락에
##수당
##소재한
직구
##방법과
##삼성에
##원희룡
##전시관
##워터파크
단협
##변한
##원두
경으로
##거세게
##미만인
##탄핵을
민족행위
##출구전략
##가능해진다
들썩
##놀랐다
##여자는
##키웠다
##""""
##이사회에서
졸업
타스
##08
##잃어
##정쟁
##존스
##피에
##해볼
##6.4
##협정을
##측에서는
미인
헤이
경제를
##교회를
##주석은
시키려는
,"(
##독성
##시로
##증평
##창시
처에서
##하늘이
##주민자치
##청년실업
##방침이라고
년만
리시
00)
ning
##강세다
##기록된
##방송국
하겠다며
##오하이오
##접수하면
##발생했다고
##131
##인사와
##특검은
##베네치아
여자대학교
과로
우치
##시킨
리데이
변화를
##성질을
##순위가
##업종별
##이지은
##클렌징
해야한다
##가능했다
##광안
##물동
##없는지
##유난히
상품으로
##거점으로
##실업률은
멘스
##가령
##자행
리니지
##더위를
##박주선
##상승과
##재배치
##평소에
##내려졌다
##섣
##상쇄
##울고
##보이게
##비판의
##이공계
게임즈는
##신한카드
##판단한다
피에
##울려
##초속
##초코
규모의
페스트
##아닌데
##향했다
image
##증가율을
스당
.90
성이다
##뽑혔다
##야구장
##원한다
##해소할
##확대된
##2021
##모티브로
##지도부의
##추정되고
##국제적으로
##조선민주주의인민공화국의
조용
한중
##교직
##벌이다
##부대를
##못하면서
##의미있는
격차
납부
밀양
다이라
리어트
방법은
##군사를
##다음이
##특성화고
##System
남편
당원
##짜고
##커서
##폭은
만원권
##무기한
##음악가
##가능해졌다
##컸던
동제약
##미지수다
##생산량이
##이전부터
'●
짬뽕
##파도
방안에
##감각을
##개인전
##그었다
House
##운용하는
Sh
명만
##치중
##턴어
가량의
##재계약
##계열사의
##내년에도
##타인에게
프랜차이즈
replace
백제
태희
Pro
##배구
대상자
2007
##대금을
##출전해
##2.3%
##출시하는
biz
##간염
##감귤
##연대를
##행태를
##활용을
##'500
##운영자금
##디스플레이를
="
bot
##조승
김영란
##공방을
##황제의
##휴게소
##파이낸셜타임스
##얀
경연
질에
##향기
##동반자
##목적에
##불안이
자원봉사
##금리인하
소문
인멸
지명
##실형
##날이다
##의식이
##펀드에
##한국도
##흩어져
(2016
##항공모함
리스는
항공기
##520
##HTC
##분양한
산업협회
##어머니를
##넓어
##위암
##견조한
##1896
##만들겠다는
##주인공으로
그의
히코
##공개될
##낙하산
##멈추지
쪽으로는
##물러났다
강과
배임
일명
##논설
##분단
##5.0
##임금이
##형사합의
심의위원회
##팥
상속
##까닭은
##렉서스
##맡았고
##여자친
##잡혔다
##현실로
##협회는
##국방부가
##도시가스
##확대하기로
김연
은퇴
일대
##라오
##코파
퍼블릭
##커진다
##투표가
niversity
SUV
##경축
##아비
##양방향
##없거나
##이전과
##플라자
사회에서
##국무위원
##취임했다
##포퓰리즘
제출
타니
##맥스
##못미
금액을
##선수와
##방문하여
보단
환의
##방탄
##트윗
느냐에
순이익
에이치
##악재로
##철도노조
##취업준비
ord
ᆞ경남
##보셨
##섹스
##지켜본
##평가와
##회복할
위원장인
평가에서
##that
##갑작스런
##내렸습니다
스펙
##위태
싸움을
##고도화
##안종범
##원숭이
##전자기
##촉각을
##건설하는
##이덕
##가구당
##양적완
##구성되며
##한미연합
화천
##파스
##프렌
지사장
##대표단
##매출도
##몰리고
##재개를
##발표되었다
##SO
##운임
도시에
##사진에
##서일본
##의도를
##일찍이
##자료로
##종합해
##가운데는
##가족에게
##급증하는
##받아들이고
나루
##성신
##의제
##조광
##26%
##sta
##노력한
##두꺼운
##받아온
##주제의
##가입자를
##순이익이
##시도했다
##은행에서
##은혜
##과거사
##타격이
확한
##NY
##끼는
은행을
##교과부
##트레일
##했는지
##설정하고
##롯데홈쇼핑
##국무회의에서
##고베
##백업
##가볍고
##청해진
##경제활동
##태양전지
##국무회의를
##크라이슬러
##‘2
##질량
ster
##교육비
##달부터
##대사가
##조절할
##취임식
투자의견
##진상규명
##신한은행은
레를
링턴
##리츠
##일진
##교황이
##기리기
##속에는
##주승용
센서
전교
즈마
##조그
##감정이
##사진전
##절반에
##핵안보
##완성했다
##불릴
##연희
##하의
화학은
##공고히
##네번째
##시인의
##안중근
##이들도
##장소는
##투입되는
##성공했다고
얼마
##로이
##서독
##치를
##국내선
##무주택
##예전에
##노력했다
##스트라이
##임명됐다
##구애
##당면
##비수기
##사안을
##유시민
##인상은
##제시해
##전해지고
NE
##난사
쏘나타
인들과
체제로
##연관이
##웃었다
민주통합
##시각으로
개시
흡연
##균일
##상수
##알짜
##가지의
##리눅스
##시선이
##쓰러진
##이루지
##인간을
.2013
##기대하기
##공격적으로
##행정구역이다
노바
부활
잡지
##We
##여운
##틈을
##극도로
##한번도
##행동은
##계속하고
광석
##위함
##긴장이
##항산화
##현재도
##흐르고
##거론되는
##스케이트
##프리미어리그
##료
이시
##발이
##빠뜨
##생후
##절친
##같아서
##인플루엔자
STX
##푸르
9900
##단어가
##변함이
##부모는
##주위에
##모니터링을
##애로사항을
##봉투
준기자
중국이
집으로
##권력의
##단거리
##모기지
##센터에서
##시간으로
##4,000
##아시아태평양
/3
석탑
##DC
##벽화
##알린
##풍선
##현급
##공장은
##베토벤
##주체가
##들어가고
##서울고등
##한편으로는
서명
열대
(37
##역에
##외로
##매체는
##원재료
##현대화
##지정되어
...""◆
Ne
육군
전신
let
##선이
##스릴
2500
##그룹을
##완료된
##원래의
새해
인자
##자긍
##형이
생으로
##적정한
##주문을
##파이널
##예산으로
##각본
##벗겨
##은닉
##전매
##힘쓰
기반을
##그다음
##내려와
생생뉴스
##오늘보다
##참가하였다
출시
##급등이
##덩달아
##무산됐다
거야
귀가
람쥐
##도정
##악몽
##형법
왔는데
##강점기
##점검해
##아들이다
##식품의약품안전처
##믹
부스
움은
전경
실장이
cafe
##있기에
##클라라
##헌법소
##사망자는
공부
수면
##스콧
##판례
##휴먼
역까지
raph
##다시금
##청담동
##러시아에
진압
##베팅
##불평
##절망
국가의
시간씩
##갈등과
##기네스
##논의에
##보이콧
##악화된
##섰
당초
##반갑
##유지한
##임시회
행사에서
##자부심을
##스토리텔링
과일
문일답
##두각을
##마리의
##부인과
##쏟아졌다
##해당되는
##Award
몸매
성실
##변해
##용품
##장악한
##포함될
통치
히드
##강이
##풋볼
거티브
금융은
법인은
##투입할
베이니아
##일이라고
육상
~80
##어쩌면
##음식은
##이용한다
##차별화를
강진
##시기의
onlinenews
차피
##저택
##채용할
우스의
##Mar
##거듭나
##새겨져
##지냈으며
렐라
##차용
##기록에
##하니까
##2.2%
##발표되는
##추진했다
##출시된다
##환상적인
##스마트폰에서
또한
번역
##박해
##실손
##우산
##장모
##향이
##개혁에
##새해를
##연이은
##요금이
##조정할
##자격증을
인도네시아
##전달했다고
##태아
기능이
##시설은
##재밌다
##접속해
##죽음의
##반복되는
##포스코건설
##발생했습니다
사나
천면
##나뭇
##보실
##왕립
##tvN
##갈등은
##막강한
##병원의
##규정했다
##시각장애
##외국인들이
국도
~28
##범인
##알았
##절벽
##해태
세대의
##살면서
##와인을
##기능으로
디드
##불려
##칼라
##캠코
##휴업
원부터
자로서의
##대량으로
##시상식은
바둑
단체는
##36%
레이드를
##달라지는
##불편함을
##어린이들의
앞줄
##소신
작이다
##4.7
##사장단
##인사로
##모색하고
##이사장을
날의
##2)
##꾸민
지원에
학교가
##누그러
##매물로
##자리하고
그루
중개사
##따르고
##말하기
##물가가
##악화될
##인정받
##입주는
##횡령한
##가공식품
##부자되는
##소셜미디어
LR
신수
정우
##면도
##토벌
##섬세한
##경찰에서
(38)
##Col
##듣는다
##미군의
##수집한
##연장을
##팔았다
##언제까지
##친구들이
##codice
트레
효가
##라마
스위스
##강하고
##저기압
##광주에서
##대북정책
##사무실은
##정책조정
##아이디어가
##교육과학기술부
반값
##참치
시스는
##man
##기름을
##있나요
##대한적십자사
##고인
##랴오
##보정
##진수
##함평
##상세히
##입주한
##네이버는
출소
##정품
##털이
속도가
##개성을
##아이오
##취했다
##부족하다는
##차지하였다
진우
##됐을
##전투에
##후반에
##독립적인
##악수하고
##받아들였다
jk
단한
도리
모아
무한
복이
행렬
##은신
##추워
##친근
록에
밥을
의정
전입
##부두
##우드
##API
##귀국한
##세대를
##이동식
강수확률
##그들에게
##예방하고
##중단됐다
##로보
##리딩
##사귀
##삼계
##신설된
##양도세
##논란으로
##수여하는
##지적하며
기일
##달인
##집은
##일었다
##직격탄을
∼1
##안나
##한샘
##되었을
##세일즈
##필요성에
락의
테면
##국보
##섬세
##카디
##풍력
##구상을
##코넥스
##대기업에
##최규
시위를
hoon
##일들이
계에서는
정책연구원
예진
칸센
커플
##백지화
##보행자
##자금은
##조선왕
##집회에
##카메라에
했죠
##빌리
##종묘
##충칭
하경민
##여부도
##중순부터
짓는
탄도
lex
##황해
##경우엔
셈부르크
##2.1%
##높습니다
##프로젝트가
##외치며
##요인을
##착용한
니처
##각급
##모태
##뉴스진
##비차익
##요구해
##불안정한
##알려준다
리콥
원가
##대인
##손이
스트림
##무관한
##세리에
##자유와
##사건이다
##서울시에
yonhap
##정책위의장은
란은
씩을
ond
칼텍스
##사업인
##컴퍼니
##촘
경화
##떴다
##보탬
##스몰
##고의로
##공방이
##미세한
##상처가
##개최됐다
##동기대비
##취급하는
##(1
##명과
##양사
##왕성
##증기
##남편을
##내려앉
##합치면
##경기침체
##나선다고
##펀더멘털
근이
시드
##당에
##여파
##연습을
##페인트
##대상자는
##청소년을
##이스라엘의
횡성
##오피
스테이
##노란색
기아차는
##국제학술
##폴크스바겐
##한나라당의
가던
사적
지스
목표가
##논의될
도서관은
##건강하고
##나섰지만
##상승폭을
##위원으로
##두드러졌다
##마취
##불명
들에겐
지원이
##개념은
##부진이
##안정원
##육성에
##데뷔했다
ETPOINT
일시
진희
##최인
기자단
다이어
아트홀
##명예의
##평했다
여명으로
##KOSPI
초로
피플
##펜션
대상을
##놀라게
##현명한
##가져왔다
##시민에게
##찾아오는
ny
레라
생계
인출
지붕
키움
##기침
##촉매
##38%
##감소해
##권역별
##전쟁은
사이언스
##위험성이
##남쪽으로는
##최초기준가격의
엔드
##아들과
##준비된
목사
임시
##라파
##문책
##재심
##권위를
##단계별
##생활의
##차관이
##거짓말을
노프
시기를
(35)
##5.8
##법적인
##불완전
##할인해
더욱
연동
카타
##관례
##이브
##행운
자세한
##우수상
##키우기
##투자심
##기소했다
##어린이들을
##생산과
##예산의
##1909
##이메일을
##있어서도
약의
필수
##발각
##이데
비타민
재산권
##사용에
##소개된
##협력할
##서민들의
##진행중인
##바에
##섬식
사항에
##같은해
##계속할
##인턴십
##합의로
재테크를
##한국교육
부르
ute
##안구
##임성
##변화로
##HSBC
##일부개정
마산
##구슬
##불응
##고병원성
육아
##도자
##슬퍼
##희소
##자세가
##진입할
##표명한
3010-
##발표된다
##손꼽히는
##줄었지만
##황금연휴
##고압
##합천
마리의
##논의는
##논쟁을
##삭제한
##살리고
데스리가
##건강검진
##기록했던
##미쓰비시
##지방정부
목동
법인이
##주제가
##화상을
클러스터
주심
MEX
##단기간
##포괄적
킬로미터
협의회가
##가입자는
##창출하는
원조
##상단
##올리며
##제주의
##혁신의
##고객센터
##당선됐다
##진지하게
##진출하는
##싱어송라이터
율의
##말미
##최은
##패권
제국의
##5]▶
##상암동
##신라면
##연준의
##운명을
##가입하는
##일교차가
##처녀
##트라
국방부
번지에
##고문은
##농작물
##대단한
##착색된
##안전점검
전대
##과격
##고용을
##담당할
##걸림돌이
##현상으로
##바이오시밀
양과
##산후
##체내
국민이
##1·4
##치르는
##제외된다
건수
누엘
항목
##열띤
##장녀
만하게
##전문가인
##디트로이트
결한
MCA
##극대
##섞여
##신체적
##완료할
경향신문
##우호적인
##인권침해
##인사들의
경인
살균
슈머
WHO
##up
##무성
과제를
운드를
Full
##바꾸어
##선물은
##코스를
##상당부분
##스테이크
##전화통화
칼라
##권총
##돌을
##자활
지방은
open
##PMI
##장군의
원포인트
##나간다는
##어린이와
복수
신인
식품을
##Car
##우승한
영향평가
세관
##석권
##죽인
##편을
ames
##분석과
##선고를
##투표에서
LCD
...`
##관하여
##금액의
##상당을
##외치는
##추위에
##제품들이
##마케도니아
시카
일께
##천장
##여당은
##인민군
##조희연
##학교로
##조절하는
##공유하세요
기억
##간혹
##명분
##선회
##통관
##피격
가량을
관리법
조선의
##농사를
##도시바
##에어부산
##한창이다
읽기
##굳은
##신천
환경에
##가디언
##나눔의
##레이디
##마을이
##인사에
##하노이
##제기되는
##현금배당
##플레이스테이션
vs
신정
보호법
(0.6
##노량진
##맞이하는
##투표율이
##onclick
##방울
##서킷
##손보
##오션
##일감
진다는
##수니파
##회원을
##시원하게
##대한상공회의소
무는
치유
##불태
##속이
##양상
##온난
##4.6
##동두천
##래미안
##사업가
##일부로
##제너럴
##조성될
##파스타
식당에서
##감소세를
##헤드라인
##받아들여지지
##전압
##(03
##방문이
##스스로의
##주도했다
##서부텍사스산
가명
것을
##레코
##발칵
##쓰게
##구멍이
##원인과
##형성돼
##""19
##기획했다
##볼리비아
NI
알뜰
측과
##+=
##임실
##밴쿠버
##애틀랜
##달성하기
##비해서는
clickcr
##입력해주세요
마쓰
>';
\')
out
##라트
##묻어
##브랜
##쇄도
##수탁
지원금
+'""
##조례안
##죽음에
=""'+
##단일화를
붉은
##배드
##세월
##제프
##선택은
##소화기
##필요에
종금증권
##기존에는
##홍보하고
나간
먼은
어택
올림
bet
##되게
##처해
규모를
##별명을
##북쪽에
##생계를
##지경부
##3.1%
##서쪽으로는
##법학전문대학원
무네
##숭실
##이언
##양식을
##대해서만
##분명하다
기념관에서
##주도적으로
##원수
##유착
##37%
##그림자
##꼽히고
##다단계
##구속됐다
##종목으로
##파악하기
구르
방침
##GO
##시ᆞ
(34)
##디폴트
##사계절
##살아야
##주주가
##중금속
절이
##내역
##의욕
##부처의
##전환해
##2700
##육아휴직
##있으니까
##정규직으로
불명
포의
##때인
##연하
에이지
##139
##낮아질
##아이언
##연관된
##저널리
##순매도했다
CH
풍속
##봉하
##스냅
##왔고
##쳐다
##학회
##32%
##대나무
##방송의
##법정에
##평택시
##늘었지만
##롯데캐슬
##성관계를
##이듬해인
##주식자산은
Sp
넥슨
장사
##이국
미국은
구역으로
##누구에게
##성추행한
##일주일에
##정치개혁
##증시에서
##추산된다
종환
평동
포와
##꾸미
##장시
##대장암
##북한산
##주지사
##관련해선
##사용하던
##동쪽으로는
##측면에서는
국사
백의
세균
..‘
##맞출
##엉덩
##일컬
##고객에
만큼이나
##help
##리그에서
##선임됐다
##유일하다
##찾아보기
##페이지를
'...""
생명이
진으로
##레이어
##성향이
##의심을
블레이드
오브레전드
##인터넷에서
##GE
##IM
##구내
##마블
리테일
##내에는
##발주한
##변하지
##불규칙
##출시에
##취하지
##생산라인
##하드디스크
강변
분권
##관저
##못지
##방조
예정자
##감소를
##노력은
##사항에
(0059
##가족들을
##주어지는
설은
##수명
세력의
##격렬한
##영남권
##직원에게
고위
way
##어둡
##활력
##강북구
##대형주
스페이스
##한국국제
제프
##中企
##말아
##뻗어
##줄기
석에서
##농업인
##장점은
##연구기관
##이미지로
브루
윤석
att
##계량
##이방
##해보
블로그
재판소
##갈등의
##그만두
##김정훈
##증권거래
##셰일
##오존
##SSD
##개념의
##개정에
##오징어
##정청래
##자회사로
##제도개선
##하락했고
변조
##병이
##해인
##2025
##무관하게
##오픈했다
##운전자의
##측정하는
##공동대표는
광물
시크
혈증
##걸러
##기인
받아야
##154
##번째다
##법인을
##부대변
##어젯밤
##이야기도
##하락하는
경로
등과
반기문
##개발의
##은퇴를
##전통문화
형환
알라룸
##광고가
##군산시
##신규로
##국정원의
##최대치를
dt
해제
힘을
##My
##팀에
혐의로
(41)
규명
##원본
##이채
##태그
대금을
사례를
##단점을
##찾아라
##후보도
년대에는
##내렸다고
##센텀시티
##체험하는
##조심스럽게
##2015.10
##김춘
##도운
##박한
##짝퉁
##쿠팡
##회귀
수출입
##레전드
##본사는
##구분된다
##자동차와
##오피스텔은
3-
##퀵
산리
주총
##극한
바게뜨
##나로호
##몸으로
##무게는
##기아차의
##동종목에
##기타리스트
##샬
요인
##절상
교수가
##상태의
##기념하기
##싱크탱크
업계에서는
시나
txt
##향수
지지만
##가격제한
##부분으로
##존재하고
##후임으로
##청문회에서
서면
IBK
셧다운
##들면서
##사기를
##지명을
장례식장
##Drama
억제
트론
##로밍
자니아
최경환
Sele
씨로부터
##드라마이다
추럴
##적시
##정월
##진작
국회가
osen
##싶다고
##방문한다
##소비자는
##시달리는
갤러
##발상
미국이
##근처의
##코란도
헬로비전
uy
견이
공기
소위
##유공
##자를
##하룻
##없으니
##대표이사를
OA
##방미
##역이
단일화
이노텍
##노래는
##불균형
##렌탈
##솟아
##적폐
상담을
##곤두세
##스탠딩
##업무는
##인수가
옵티머스
##은행들은
##기준으로는
게티
려서
주연
금감원
Page
##사과와
##시점은
##포지션
##형태는
##공급과잉
##사업부문
##숙성
닷컴은
활동과
##서병수
##슬로건
##직무를
##카이로
##한중일
코리아의
##주가연계
##위례신도시
GF
af
독재
많이
##범주
##성씨
병원과
보험에
할수록
##상태인
##재단은
##철학과
시켜주는
##공무원을
##증권사의
마드
##글자
##특권
마을은
##정보에
##통신비
##의회에서
##판매했다
##구속영장이
##세계보건기구
3@
##위문
##종영
##접근성
민주당은
##여론조사를
겼던
##숙청
협정을
##개인용
##부문이
##교육지원
##올라섰다
덕션
수집
티어
하모
ale
##궁중
##박효
##141
##김종훈
##대기오염
##문화재청
##중단했다
##최고경영
##항공기를
동시
철은
##씻어
##남편은
##드물게
만원이며
##현대상선
##강조하면서
누구
레의
삭한
인형
##정장
##하반
계약서
방송의
배당을
작전을
##부끄럽
##의상을
reat
##선거의
##품목은
##관측이다
##마무리할
##자동변속
##포인트는
브리핑에서
시장에서는
##152
##금천구
##FTSE
##가파르게
##유지해야
##은행들의
##위원장으로
드기
##물밑
##죽는
##피크
##학점
##휘트
화되어
##단체인
##추가한
##해결될
Country
났기
숭아
750
##세모
##조병
##참패
##하프
보증금
펀드를
플래시
##순자산
##자본금
##재정을
##그룹으로
##귀속
##남쪽에
##스파크
##연달아
##MARK
##선정한다
##카페베네
값에
르자
미소
##계약에
##안내를
##장영은
##페르난
##격려하고
##한화그룹
Number
세나
##강탈
##교란
##리이다
##스님은
##청구한
##시도하고
##운영하면서
현과
∼12
##다방
##방언
##사랑이
##상승은
##추정치
##코드를
##연구하고
##임플란트
서운
통한
##개발은
##엘리엇
##달라졌다
##도시개발
##에콰도르
##연결된다
유성
##kk
대상이
chno
##발생을
##스폰서
##퇴행성
##매출액의
##한국문화
확장
PER
##겪게
##대칭
##복부
##부호
##짧고
bind
##신뢰할
##앞다퉈
##피고인
##해서는
(-0.0
##나우뉴스
##드러내는
##떨어지면
##자연스레
##컨트롤타워
##더샵
##삼촌
##하려
##호프
에게만
##비중도
##상품인
##에센스
##호텔을
##날카로운
##상대방의
##채권단은
##게시판에는
더를
##삼일
##연어
##태종
있다는
차전지
##HOT
##공동의
##급여를
##대표들이
##선택하면
##세븐일레븐
원내
한번
##담양
륜구동
jung
##경남기업
##쏟아지고
##타이틀곡
##이루어지지
천대
##거실
##막힌
##지부
아울렛
위까지
##153
##가보니
##기술인
##신동주
##영국이
##정해져
##베트남의
##브랜드와
##수도권의
##기념사진을
##우리은행은
##최우선으로
런스
여진
월물
환이
##꿈의
365+
ated
##교회가
##설악산
##작성된
##주제에
##효력을
static
##선고했다고
원도
이유
택배
##감탄
##지성
##국정을
##선박의
##정교한
##비대위원장
##수도권에서
발광다이오드
자립
bnt
flo
##배타
##스핀
##오신
##남성과
##주문이
(2015
##감소했고
사설
커버그
형이다
##궁금할
##업종에
##터무니
##광주시는
##데이비스
신학
##밀고
##봉합
##새삼
살리기
수에서
장과의
##접어든
서비스는
##그것이다
##앞장서고
##통과했다
##한국해양
##부문에서는
##연합뉴스와의
복의
질까
##JY
##딸과
##저금
##지탱
##개정해
##삼청동
##어느새
##마련이다
##질의응답
##갖기
##진통
냉장고
세에서
##거리의
##섬으로
##센카쿠
##파견해
##상황에서는
바타
선발
시인
##광진
##웃돈
##지킨
차원의
##4.2
##머무는
##미시간
##숫자는
##원하지
##검토하는
##현실이다
빌라
정읍
으라고
##가구는
##맡았으며
##성매매를
##신속하고
##참석하기
##고등학교이다
##▼
작의
탑을
##옮길
##유혈
장학금
##던지는
##내일부터
##기념식에서
##PK
##반감
##뾰족
##줄은
정보원
(33)
##관계의
##주위의
ution
##그런데도
##나가사키
##수도권에
##시도하는
##엄격하게
##펜실베이니아
가짜
보령
상표
ico
##안마
캐피털
##1913
##어머니와
/1
ja
너가
Pre
사항은
##감소에
##구조와
##인간은
##일가의
##전후해
##해소될
##발표하며
##정기적인
사무소에서
렉시
선전
태세
030
##공명
##잦아
##투숙
년도에
##명칭으로
##사용해야
Domain
##김성태
##내면서
##만들어서
VC
심포
취임
##농지
##북경
##이주민
##확정할
순환도로
##인천시는
##집중하는
##것만으로도
ium
##남친
##법은
##유화
발표를
##노사가
##높인다
##리버풀
##수사와
##승자는
ontro
##1895
BW
##NGO
##김성수
##따른다
##떠난다
##무장한
##근로시간
##자카르타
##정보공개
##KO
위기를
##소비재
##저탄소
##해양플랜트
일치
차선
현행
##미끼
기본법
##Day
##시신은
지방기상
##치열하게
##삼성전자에
lt
##때다
##뜨는
##비를
##김씨를
##만나서
2,000
##교과서를
##궁금증을
##부회장을
##여성들을
##뉴욕타임스
##만들어진다
천이
##깊어
##끼워
##점성
##오류가
##일가족
##성장동력
##확산되는
고백
엔젤
##맞닿
음악회
차례나
##같다는
##개막한
##성과로
##함량이
##들었습니다
.”-
AFP
##끊은
##당헌
철도의
##기온을
##대타협
##덕수궁
##수주를
##정도면
인베스트먼트
##금융감독원에
때는
##베니
##안행
##연꽃
##타개
희기자
##일하던
##준비돼
##사전등록
##확대되는
##활동하며
##중국에서는
토끼
월보다
##높이가
##원달러
공원으로
##시달리고
##전달한다
##펼쳐졌다
ational
##├
ara
ube
##도화
##방파
##4.8
##광고에
##공급된다
##국립과학수사
신흥
##선적
##설악
##유례
##퇴치
Format
##진흙
##없어야
##혁신과
##게재했다
##일컫는다
##개별적으로
볶이
아비
하청
##관습
##기한
##세습
##질이
##통찰
##국적을
##힘쓰고
高等學校
##1915
##청와대를
##북쪽으로는
드릴
##에버
##여럿
추진단
##가상의
##갈아치
##기울일
##올라간
##홍보에
##치어리더
`[
공과
액에
##03
##물색
##IOC
##렌터카
##스미스
##조용한
##카테고
##수립하고
모션
##몰카
##원광
##장벽
##제갈
아무개
##배심원
##온스당
##타인의
##Love
##대표이사로
Category
##도어
##소사
##보호할
##아쉬움을
##전쟁으로
##제주도에
대다
온이
##선비
##수유
##에세이
원이었다
##1.0%
##선고받은
상임
공원은
분기점
##내부를
##복지를
##사무소
##신칸센
##품질이
##수록되어
뚜기
##낫다
##라우
##벽돌
##선종
리서치
##수렴해
##담겨있다
~0
익산
##호랑
##소통이
##수사는
##온라인몰
##피력했다
검역
수소
##AC
##충원
##OST
##단위의
##단체를
##영원한
##오르지
##인천의
##정의를
##지속적
구급
송도
탈북
##멜라
##받침
##정할
##만들지
##빼놓을
##고발했다
막염
바디
산맥
ino
##◀☞
##공대
##리틀
##머신
##무방
##제법
성과를
##고금리
##반영될
##투명성
##type
##반문했다
##입구에서
글을
.95
##노태우
##운항을
##고속철도
일체
좌파
##북방
강에서
##스캔들
##에스토
##리메이크
##허리케인
##여성들에게
FF
없음
##강신
(32)
##공주시
##도보로
##반발해
##제작사
##결의안을
##관련업계에
질러
ern
##불문
##우체
단지의
##146
##본사가
##땄
니엄
##좌익
##집적
##군대가
##따르지
##설정한
##연령대
##연수를
투아니아
##사이언스
UI
##sA
##기권
##소개해
##우주의
##이동을
##초과한
랐습니다
##공무원과
##동안에는
박물관에서
##워싱턴에서
##대자
##안이
##왕위
##이불
##185
##며느리
##버전의
##위치가
##정도만
##중의원
tartgetEl
##isLogFor
##sCategory
NumberFormat
##isLogForComment
봉주
ake
ana
##낙태
##포용
##관련주
##구성에
##바라고
##시행될
##주말을
##태풍이
##기울여야
##점검하는
##초반부터
훈의
##선로
성완종
차세대
##KDI
##강경한
##경매에
##당당히
##영향에
##대비하기
##디바이스
##스포츠카
##프로토콜
내믹
열과
칼로
##개강
##꿈이
##이오
##닌텐도
##인물은
##총리실
##효과적
##긴급체포
##있는데도
##포기하는
##합류했다
##룩셈부르크
##하이투자증권
##MARKETPOINT
래를
연과
치즈
hat
##청순
##힌두
##넥서스
##주의보
성형외과
##운전기사
##접근하는
##미스코리아
업과
출금
~22
##고로
##꿈에
##비오
##정찬
계층의
원들의
##우선순
##응답한
##입맛을
##조직은
##국무총리는
##다이어트에
##플랫폼으로
delegate
조참
하트
(39
##콘도
하였을
##재규어
##한민족
##단말기를
##필요하고
##금융당국의
##만들어지는
컨벤션센터에서
문호
은하
##고산
##때린
##리본
##돌아선
##트러블
##힘들게
eather
##kt
##저온
##지평
##진산
##편한
##후발
##넥슨은
##집중해
산업발전
시민단체
##조선총독부
)/
-22
~23
##금상
##백색
##쳤다
부산시
##부모를
##증후군
##기상청에
##아침부터
##확대하기
##콜라보레이션
##金
관실
##성은
ajax
##의결을
##2022
##서포터즈
##포인트로
##행정안전부
##인사청문회에서
영식
##EV
##한ᆞ
##김영란법
##인수했다
##혈액순환
##후문이다
##콘스탄티노
TR
신기
##따를
##애인
##원심
##킨텍스
광역시의
##대한제국
##질환으로
##투입된다
##신하
##창사
##광장에
##점으로
##진입이
##흥겨울
##발언하고
##모습이었다
##젊은이들이
깨비
백이
일제
재선
##소울
##3.4%
##산업생산
##지배하는
통법
##사수
...4
##143
##평창군
여론조사
##활용하여
##신주인수권
머런
수만
슬리
텐트
##우상
##축출
선거를
화장실
##영광을
##전달해
##줄여서
##3.3%
##뉴욕타임
##모른다는
##두산인프라
##복리
##받았을
##들어섰다
##치솟았다
##공공기관이
,4
##읍면
지이다
##급락한
##대표인
##잠재력을
교와
##NS
##격인
##라벨
사건을
아세안
펜시아
##창업에
##트레킹
##퍼시픽
##4·13
빠른
##박보
간담회
공단이
##수위가
##싶으면
##안드레
##덴마크의
##알래스카
컬러
##'6
협의를
##34%
##여사가
##유연한
##일시적
##추진될
##가입하면
##새벽부터
##올해까지
##제출해야
##통과하는
bntnews
Qu
죽을
레인지
##설계된
##암극복
##정보도
##3.8%
##이행하지
##대한상공회의
동북
ams
##답이
##피카
##42%
##수치는
자원개발
##도심에서
광을
무사
세영
##소시
##이태원
##남녀노소
##들어가지
##중소기업중앙회
,"-
##단둥
##인과
##타지
환경과
##기회에
##이목이
##프린팅
##다르지만
##동일하다
##곶
동문
##갈릴
##약사
##정석
사람이
6%),
##강도를
##부드러
##워커힐
##지정돼
##태평로
복원
악기
연간
예산을
지금의
##대서양
##드리고
##마땅한
##수수한
##유정복
##자녀와
##카드는
##콜라겐
##소매판매
of
니얼
##WHO
##높지만
##설치가
##의사와
##중상을
(2009
##걱정하는
##부정적으로
송고
오자
##Ne
##예치
원짜리
##FPS
##갖가지
##버리는
##의외로
##축적된
##부담하는
##지원하겠다
##2015.12
ii
이름
캐스터
행사도
(29)
##440
##SOC
##김영석
##이름도
##해소에
##DramaHouse
메트
범의
CES
##맡긴
장이다
##근본적
##저명한
소송에서
##반영하지
##이후로는
##프랑스어
##전문적으로
##리가
##소강
여만원
ship
##최근엔
##피해야
##스마트홈
##어드벤처
강남스타일
들리
##귀순
##장마전
##컬러로
##피에르
##하루가
##3.2%
##Math
##예전에는
잡을
##능가
##일베
부담을
여성의
ener
##객관적
##번이나
##범정부
##보여줬
##주도는
##감각적인
##탄생했다
┼──────
##한국관광공사
##킴
양도
젠은
주권
##공전
체육회
##관광명
##동등한
##발생시
##불리고
##애플과
##5500
##동영상이
와글
##04
##모방
##옥스
##붙이는
##테헤란
##깨끗하게
##환경보호
·5
으신
##계획인
##광주의
##때때로
##불안해
##여교사
##전략기획
교구
빈은
있지
80@
##들며
##카터
##특조
문화제
##기소돼
##노력도
##분양이
##선수들
ope
##신지
##회식
(62)
##우아한
##이기는
##접수한
##진실은
##쿠르드
단계에서
##건의했다
##기념으로
괴물
(45
##교구
가지가
##가을에
##비용과
업계에서
##맴
##벵
매년
안도
었더니
##DTI
##극복을
##됐으며
##패러다임을
##사회공헌활동
SO
~27
##직관
결과에
##높았던
##인권을
##있듯이
##활용이
##수행하게
선수권대회
어려운
##고도의
##발맞춰
##실었다
##일단락
##존재할
##후보들은
##금융시장의
이들
##감세
##값은
##상트
평가원
##나와야
##붙여진
##연구진이
##요청으로
##지휘하는
SL
##보신
##잔뜩
김없이
##의지와
##부사장을
스님
##공석
##미하
##믿지
##제격
##후송
##4.1
##기준치
##대화에
##중단한
##토론이
##계속된다
##발대식을
쉬는
있을
-23
##상암
##건설이
##돌리고
##신입사
##원인에
##초에는
##있더라도
##환자들에게
약은
##의병
##세금이
##분명하게
##최소화할
##상반기까지
##최소화하고
##2017.2
립을
199
##당대
##튀는
OLED
##손형주
##이주열
##적절치
##증거로
##터키의
##불투명한
cs
이럴
족과
##("
##글은
##클라
우주연
##미소를
##마감됐다
##신한지주
##지방선거를
감자
##고체
##죽이
8%),
##기획전
##목적의
##무력화
##소개할
##외무장관
##갑작스럽게
곡리
ect
##협찬
##김두관
##달리던
##순유입
##품질과
##획득하였다
##빔
급인
흡입
미스터
시키면
ings
##이렇듯
##입맛에
##받았는데
갤럭시노트
##동전
##발랄
##요충
##증원
범으로
이스트
행사로
##도미니
##최고인민회의
들지
집의
360
##국사
##피드
가치를
##가치나
##개혁과
##사진영상
##콘텐츠로
##문화재자료
##원내대책회의에서
##넋
##옅
atch
##광역시
##신문에
단신
레가
##불의
빅데이터
##따라서는
##연기했다
##영업손실
레이저
유로존
##검사장
##발전이
##분리해
##순매수를
사업본부장
계속
전보
##On
##시화
##맞서고
##순유출
##단기적인
##항의하는
새누리당은
##대부분이다
시면
##7·
##돈의
##중상
##총파
##인간과
손은
외식
##검역
##무거
##테오
##네이트
##다당체
##막아야
##순간을
##공간이다
##볼거리를
##지구에서
##대통령과의
정몽
##소품
##김관용
##얼굴의
홀딩스는
##캐릭터의
##영동고속도로
##몬테
##한기
공장은
발전과
방송이
호선과
##개최될
##익산시
##팀으로
특가
##가즈
##출시가
##내세우고
##보여주기
##선출됐다
##뒀
청렴
##앞의
구역에
번으로
베이비
프레드
##관리해
##단지를
##중단할
##피부과
##공동선언
##진상규명을
민턴
##or
##거치며
##부풀려
##일반적
##치르고
##예비창업
##넣을
##위메
##중원
##협동
직장인
##요인은
##유럽을
수산식품
##경찰청은
##기관에서
##메인으로
##청문회에
몽골
미쓰
##견고
##경마
##고아
##외장
사업소
##미생물
##상장된
##소요될
##참석차
##사진작가
##인프라가
##한국은행은
##정상회담에서
수경
##당은
##두부
##MWC
##면역력
##배출한
##생필품
##집중돼
##투르크
##10.1
##보십니까
##한미동맹
##대전광역시
##지속되면서
확정
##모란
##생식
##정가
##맞췄다
##여자의
##입지가
##처벌이
소프트는
##반대한다
##증가했으며
경마
실패
포천
##무마
##거듭날
##규명을
##적잖은
##주택가
##국가들은
##농산물을
##상한가를
##회계연도
##추가경정예산
dg
히게
년만의
(39)
##복귀를
##얘기는
##책임질
##대선개입
##쑤
창현
##김신
##내신
##완판
##대표자
##수주가
##신분을
##이준석
##전자발찌
─────┼────
버러
Car
##불상
##스터
##으뜸
##현명
단말기
하니까
##공매도
##공장의
##남부의
##다쳤다
##전남대
에볼루션
##대표되는
##참가비는
##허위사실
pen
##중위
##물질의
##보탬이
##질서를
##휴스턴
##중국과의
##슬로바키아
##연구결과가
##협력하기로
공조
양희
주최
##과제가
##패션을
##하나만
보건복지
##대림산업
##많았지만
##전합니다
##지급하지
##프로리그
##화려하게
디지털타임스
독을
온도
MBN
##고승
##넘버
##성토
##오븐
##범인은
##비판에
##서유럽
롯데마트
삼성물산
##교육청은
##신설했다
테르부르크
교보
넷은
폴로
황이
##병무
지방에
하르트
##계속해
##문제제
##펼쳐져
##히데요
례회
차이
탐사
##국부
##사관
##생수
2%),
##148
##넥스트
##아미노
##포르노
만인클럽
##메커니즘
##분위기에
군데
살아
##김택
##슬픈
부문장
##컬러를
##간병
업종의
한국인
##관련자
##관리는
##밝혔고
##식료품
##아키텍
##선수들을
##궁극적으로
제천
##몰수
ince
tics
##구조다
##버려진
##송영길
##연매출
##전신인
##정원을
##참가하여
매립
ety
##둘이
##등반
##물씬
##삼호
##연소
교에서
##경북대
##저수지
##충실한
##개개인의
##건강식품
##경찰청장
##부산은행
##지금부터
##한국투자
루트
##출소
마을에
##급하게
##논리를
##농가에
##대책에
##뭐길래
##주장해
##화제뉴스
강정
밀도
상현
진실
##유무
##푸조
지킴이
##내국인
##단점이
##상위권
##소송에
##응답은
##진입한
##기자들이
##자원개발
##pp
##놓는
##운운
레이스
번이나
##CBT
##넓히고
##도착할
##영국에
##정체를
##침체된
##하에서
##경기도와
##마일리지
##올랐으며
##받아들이는
##프로그램에서
LE
동호
_""
##강우
##급한
단체에
##기부를
##포기할
##시간대에
##제주도와
역학
##감액
##김덕
##문재
##여느
##좌초
##큐브
##떠나고
##발표해
##전역을
##인지도가
##경기도지사
Do
##부주
오일뱅크
##한가운데
##핵심이다
##협약식을
##활용하기
지겠습니다
##갑작스러운
##정부서울청사
김한
남의
시킴
유관
책과
##제니
의사를
##310
##43%
##그밖에
##게임동아
##어려웠던
##주재하고
##뛰어들었다
PE
##틴
그릇
발한
저녁
톤을
##뜻에
##뭉쳐
##비에
##연못
##교체를
##부의장
##어려웠
##지역내
평화통일
##방글라데시
##독주
주의로
층석탑
학교로
##괜찮은
##원이다
##신설하고
##연구팀이
##편의시설
##반복적으로
겠나
분담
##불매
다보니
##상징인
##정체성
슬라비아
정보기술
##갈등으로
##천연기념물
##야당과
##탑승객
##청와대로
##훼손하는
유사
##번뇌
##우측
##친한
##문희상
##일원에
##공무원은
박세
##견딜
##좀비
##피가
메모리
##모색할
##진화에
##참여자
서비스가
##경찰관이
##캐릭터로
##플레이를
##신성장동력
연승
요건
##몸은
##방에
##중일
차량을
form
##자민당
##못지않게
##사무실로
##적용한다
정체
·15
##EL
##편중
관계의
장학회
##'000
##지정하고
##보내주시면
화상
.35
##곡선
##때면
##집약
##카스
법에서
석기자
익스피
##발견할
##코스트
##운행한다
술의
ace
##CU
##끼칠
##소변
##통용
##피렌
법원은
(37)
##감소와
##열풍이
##이날도
##조항이
##지장을
##2.9%
##기금운용
##만성질환
##반영했다
##아닙니까
##다음카카오
##꾸몄
##공세에
##토대를
TB
남면
##교민
##평형
바이벌
##라틴어
##부채가
##빼앗아
##윤상현
##훈련에
##독보적인
##뚜렷하게
##유도하기
##대한민국에
##압도적으로
고종
림동
INI
##sp
##산이
아이돌
##계정을
##완료한
##의견에
##조명을
##지사를
##퀘스트
##특성이
##형성하는
락은
바리
##담백
##면을
##진위
우체국
##44%
##마리나
##올랑드
##넘어가는
##트렌드에
군청
대여
종양
보건소
(0.7
SCEI
##경고를
##무산된
##실렸다
##테러가
##말하자면
##투명성을
##회원들은
##아니더라도
:4
처와
##느린
##다량
##역과
##혈당
##동호회
##언론과
##즐거워
##한전은
##도입으로
##생활하는
분자
칼리
프닝
2),
##후한
##곽노현
##수성구
##2015.11
##ᄂ
교로
mbn
##교전
##단합
##경쟁률이
질병
##살게
##요가
3%),
##목포신
##위치는
##차별을
##태도가
##유저들의
##이용하기
##종사하는
##차명계좌
##유진투자증권
##노점
##위약
##지워
게임을
시장도
##공급해
##라운지
##전문직
##집값이
##현재와
##모바일로
##부여하고
##중앙부처
신임
mic
수요를
##지냈고
##3.6%
##장악하고
##제안한다
##쿠퍼
##국면에
##국회와
##범죄가
##보호에
##수술은
##일대일
##만들기에
##아르메니아
##이용자들은
##홍보대사로
유미
~21
##문형
##발길을
##조례를
##공개되었다
##울산광역시
_5
##압록
사태가
##5.1
##나오게
##선택에
##윤창중
##협력의
학자이다
광이
소서
지아
태용
380
##갤노트
##안은나
##전개해
##게임에서
##둘러싸여
##특별위원회
근영
KDI
##겨울에
##농기계
##비박계
##애정을
##체험해
##편성해
연구원장
##긴장감이
##오전부터
삼성전자가
알라룸푸르
자라는
##소송이
##지주사
iness
##NASA
##정부중앙
더가
틀리
현역
ync
월에서
─┼──
##점수가
셨습니다
항만공사
##공감대가
##동부증권
##양해각서를
##확인했다고
##데모
##살피
##영통
,500
##들어보
##암세포
대한통운
##담그
##불린
##심정
포켓몬
7%),
##기업용
##김상곤
##유지하며
##조성되는
공익
메틱
비안
##대미
##기도를
##예산에
##줄면서
##청구를
##상임위원
##입장입니다
##벅
법도
크에
티넘
##갯벌
##노년
##여진
##조모
##준설
##후예
##177
##공격은
##질병을
##양상이다
##말만
##평행
##항로
후보를
##151
##목록에
##입사해
##직면한
##파장을
##국정원이
##배치하고
##제일기획
##지원한다고
될까
##네일
버리는
##센서를
##급변하는
##아이에게
##제공하게
##미들
##예년
##흐려
(36)
##거라는
##시대는
##음반을
##주가도
뇌물
득점
접대
티켓
##센스
일인명
##낮다는
##울산의
##즐기기
##장애인의
짓기
##노폐
##실외
##악어
##이체
##정박
베니아
실시간
##BNK
##기간의
##나흘째
##방향은
##작곡한
##채권형
##통화가
##포근한
##화합을
##관할하는
##구매하면
##설치된다
##호텔신라
Br
##관점
##이연
##판명
가치가
게이자
##게릴라
##유안타
##자사가
##제기할
##타입의
포인트로
##산발적으로
여자고등학교
1-
?(
탈출
##CR
##142
##29%
##광대역
##실천을
##자유로
베가
수습
통영
##석가
##풍속
##호박
##연금을
##장관에
##친일반
##사무국장
##원내지도
##의견수렴
##이때부터
##추진하기
##확신한다
유정
틸렌
..”
##나자
##오라
만배럴
##간편한
##더위가
##돌아간
##소정의
##자연재해
##조직으로
##한화케미칼
로직
~26
(30)
##(18
##FBI
##겸비한
##우리와
##한수원
##3.7%
##네트워킹
##되었으나
##얕
安倍
도민
독서
아기
##믿음
##버금
##착취
렉트릭
중이며
~100
##모자라
##기업들을
예빈
포에
##군단
##꼽을
##불면
##일등
##최일
인가를
##149
##나누기
##설정을
##앞에는
##역점을
##하소연
##대회이다
##촉구하며
대외
실용
##미터
##소동
##팔달
더라면
##리그의
##비빔밥
##빠르면
##예약을
신용등급
##국제표준
##내려오는
##발걸음을
##보호무역
제비
##가창
##조석
##경찰을
##도로명
##업로드
##연말연
##현실은
##현오석
##관광객의
##모차르트
##반대했다
각종
사냥
##NX
##백석
바라크
##인연이
##전투는
##1916
##그로부터
##기획됐다
법규
시원
##가루
##흥분
통합을
현장의
##압도적
##합격한
##제한적일
##강화로
##명백히
Ready
##구조조정이
마약
횡령
##기혼
##교통이
##국채를
##기관인
##발달한
##불면서
##수정안
##의원들을
##주말에는
래의
생과
##부엌
##이직
##짓을
가량이
펀드의
##런던의
##수요자
##파도가
##Su
##싶을
##연골
##정승
##다운받
##주도해
##표현은
##시절에는
##유료방송
##...""
##소프트뱅크
va
##갈비
##미식
##고문을
##김영환
##충격적
##타임스
##후기의
##그랑프리
##홈페이지와
##AV
##군용
##지게
테이블
(31)
##높여야
##목사의
##기조연설
##다르다는
##사업시행
##세워졌다
##작용하는
##International
##스팀
##아세
##5.7
##걸리지
##매수에
##지구에
##독창적인
##섭취하는
##화장품을
##가족들에게
##원자력안전
슨과
칫솔
##먹여
##사절
수지는
Mbps
##믿음을
##본선의
##포럼은
##Zine
##라트비아
내각
삼아
총액
##양지
##풍랑
##형광
리스토
##시설의
##실적도
##제동을
##지켜볼
##캐머런
##투입돼
##피부로
##터치스크린
process
범죄가중처벌법상
DMZ
##경직
##볼때
##스며
##구멍을
##헬리콥
연구원과
##청사에서
##컨소시엄을
고무
료의
##남이
##172
##미션을
##상품도
##한여름
자동차가
##농식품부
##당할
##명지
##밀리
##생보
##성기
##원피
##친인척
싱가포르
##폐지되었다
내를
버넌
(55
##스윙
계층에
##APEC
##지정학적
##책임감을
##상하이종합지수는
렸기
부리
한전
##바늘
##매장이
##스튜어
##신라의
##외국의
##의석을
##화면이
##은메달을
##재단법인
##마쓰다이라
02
##정은
주유소
클랜드
##직무대행
##책임져야
##문자메시지를
##폄
담은
겠는가
더군요
##무작정
##부담도
##예측할
##티켓을
##경남도는
##전자제품
##전세계적으로
/)
여곡
##눈앞
##감소가
##공항에
##기초를
##립스틱
##연준이
##투어를
##판소리
유플러스가
거주
바시
##지장
세대를
##관리자
##임대차
##카니발
데일리안
##덕분이다
##자문위원
##후보들의
가방
비인
선호
어음
##유현
##투싼
##51%
##구현할
##시도해
##시동을
##체제에
##하이원
지수펀드
##화면에서
0%,
##고갈
##순국
##168
##개헌을
##공급한
##통과해
학생들이
##어려움에
##제공한다는
었나
##간소
##격추
##산천
##시킬
##원치
공정한
통화를
##케네디
##테이프
생활상식
##재난안전
상봉
혜의
##강과
##경각
##오창
##능력은
##등에는
##전자정부
##본회의장에서
스팩
ᆞ충남
∼15
##내놔
##맡길
##재촉
##파탄
##대전의
##신뢰성
##열정과
##의미와
##하락하며
##교통사고로
만수
tor
##방범
##외주
##찍을
##기대해
##아이와
##안드로
##이회창
##지출이
##상응하는
##제곱
##통칭
당국과
##공정성
##본인은
##주장과
##개선으로
##민족문제
##생각하며
##후원금을
##뉴욕증시는
단백
할부
(44
##김순
##단열
화되는
##다졌다
##산업과
##이상현
바로가기
##다음달부터
예보
##우위
한국이
##수행을
##시행규칙
##움직이지
##이를테면
##지자체와
추진위원회
##무선인터넷
원포인트생활상식
가든
LPG
##기병
##통풍
##Fed
##가입이
##글래머
##기업형
##설명해
##기념식을
##전력수급
##새누리당에
비타
입국
uth
##발원
##암흑
##이범
지사를
##노사는
##장착해
##평론가
##인수하는
##통계청이
##한국전자
##확대되면서
LC
콤한
##정대
프라노
esti
##나쁘지
##대세는
##운동과
##적용이
##증언을
사진출처
##신흥시장
액션
##귀빈
코레일
read
##갖추지
##모르지만
##베이스볼
##상파울루
##정보제공
적성
타격
##검열
##주원
##구워낸
##이루기
##전문지
##말하기도
##엇갈리고
##옮겨졌다
##설치되었다
##투자심리가
hr
복제
##오던
##탄원
##상태는
##발표됐다
##풍력발전
단원
부분에
크루즈
##147
##기저귀
##온누리
##행정관
##기념행사
##아니라면
##입장에선
##턴어라운드
발급
IBM
##땀을
##김경수
##수색을
##수출의
##없었을
##증권가
##최저임
##인사들을
##진행하게
##청년들의
말의
묘지
##엄선
##엔젤
동반자
##고구마
##부처가
##않아야
...10
##명실상부한
황을
Ran
##보나
##최룡
##남북한
##살렸다
##순천향
##온전히
##차트에서
테크놀로지
OW
내수
익은
##실체
##혜성
##Tab
##사회와
##성과와
##아우구
##처음엔
##경우에만
##부여했다
##열었다고
##진출한다
##껴
연패
징수
##경동
##말라는
##시절을
##반응이다
##사회봉사
##태극기를
경식
달이
##디딤
래미안
위대한
##넘기는
##순천시
##여유를
##크라운
본부장이
##스리랑카
부산ᆞ경남
##실시했다고
##온라인이슈팀
만평
##뱅킹
##그곳에
##출범을
##해석할
##하면서도
##사회복지공동모금
로버
보우
전라
투리
##셋톱
##수필
##퓨전
##계절적
##관리비
##앙상블
##남양유업
##독립운동가
예슬
##mk
##공과
##동치
나무를
말라야
##독도를
##총액은
##힘차게
레이션을
##세월호가
(48
##경기둔
##깊숙이
##돌보는
##매각이
##제외될
##추첨해
##진행했다고
조업
##주성
##초계
든어택
##과언이
##도호쿠
##비효율
##수요도
##어렵기
##Part
##고수하고
##상승세다
##제안하는
##경제뉴스ᆞ
뿐인
##수식
##정혜
##주선
##니콜라
##스트로
##조약을
##봉해졌다
##접어들면서
##궁궐
##대작
##옳지
##인신
그렇게
이었을
##ESS
##계획과
##근육을
##신원을
##쓰였다
##전하며
테마파크
##서울남부
##임직원과
##일제강점기
임의
##각인
##구민
##먹이
##키는
인가요
회장을
##김현아
##병원이
##친구의
##‘2011
##그러면서도
응급
책의
##대게
##믿어
감사를
##2~4
##개설해
##나간다
##상황도
##왔다는
##찬사를
##휩싸인
##최고출력
##서울모터쇼
도박
발효
앤씨
적용
##별의
##적성
항공은
##섬에서
##알파벳
##어렸을
##여사는
##장소가
##크기에
##배치했다
##주택금융
거의
노르
##건수
##무더위
##역사학
##하이드
##방면으로
##상원의원
##어버이날
##후원으로
말은
목재
##미납
##촘촘
소비세
CCTV
##상대적
##에스파
##태풍의
##폭발물
##협주곡
시스템의
##이전보다
##특별공급
##학생에게
프라이데이
##올해부터는
##확산되면서
야간
##뜨고
##믹스
##오성
##편곡
##혼수
1500
##강남의
##개설한
##계획의
##사들여
##오염된
##총장과
##팬들이
##참여했던
자산운용은
##보여주었다
##주차장에서
가동
농성
##jo
##택한
##북부에
##일당이
##조성과
##주석의
stock
##중앙정보
##롯데백화점은
카운
항과
##비누
##감사하다
##돋보인다
##의존하는
##줄어들어
##중소기업은
##추가되었다
##냄
마어
##방재
##불식
##쏟고
##620
##구성과
##항목에
##관계기관
##대상자를
##니혼게이자
률과
##쿠션
##검색을
##교사를
##눈치를
##수돗물
##전개할
##전시된
##제시카
##등장인물
시즘
##EP
십니다
##검사와
##무더운
##고려하여
##프랑스가
누드
히며
##딸은
금지법
##개입한
##녹십자
##형평성
기업은행
##자극하는
거점
관인
루에
중은
TEU
##두통
##마천
##수로
##숙소
##외압
##폭우
고객을
문학과
해상도
##비용도
##신호가
##구현하는
##데이터가
##증거인멸
##회의에는
모와
불리
##삼을
##완치
브릿지
##고품격
##깨끗이
##비밀을
##색상을
##임단협
##체결된
##출시와
##한정된
##감정평가
##주주총회
##주목됩니다
돌고
##모셔
신청은
전두환
##본사와
##정치와
홈페이지
Ex
##댈
펜션
##소닉
이스라엘
##모토로라
##수출하는
##수행했다
##표현하고
##신용등급이
##현재로서는
##친일반민족행위
##교육문화체육관광
##씁
삼구
파격
##디오
##타진
하모닉
##7.5
##싸움이
##영역의
##폭우가
##담당했다
진화
##씽크
겼다고
성폭력
##한파가
##결의대회
##설명회는
##조직적으로
##붙잡혔습니다
숨에
시타
##듯이
##막론
##채운
단계에
##규제에
경제협력
##구마모토
##국가기록
##현대카드
(70
##레고
##현빈
하이머
##다녔다
##데뷔한
##임헌정
##판문점
##불가피해
##콘텐츠와
내장
훈은
총궐기
호에서
##동생인
산업으로
##내일까지
##유지한다
브르
지질
##젊고
##학급
노미야
##강호동
##걸맞은
##경쟁은
##공통된
##업무와
##우여곡
##이루며
##협조해
드라이브
체육대회
새정치연합
시술
##-4
##가덕
##돌진
캐릭터
##굵직한
##자리다
##품질의
##이야기로
승현
하수
77@
##구현한
##시장조
##제약사
##지표로
##집안의
##황해도
##대비해야
##미스터리
##바리스타
##이집트의
##학부모들이
텍이
허위
kuk
##Or
##모서
##분유
지사의
##경로당
##아이비
##왔으나
##총선과
##Play
##것이므로
##상위종목
##현대차와
##들어갔습니다
배틀
연락
~84
박정희
##목록은
##무대가
##배포한
##전날인
##회고록
##자유한국
##활용되고
서울대병원
나쁨
암이
액도
전설
##OP
##‘5
##신해
##의령
##황희
기술로
##부상자
##이용해서
##채택하고
##간접적으로
##시교육청은
구요
럭스
종북
##SI
##양반
아이가
##군대는
##반등에
##손상된
##우원식
##유능한
##출시로
##펼쳐질
##캠페인에
##할머니의
감축
##경차
##스틱
##필드
말레이
##선제적
##여름을
##오토바
##유입된
##완화하는
##전망됩니다
##뜸
코지
태국
##도우
##수녀
분야는
##식품을
##언급은
본부장을
##서울광장
##지급했다
##충격적인
자들에게는
##대체적으로
리테
정호
##It
##부녀
##오크
정보가
##158
##스텔스
##헌법을
##개념이다
##사건에서
)」
##도리
##서는
##DDR
##여의치
##이론과
##결정해야
##실업률이
##인정받는
총은
##구태
그래서
##강원대
##인기는
차원에서
##교통카드
##추석연휴
##쫄
볼리
석희
회피
##동산
##분은
강종민
에어컨
추위가
##교사와
##구조물
##동메달을
##바라보며
##실용적인
##임직원들의
##세계문화유산
휴업
##둔갑
##수류
##어딘
##인맥
##일병
경제에
##매입한
##박희태
##선생이
##의결권
##호재가
floor
##사옥에서
##유동성을
##행정부의
##방호
##시초
대책위
##김재원
##북극곰
##비율도
##운영의
##조선족
동준
##꿀잼
##퍼부
계열사
내용은
##늘린다
##치료는
사업부장
##있겠느냐
##새누리당을
service
장병
##땅이
##민망
부담금
이익을
##정두언
##활용된다
문화예술회관
소외
##슈즈
##창문
론에서
##시애틀
##영역이
##전망과
##공연으로
##유고슬라비아
대수
##등용
##이충
묘하게
##강세로
##나라로
##풍부해
로부터의
##광주전남
##유니버설
##이어가는
##쥔
면제
절대
킨스
##금은
##모공
투쟁을
##다수가
##어울려
##칼리지
##헤어진
##당당하게
##보여주며
##억제하는
이집
(80
##당협
##대고
건수가
정책은
##다가올
##대테러
##미래형
##하는가
##비밀리에
##화제성이
]◇
전동
##강영
##그러니
##단체에
##승객을
##입장과
##제도와
##조씨는
##지지자
##예상했던
##편리하고
##고등학교를
##◈
균이
##연정
##증빙
##노래가
##변경할
##병원은
##욕구를
##용량을
##지역민
##최창호
##광주지역
##부각되고
##아파트와
##바이오시밀러
외대
유상
##심근
##측도
##견해가
##결성된
##독일에
##돌렸다
##법으로
##분리된
##전해져
##지구와
##집회가
##교육부의
##회복했다
##UP
생활의
##산업화
##성금을
##정수기
##반영하겠습니다
04
실점
유공
##같지
##둬야
##바리
##배낭
##하되
법원에
차관은
##1,9
##베테랑
교육감이
Again
##7.5%
##순매도를
연구소에서
##확정했다고
만두
수유
##온통
광고를
장에는
##미나미
##수립을
##입수한
##6.5%
##육성하기
##통일부는
디를
모양
바우
##금수
국토부
##배당을
##선사할
##신소재
##여기고
##조직과
##협약식
##대회에는
##풍부하다
##미래창조과학부는
##유교
##치렀
관절염
##다니던
##박사의
##지하수
##집행을
##한은이
korea
##배출가스
##보였으며
##시작하면
##취득했다
##합의했다고
포기
거리로
##공조를
##닭고기
##됐는데
##담당자는
##둘러싸인
##민감하게
##바뀌면서
##상임이사
##02-721
메스
었죠
##비즈
유니버
이상의
지구로
##성숙한
##참여연대
링은
솔로
율에
##어때
##포터
질서를
##KAI
##경상도
##남부에
##백혈병
##스퀘어
##아동의
##전문가들
##개발했다고
##공급계약을
##문자메시지
##2017.4
”[
시흥
##관상
##제사
단체를
한국과
##거부할
##건데요
##자산이
##역사에서
##2017.3
린을
pre
##산성
##외과
##층간
##개입을
##마우스
##소식은
##장비가
##클리어
##확연히
##떨어졌고
##외국에서
##금융소비자
##임금피크제
##공정거래위원회
]■
##大
##콕
산인
트맨
##떠안
##봉안
cono
##바삭바
##솔직히
##측면을
##기반시설
##타이베이
##킥
김장
fer
##고를
##껑충
##대손
##베풀
##우파
##저런
##최창
금융의
노믹스
##225
##국면을
##나가지
##쇼핑을
##부회장과
문화회관에서
##듬
들며
##목이
##서스
##얽힌
##도구로
##수록곡
##진료비
##영화에서
억원어치를
##이야기하는
┼────┼────
(+0
##신빙
##이북
##흘려
##아기를
##인력과
##헌재는
##회사다
##대답했다
##졸업하였다
상상
채로
##시추
##진급
##찾게
Year
rase
##백남기
##성장은
##절실한
##그러다가
##비행기를
##운영하던
텀에볼루션
하와
(42
##비위
##기대와
##쌓아온
##우윤근
##음악적
##잔액은
##증상은
##지출을
##회사원
##겹치면서
##교육감의
##들어오고
##출범했다
##‘2017
##사진영상부
##하락하면서
LP
사르
인철
키를
트루
##터라
리아는
##급상승
##단어는
##미술품
##수백만
##공개되지
##그리스가
##바꾸었다
##들어서면서
용도
##경작
##열연
##휘둘
개발과
기자의
보험의
자산을
##과거를
##작지만
##주식은
##중이고
##시즌에는
##전문대학
##처리해야
##한국거래소에
##연방준비제도이사회
##:[
##갚지
##난치
##오나
##줄여야
##간담회에
##대구시는
##재능기부
##접수됐다
##친일인명
-7470)
##씩
김형
##석면
##온건
구역은
들이기
목표를
연예인
bert
shin
##달았다
##밑도는
##의뢰한
##이병헌
##클리닉
##트로이
##재무제표
##마련했다고
바탕
진강
.45
##프론
년대의
미티드
수사를
##국방위
##수십억
##엄마는
##02-721-7470)
당뇨
라식
##대합
##마쳐
##약해
##그림은
##미공개
##자기의
대상에서
자유무역
##꿀잼영상
##연금저축
##운동으로
##위험성을
##width
##young
##가격제한폭
축소
원이며
Canc
##모로코
##바닷가
##시도할
##애리조
##조성돼
##통과할
##폭탄을
##기념하여
##당시에도
##밝히기도
##실현하기
##한국석유
##갖다
##서머
##알을
##종자
##직계
구조가
##빚었다
##진지한
##펀드가
##이전하는
수라
##난무
##대물
##상도
인지는
##기울이
##란제리
##원활히
##월등히
##2.0%
##비난하는
##위협하고
oF
##IF
##꼬마
##156
##살아갈
농협은행
##2600
##근무했다
##지도부와
##감사드린다
이준
##미쳐
##선선
##공급에
##심판을
##유공자
성심
잖아
##사사
##필러
##궁금한
##다양화
##사유를
##인가를
##마르크스
##QR
##우버
##일품
##등지에
##지지층
##등록금을
##받는다고
##이곳에는
##사로잡았다
글은
해선
##니코
##리빙
##신변
면에는
##웨스틴
##조양호
##되었지만
##발암물질
##최단
베르토
##강아지
##미군이
##미미한
##선호도
##수도인
##채동욱
##항생제
##사과했다
##지금처럼
##요구했습니다
##나토
##도라
조치가
##수상작
##심리로
##정의할
##차상위
##코끼리
##대선주자
##부정부패
##헌법재판소의
바인
퀀텀
회수
검사가
국장을
##구축과
##배우로
##열기를
##채권자
##무선통신
##이사장의
##전시회는
라드
리니
비자
선희
##비정
##정일
##가입해
##능력에
##단호한
##마시면
##협약은
##협의할
##활동가
##온라인에서
Ph
##비평
##장덕
진출을
호점을
##강씨는
##발전해
##번갈아
##수석이
##시설로
##우간다
회사에서
##빠져나가
##샌드위치
##알펜시아
##음반이다
##인식하는
쓸이
통행
##거물
##최원
##부원장
##빨간색
##외부로
##워크숍을
##고맙습니다
##기수
##박홍
##법안에
##주치의
##지분은
##허리를
배분
창에
기보다
에스티
##이상적인
##나인
##예천
##중징
방학을
있다고
##홍천군
##알바니아
큘럼
탐구
ppm
시의원
포조선
##규칙을
##대비할
##신나는
##접목해
##지휘자
##마스크를
##지도부를
##전략적으로
##이월
서에는
##김정욱
##노인의
##수영복
##마이스터
##스킨케어
##차단하기
##출전하여
3010-22
kw
수상
임상
III
##농사
었으면
##신청해
##재평가
##계열사를
##작품들을
##미비
##성곽
##핵과
되기는
태블릿
##선고받
##저절로
주의보를
퍼를
VIP
##기를
##뭘까
##관리의
##노벨상
##처리한
##도쿄전력
##배경에는
##농식품부는
가타
연애
##애드
##피소
##수석부
##이상민
##기간에는
##기록으로
##우리나라와
강재
당첨
쇼를
(46
Hub
’..
##BI
##넘고
##산단
##라인은
##않아요
##정비를
##경기북부
##마이데일리
##전국경제인연합회
관왕
##남매
##사카
게임의
ader
##공정을
##분들의
##블로거
##세력은
##대다수가
##해군기지
완구
##견과
(28)
##건설과
##출발을
""...'
기게
노예
부림
##강창
##오미
접수를
##기자재
##흐름은
방한계선
##전망되고
##썸
거짓
300]
##가수로
##드러날
##시도는
##알제리
으로부터의
##안녕하세요
톤급
##길드
##어워
설비를
!...
##개장한
##문화부
##접수는
##판결은
카카오톡
##스파르타
##팟
로동
ble
##러셀
##비엔
##신랑
##찜질
##초점
##하방
##독일어
##안경을
##알아볼
만여명이
##브랜드에
##의존도가
##체험학습
##행복하게
감리
KTX
##】☞
##녹여
##무함
##연호
##변하고
##최하위
유틸리티
##한국기업
##스테인리스
장미
후가
##둥글
##1~4
##발굴을
##일방적
##살펴보는
##협상에서
노리
발명
##만연
영기자
운동은
##도달할
##마찰을
##비전과
##소나기
##의혹은
##활약한
사우루스
오피스텔
Month
##외국인을
##재보궐선거
유병
조정을
##뭐라고
##산하의
##생전에
##얼굴과
##주택의
##톱스타
생활주택
Close
##배우들이
##심각성을
##가능하지만
하셔야겠습니다
손보
열은
읍에
.65
##계좌로
##공부하고
##온라인을
##일입니다
##파나소닉
고급
섹스
해와
MWC
##상법
##선상
##나무가
##함유돼
만여명의
##사용하게
##선진국의
##스케이팅
##유망종목
##일리노이
##제조업체인
액과
##구정
기자재
##음료를
##유사하다
##하루빨리
당사
중대
.85
eek
##걸까
##선봉
##수첩
##완구
보증을
##패배를
##훈련이
억원보다
##차익실현
##홍보하는
시어
저의
##미인
##쉼터
##맞섰다
##이의를
##최대토크
##특별감찰
다공
머티
##낙마
##페리
광장에
일까요
##2·4
##그간의
##단숨에
##이날은
##이튿날
##5.18
##교보증권
##네거티브
##대화하고
##의료정밀
##트레이딩
##교통사고를
이코노미스트
7-
경량
##Ad
##놓아
마을의
##붙이고
##이곳의
##드라마를
##심각하다
##올해에도
##주인공인
##중이었다
름한
##RF
##구토
##리조
##지린
##영화와
##커지자
웠습니다
##들어가게
##별장으로
##펼쳐지고
##확인하지
##디지털타임스
sj
루이
##Po
##굳게
##적금
의견을
##등락을
##명령했다
##성적으로
##실시하기로
수진
신부
이중
취한
탄은
ERS
##노바
##업적
##역행
##지면
##해의
##기량을
##농가의
##소통할
##상황이어서
]<
양동
채의
##at
##막지
##사슴
##아꼈
##피신
##구성은
##논현동
##에스컬
##처리해
##아이템이
##클라이언
송을
실버
##관전
##레닌
##완수
##쿼드
갔지만
##내려온
##지원자
억원대의
##4.3%
##업체에서
##힘들다는
특집
##31%
##경기와
##가까스로
##방문하면
##육성하는
##인상으로
##장점으로
##조성하기
브의
(1,
##공평
##변액
##산에
##공모주
##많으며
##좋아질
##참신한
억달러의
##1,200
페테르부르크
VE
##췌
마늘
##거란
##끝낸
##도루
##미백
##장재
##호감
##근거리
##나왔다고
##대전에서
##수여했다
##온라인뉴스팀
##뜰
커는
##명심
##발리
##접해
##타기
장치가
전까지
히면서
##CIA
##시행해
##웃으며
##쟁점이
##지극히
##가능성과
##달아났다
##선고받고
##폴란드의
##농림수산식품부
##근속
##임병
기준이
트렌드
##블랙박
##앞섰다
##올라갔다
대대
파르
105
##개연
##도를
##품종
##피싱
##필사
##2,3
##당신은
##명소로
##질문이
##환하게
시켰다고
학적으로
##건설업체
목록
연출
조이
##끼쳐
##항체
자라고
2020
##yul
##기준도
##둥지를
##프랭크
##1899
##3.9%
##대중적인
##선거인단
##진보신당
##청년창업
Yn
##시인은
##입사한
##주재한
##특산물
개월마다
##극단주의
##비교했을
##쌓고
합창단
##개혁이
##곁들여
##공사장
##왔다고
##확대한
##대규모로
##보이는데
##승진했다
##압박했다
##죄송하다
Random
##민주주의의
##인터넷뱅킹
대림
더의
식량
##권선
##물꼬
##41%
##결함이
##동명의
##열리지
##노인복지
##안팎에서
by
농도
동면
미녀
##5.
##Un
분에서
lack
##김중수
##엉뚱한
##의원실
##학습을
##한계에
##(200
##조언한다
##해외사업
##떨어진다는
현석
(41
##no
##딸인
뜩이나
오르는
##3∼4
##신발을
이동통신
3,000
네의
토막
헬름
##마스
##천도
##나주시
경제연구소
phrase
인종
##베가
##자오
##공소시
##내일도
##앉아서
플스토리
##사회과학
##알카에다
##죽음으로
(/
준이
##강압
##밤의
##사표
##나이는
##아스널
##안정과
##하락세
대상으로
제윤
(43
##사나
##서약
##화살
달라며
대사가
세부터
##톱모델
천만달러
##거래되는
##문제라고
##사립학교
##현대미술
대전ᆞ충남
##기초자산의
이화
캉스
##굴착
##나기
##이목
조원대
현상을
환자가
##금지된
##마리를
##소재가
##시호는
##기록이다
##기초과학
##의견으로
##지방으로
##출연하였다
##확인됐다고
05
필요
훈이
##베드
##사위
##지망
문제와
##도시인
##먹어야
##몰라도
##주문한
Label
##많아지고
##크리에이티브
##뇌의
##디테
##만져
##아벨
##염원
하도급
##자금의
##협상은
##생산량을
##서류전형
##브로드웨이
Ur
로켓
한옥
EPA
##Go
##출몰
대원들이
##교수팀은
##뉴스판에
##소통하고
Cancel
##깬
쳤을
##귀경
##청장
부담이
차관이
패밀리
very
##교류가
##양성과
##연봉이
##욕설을
##처벌할
##어디에서
##한국영화
##회복세가
고등학교를
##조사에서는
##u
부당
시세
##김건
##하신
들처럼
##390
##무한한
##베네딕
##사망에
##성인이
##하락은
인천공항
##학교급식
mar
##벨트
##일몰
##천만
##460
##내려놓
##버전이
##수익은
##음악은
##5.5%
##유입되는
##절대적인
##불공정거래
##증가했지만
AgainYn
getDate
getFull
weather
getMonth
welCount
displayId
##dontShow
CloseClick
enderLayer
getFullYear
##onRecommend
oTemplateType
InfoLayerManager
##dontShowAgainYn
晋三
##구부
##슈트
##후일
암으로
의회가
호선이
##오케스트
##삼성디스플레이
##시노
##시라
##황병
공장의
체계가
##감안한
##제의를
##주식에
##체계가
라이언스
##대학으로
##미수습자
광산
연에
의류
##마칠
##부조
##에미
##가했다
##인기에
##전해진
지구에서
topic
##양악수술
##전환사채
##증가하며
##추락했다
##해결되지
##발견됐습니다
##유격
세대가
##범위는
##부딪혀
##생각과
##확충을
컨티넨탈
##작가들의
##장관에게
##앞바다에서
##중요합니다
무력
창극
회도
##방배
실적은
코오롱
##공장에
##연휴가
##인스턴
##한라산
##한국인이
onRecommend
취급
·11
##가늘
##준법
7500
##가면서
##각오로
##불교의
##비난이
##선으로
##조건부
##조원진
##주석이
##크기와
##하라고
##부정하는
##실천하고
##6,000
##시작되면서
선임
##가오
##취직
사건이
##수명이
##제각각
##취업에
##30%,
##부과된다
##품질관리
##필요하지
##확정되면
##array
##발생하면서
##최소화하는
안성
정무
##테레
##화염
대상에
4%),
##가치에
##보이자
##부대는
##역량이
##농가에서
##보육교사
##정부부처
명절
부적
14@
##엘피
어버린
##각선미
##본래의
##이어폰
##주저앉
##지휘를
##착수한
##결혼했다
##대비하고
##인터넷과
##재발방지
##북아프리카
##최대주주인
거지
것은
그때
근육
밀착
후지
##구이
##귀한
##모을
타리오
##NBC
##{},
##그치는
##소관의
##신문을
##경제위기
##인도에서
##신한금융투자는
무스
##낮에
##대왕
##헤아
겼다는
##다르기
##파견된
##흑자로
##대변하는
##일상적인
##데이터센터
##태어났으며
##쏙
샤바
쪽은
##유휴
##테니
##통로
보험금
지로서
##감당할
##격차는
##박스권
##주말인
##출석을
##하룻밤
##하얏트
##방해하는
##수의계약
힐스테이트
##청해진해운
산군
수립
환은
##계시
##증발
##표심
건강한
##붙잡혀
##무책임한
##적절하게
미숙
섬웨어
##방문에
##빠지게
##보수단체
##사실이지만
##넬
디젤
##봄에
##성화
##숙종
##여우
##178
##비교한
安倍晋三
시청에서
##검토해야
##상임고문
##외환시장
##필요하지만
##주가연계증권
Th
팀인
##동정
##분의
##토탈
배가량
##개막을
##김태희
##보안을
##작가와
##장면은
##창조적
##확실시
##승인했다
##환자들은
##바이러스에
중도
##접대
##케빈
##돌입한
##이모씨
##치료할
##겪으면서
##규탄하는
##늘리기로
##상회하는
##선수들은
##어린이의
##콜로라도
##쌈
비츠
##강철
##멀어
##뿌린
요인이
준다는
##48%
##강조해
##비금속
##통계에
##피켓을
##시스템도
역인
준혁
##공성
##마셔
##이반
##노력의
##아디다
##최시중
##추억의
##혼란에
##끌어올릴
##영역으로
##프라이빗
Fi
##KR
건설과
##본부를
##충돌을
##회원사
##힘들고
(2008
##점검했다
##주주총회를
##서울성모병원
백은
짐을
##결핍
##묵인
##불빛
##월별
##조차
대규모
##각지의
##부산은
##설계한
##시간제
##캐피탈
##페트로
공정거래
소비자가
야스
저런
##SA
경찰은
승장구
##남자와
##대출금
##되므로
##시대로
##이동훈
##심화되고
##어떻게든
##우수하다
로프
북스
펜스
##에쓰
##종족
맘뉴스
위기에
체험을
##날에는
##라인의
##맥주를
##소동이
##실적과
##어려서
##침몰한
두면
득이
소싱
-30
##기정
##안철
##진중
위성을
지도를
지방을
##교회에
##스위치
##운영될
##주식의
##금액으로
##드러난다
##원한다면
##참가자를
##대법원에서
워스
##것의
##구운
##멈춘
##천사
섭니다
##공간과
##기부한
##도봉구
##머물며
##수혜가
##정상이
##지시로
김영란법
##1890
##현장으로
##홍콩에서
~)
게요
증서
진호
##니트
##라덴
##약관
##청양
##출정
는다면
##구매가
##기프티
##이용섭
대학교의
민주당이
##러시아를
##시범운영
##커리큘럼
가자
##놓지
##입각
정치의
##Ass
##명이다
##무리를
##작업도
##접근해
만원대로
##강원도는
##경제부총
##부산진구
##블로그에
##조심해야
압박
##깊고
##모시
hong
##녹취록
##무인기
##전에도
##지금이
##표현해
트레이드
##비대위원
##제한된다
##한국기독교
##과대
##주효
가입자
-100
##업무용
##혁명을
나가겠다
해양경비안전
My
보험을
##Mon
##꿈나무
##세워져
만원부터
##개선해야
##재정적자
##출마선언
##가능합니다
념이
##넓혔다
##돌파를
##이용에
##카운티
##많아졌다
##사회적인
##위험자산
↓"
꼴로
(47
win
##na
##레일
##탈루
##고유한
##교육용
##권성동
##기사의
##나왔고
##때문이
##문건을
##분양권
##신청자
##아쉽다
##파리의
##폭우로
##프로포
##변호인은
수배
술이
##갇힌
##단수
##동학
##용선
개사를
##256
##처지에
했는데도
##적용하면
##제출하고
##금융위원장
##람보르기니
나누
분배
암을
##아서
##없앤
##560
##순위에
##와이어
##이지스
##기관투자
다르
최소
##잔잔
봤더니
##49%
##발코니
##생기지
##아이패
##차원이
##입소문을
##시각장애인
##정권교체를
자랑
증세
##IA
##잃을
##장원
##중흥
##지우
공항공
우위를
주들의
통으로
##고르는
##금리로
##내렸고
##아내는
##안정에
##진로를
##펼치며
##회담이
##강화된다
##농장에서
##프로게이머
입은
udi
##공덕
##본질을
##삼계탕
##세심한
##지속된
##진행이
##형편이
안전관리
차전에서
##공화당의
##보장하고
##쏟아냈다
aa
겠네
길과
(49
##하비
조차도
##겪었던
##부적격
##색상은
##센다이
##이상에
##제사를
##최씨가
##출동해
##거느리고
##아름답게
##이슬람국가
자형
##바를
##색이
##속보
##원씩
공원의
##문서는
##전반기
경제신문
##대법원이
##세부적인
##지원받을
##하락세가
##빅데이터를
MR
##쉰
걸스
높이
##광대
##닦아
##미생
##서인
##소치
##쏠림
##천일
##540
##랴오닝
##연장선
##인수할
##주택이
##질환이
##대다수의
##무역수지
##부실채권
##알면서도
##허용하고
##삼성전자를
거제
먹을
##강태
##애덤
##후안
감독을
자였다
##말하지
##보고한
##설정해
##연구용
##와이드
##중징계
정책과장
NYMEX
##늘어나게
##반영됐다
##바삭바삭한
##스마트워치
##스트레스가
성민
오나
##봄꽃
##희극
##바른정
##생활가전
##주축으로
령과
영진
환승
ING
~70
스트가
제철소
총회에
##연출을
##움직여
##총재의
##교과부는
##극장에서
##무시하는
##지원받아
##전망했습니다
다비
원정
##고노
##어항
##다세대
##서한을
##에어로
##연출한
수익률은
##보스니아
##전체회의에
newstopic
럽다
선조
시노
행에
##뼈를
##주임
##징벌
##추계
예정인
회복을
(26)
aria
##업무의
##전환한
##최씨의
##많았으며
##패키지는
연구위원은
##러시아에서
handler
pm
##To
##동등
##맞선
##침구
가능성
##다음해
##서울경찰청
러지
런치
최진
104
##연회
##주안
##억울한
##제재가
전문대학
##빗방울이
##선정되는
##승객들이
##사람이라면
산학
콘을
##내정된
##새로이
##철학자
대로라면
##기각했다
##부산시민
##불확실한
##사람들로
##자동차용
##상승하면서
##University
별게
히면
tif
##본능
##신간
##잔혹
삼국지
##'';
##다지고
##유수의
##인해서
##장군이
##저장된
##기업들도
##일문일답
##평양에서
##현대적인
##부장판사는
##판단에서다
##홈플러스는
니카
접근
##cm
##랭크
##여관
##출두
나가야
스터디
##nsc
##대선이
##분당구
##자체로
업체에서
mainnews
zz
네는
송금
영석
화력
});
##UI
##바흐
##제독
##탁구
##173
##소형차
##수치로
##올라서
##창문을
##하므로
##취업포털
##회동에서
:208},
nIndex
oFoggy
##aImage
TopicList
sNclkHead
##aImageSize
currentIndex
##첸
##KN
##자초
##향응
자리가
##162
##뉴욕주
##늘려야
##상반된
##성적은
트레이딩
##극적으로
##근로소득
##반려동물
##소개하며
##중심에서
##지정하는
##프랑스에
##사회적경제
HC
##곡성
##시즈
##역점
##그렇죠
##도시와
##동안은
##롯데는
##자존심
##하늘에
##인사혁신
##추진하겠다고
##서울중앙지방법
근거
돈의
장난
킨슨
##불화
##아산시
##안양시
##예상한
##테슬라
##하고자
##기다려야
##기술적인
##실시됐다
##울산지역
##‘2010
순찰
##Tr
##구가
##모빌
##안간
##튜브
교수로
란드는
##김치를
##요구는
##피했다
##한국교
##현실과
##회복될
평균지수는
봉은
우편
##리커
##박씨
##빈소
##열이
3500
##심리학
##조정호
##싱글이다
##팬들에게
##현실에서
##국무총리실
##분데스리가
##조금이나마
’-
##부연
##석조
##퇴사
##일제의
##중환자
##뉴욕증시
##당사자인
##상당수는
상금
오게
피로
##-[
##맛의
##삼화
##종양
##권은희
##연예계
활성화를
##강원도의
##관해서는
##싶어하는
##전시한다
##카테고리
##스튜디오에서
##중화인민공화국의
##호송
됐는지
받으며
##FDA
##ING
##검출된
##국민에
##금액에
##넘어갈
##유모차
##주택은
##추진이
##거듭하고
##기부하는
##이사회는
##자동차는
##예비타당성
더벨
돼서
브이
##En
##기갑
들끼리
##가로지
##관세를
##도이치
##목격자
##밴드의
##선출을
##시제품
##예고한
##엄청나게
##운송장비
##유리하게
##지배적이다
곡면
비고
신에
정거
##-5
##민요
##세관
##제창
##조미
##희석
##승리할
##경연대회
##국내업체
##합리적으로
##휴대폰요금
)©
팔자
##강모
##격돌
##을지
##강용석
##무지개
벤처기업
##국제협력
##다이어트를
발달
##깊다
##난항
##당과
##틀림
##한잔
##합헌
당분간
##가겠다
##관광을
##유통업
진흥원은
##교사들이
##보인다는
##사업추진
##월드컵에서
에듀
운틴
##챙길
##출렁
##치마
서귀포
##걸맞게
##메디컬
##야당을
사무소를
조선일보
통합진보
today
##있거든요
##전자금융
##직전까지
##끝을
##순직
##인슐
했으니
##싶어서
##인파가
##제정한
##채용한
##탄력이
사업자가
##3.0%
##불법사찰
##시그니처
##합동참모
##이용자들에게
##한국항공우주
약정
##꼴찌
##분홍
##재기
##검사의
##세워야
##열차에
##제출된
리니스트
장관회의
After
##쓰레기를
야를
퍼스트
##수행해
##어제와
##인상과
##들어서면
##기조연설을
##한국콘텐츠
##2017.5
’)
인선
##리마
##모유
##항균
는지도
중이던
##보여야
##부족을
##직접적
##기존보다
##데뷔전을
##부상했다
##권한대행은
##분석했습니다
##쯔
운항
LNG
##기와
##덮어
##설립에
##수상을
##신사동
##준다고
##통제를
8,000
##개발됐다
##무더위가
##정치권은
##투자자를
##흔들리는
##모델하우스
chnology
목의
봐도
썼다
캡슐
##엽기
##157
##눈물이
##알리지
##와일드
##황사가
##연휴기간
##평균보다
##확보하게
4.
보완
픽스
##증식
##직행
##한스
욱기자
##나서며
##왕위를
##위자료
##정리를
##제주를
##만들었고
##재래시장
##출사표를
##하락폭이
##So
##왕족
교사가
드리아
##마련될
##반발로
##살펴보
##위기로
##주차된
제르바이
##담당하게
##시상식을
##폭포
대서양
설계를
재단을
전진환
##입주할
##경제수석
##다이내믹
##분양가가
##살펴보니
##일종으로
##환경노동
##누리꾼들의
##민주화운동
방송통신위원회
GE
당장
되다
못해
회씩
##조민
관계는
사이즈
##구축함
##몸매를
##미지급
##민경석
##부유한
##북부의
하였다는
##막론하고
더위
##보디
전략은
지수와
##470
##넉넉한
##발행된
##호텔은
소상공인
KAIST
##말합니다
##민간투자
##의혹으로
좌상
##늑대
##도축
##선뜻
선물은
황교안
##164
##보도는
##안보를
##여성에
##해군이
##사들였다
##서울국제
##이루었다
##소비자들을
등기
##!!
##바란
##봇물
##성벽
##터질
##호칭
었는지
##광주와
##국적의
##다니고
##업종을
##튼튼한
##선생님이
##내년부터는
ication
사주
##김소
##페널
##할로
##구석구
##올리지
##참여와
##품목의
##건물에서
##사업자로
##올랐지만
##임직원의
##롯데면세점
##업무보고를
전원
체중
혼자
##책봉
##히타
는다는
##세계는
##운영비
##자릿수
##체결할
##업무방해
##처음입니다
##파리바게뜨
농림
##Ex
##남도
##서상
##심부
##4~6
##교장은
##범행에
##별자리
##부끄러
##작전에
##국립현대
##생명과학
##유명세를
##이용객이
고정
자수
##곡의
##수혈
##직급
##Air
##결제를
##구미시
##답답한
##도전에
##무허가
##요청해
##조달청
##지수도
##초반의
##택했다
##떨어지지
##밑돌았다
##요인이다
##정무위원회
##남하
##마녀
##번개
##자급
##젤리
##짙게
##짜릿
채널을
##공모에
##메달을
##진영의
##현상에
##선관위는
##신제품은
연석
398
##시무
##가지며
##근절을
##맞지만
##빼돌려
##선박이
##아리아
##장르를
##전시장을
##지역구인
억원이었다
##무소속으로
kk
도덕
도매
##개항
##내성
##내집
##마냥
##비호
##전할
##칭호를
법인으로
##1894
##모바일앱
##자기주도
##지지하고
강신
겔라
립대
인더
##구릉
##비법
##좌측
##줄리
##최광
##퇴각
##선생은
##연고로
이라든지
##거시경제
##구조적인
##살해하고
##자매결연
##진입했다
##참전용사
##몰릴
탈주민
##위치와
##퇴직금
##표시가
##흔들림
##히가시
##명분으로
##스스로가
##직후부터
##확정되지
CL
주현
전경련
##등과의
##면적을
##방한한
##변경해
##거래하는
##두드러진
##재테크도
##중순까지
##콘셉트카
볼까
##땅의
##중량
##흥국
공정위
전시관
##47%
##건가요
##궤도에
##물티슈
##식생활
##임원이
##적외선
##총회를
##희생된
##공격했다
##카페에서
##부위원장은
##중장기적으로
_6
신사
이통
##무모
##성추
##투옥
##경비원
##나누며
##발사에
##이철우
##일본식
##회복과
.2012
##주택가격
##진정성을
교역
끼를
##약칭
##단서를
##도미노
##메뉴로
##장마철
##저자의
##착수할
##코스로
##나중에는
##못한다면
##특검팀은
증권거래소
##오래전부터
##오스트리아의
권한
귀한
##바젤
##양조
뉴스부
억원씩
##전해드
##청량리
##확대는
##아이폰을
##역임하고
kukinews
##비상대책위원장
단절
스폰
진수
eri
##방청
##비둘
##여주인
##이래로
서비스의
스러움을
##예고하고
##포스코가
##절대적으로
##악마
##흑백
티미터
##그래야
##말다툼
##매장은
##세계화
##스미싱
##전날과
##호조로
슈퍼스타
##사법처리
##우려되고
##조성한다
##삼성물산은
@-
코와
##안병
##억지
##위축된
##전환에
##조선업
##지갑을
##미래지향
##관광객들의
##어떻습니까
관한
렌토
잠재
헤어
##QM
##루비
##벗은
##위와
##추리
##빠지고
##사형을
##신뢰도
##예선을
##절감을
##제출을
##촛불을
##확정한
##내려갔다
##착용하고
##차지했으며
##한국개발연구원
선행
임용
자스
##공이
##두자
##심문
##안될
##지양
##기기에
##대비를
##불분명
##친숙한
부문에서
##복귀했다
##수상하는
##인사하는
##제공되며
##둔다
##어땠
##자갈
##공고를
##그래프
##날렸다
##들으며
##수립해
##연계를
##엇갈렸다
##벡스코에서
고문
새가
실명
##손톱
##항모
나라에
보고를
##가져와
##후보인
##휘두른
##제작하고
제르바이잔
턴은
해소
호인
##고착
##대에
고에서
외교부
현황을
##도와주
##순천만
##스케줄
##아동을
##재산은
##절반은
##아버지인
애니메이션
##국민의당이
도구
인명
##템플
##핵탄
께서는
(27)
##말했고
##민주적
##예비역
매일신문
카드뉴스
##결선투표
##문제들을
##부문으로
##스위스의
DJ
RL
##기승
##산과
##시칠
행사는
##동력이
##시장인
##음식과
##해상에
하이마트
##가고시마
##육성하고
##자진사퇴
##전기가스
##카리스마
새누리당이
##선임했다고
ki
찬선
##뒤처
##열악
##층을
##""9
##교환할
##만들면
##심혈을
##일관된
##직전인
##나왔지만
##사랑받는
##카메라가
##하나였다
##톡
공관
성취
표에
##무심
개월로
대학에
봉사를
##먹었다
##탈당을
##홍익대
##롯데월드타워
개나
사물
산도
이인
테쓰
##jj
##쪽의
교육부
분들이
##낙찰가
##날개를
##모자를
##외쳤다
##했다면
##만든다는
##익스플로
##지정됐다
##40~50
강세
벤져
##모션
##아담
##차근
지스터
##가하는
##남는다
##부리고
##뿌리는
##중랑구
##추가할
홈플러스
##차단하고
털이
cus
##되레
##직불
##타율
손학규
##김승연
##등산객
##혁명의
커뮤니티
##방지하는
##저질렀다
##참석자들과
We
##숱
하겐
##별이
##원상
##초선
손가락
##6.3
##민심이
##용어로
...”▶
##2800
하이브리드
츠크
##꽁꽁
##사리
채권을
##교사로
##바꾼다
##바다와
##생존자
##업체다
##이용권
대책본부
##4.2%
##생산량은
##협의회는
EG
고창
##내재
##특구
##5.2
##생활비
##슈퍼카
##입찰을
##증세가
##협력과
##효력이
교육청에
음으로써
##변경하는
##이색적인
##조선인민
##지자체에
netphoto
##망라
##밑거
##서사
##싸울
##기기의
원으로서
##겨울방학
##실무접촉
##해석했다
##지역에서도
과대
주목
평이
##EC
##군정
##그곳
##송재
##쪽방
##한컴
##행적
검사는
겠으나
스피드
차에서
##댓글이
##소나타
##유무선
##나오는데
##재외동포
##참여하며
무형문화재
##정치권에서
##한국경제신문
개팀
##영사
##횟수
냈다는
##5.3
##나흘간
##부실한
##의장과
##주인을
##참여로
##향하던
##안된다는
##카메라로
hi
##졸라
##진두
증권의
##당당한
##버스에
##않으나
##완주군
##집어넣
##채택된
##특허권
##방향성을
##생활체육
##First
특강
##분신
##순위는
##실행할
##이력을
##종교의
##죽이는
##특징인
시민기자
##성형수술
##Click
##연합뉴스가
##한국무역협회
까진
아람
NYT
##납북
##잔치
##한종
론이다
웨스트
##서명한
##영상과
##진행자
##분양하는
##채권단이
##근로자들이
##아이폰에서
선사
##마카
지었다
##김포시
##상대가
##앨범의
##중화권
##다가왔다
##학교법인
##예정이었지만
##프레젠테이션
##골반
##노령
##슬라
공시를
확대를
##군대에
##뜨거워
##만족할
##연봉을
##왕으로
##제목은
##급감했다
##석유제품
##투자한다
##호텔롯데
##되었습니다
##노다
개사의
교차로
game
##기억에
##니즈를
##증대를
##효능이
(2006
##지어졌다
하이닉스는
머신
무실
홀름
##고운
##리오
##위드
##타면
9%),
##물어야
##실현할
##대체하는
##고은
##국수
##세례
##신명
##잔해
##핸들
##내시경
##담뱃값
##원하고
##인플레
##총선거
##행사한
등급으로
##지금까지의
겠지
##누진
##있긴
업계와
해야할
##건설된
##날씬한
##수신료
##아저씨
##낮아지고
##중심기압
##0.01%
,6
자책
절약
##꽃은
##니켈
##붙을
##지켰
저소득
##견고한
##김재홍
##다지는
##레지던
##변경된
##손님을
##이론은
##발생하자
##제시하지
##해소하는
##대학생들의
##돌파했다고
##시나리오를
##크리스토퍼
##프로젝트로
formula
펌프
##고르
##잔액
광화문
##노래방
##유래한
##블리자드
##자리잡았다
##질병관리본부는
↓]
긴장
필립
##곡이
##느슨
##선주
##오타
##윤진
상반기
##노인이
##지하에
대학교가
##서울행정
##발생하였다
##열렸습니다
##활약하였다
간편
급수
하로
gen
##유희
##종착
년만기
어나는
(63)
##161
##마당에
##복귀한
##엔트리
고속철도
##현대오일뱅크
평창동계올림픽
##뉴욕상업거래소
도입
##엄지
시아드
통신사
ject
##김기현
##양산시
##원리금
##위상이
##발생하기
##시작하게
##정리해고
##투자자는
)▲
만년
시정
인생
전면
헌재
##자전
##합한
발전의
증명서
##부행장
##전파를
##캠프는
##아케이드
##알려지자
리움
무근
##숲을
##해밀
사업도
##5.6
##누구를
##법률을
##원칙이
##경남지역
##산업으로
##소극적인
##질타했다
##평안북도
##급파
##꽃게
##미분
...’
##중장년
##크레인
##들어간다고
##마지막까지
향상
##MK
##하죠
##곳곳을
##금융업
##제국이
##Line
##공감하고
##슈퍼스타
##펫
##상부
##영예
##지오
검진을
주식형
##184
##공격해
##만나기
##오르게
##재조정
##주축이
##관광객은
##교육환경
##기술력이
##인천에서
8'
習近
답을
쉬운
##거지
##건에
##상록
##이맘
rame
##경영학
##스타벅
##오류를
##후보들
##초청으로
##yulnetphoto
코너
##다발
##평판
##해부
그룹을
사실상
##곡이다
##권력이
##도로는
##병으로
##분양할
##이어지며
##제주에서
##so
##엔비
習近平
다시피
류형근
##살피고
##용적률
##지킴이
##추진과
시켰으며
##대중에게
##부상하고
##예상되며
##경기에서는
##관련해서도
##분야에서도
노가
당권
싶다
악을
##가두
##고치
##밤샘
##병에
##와카
분이면
학교와
해지기
(25)
##DGB
##노숙인
##하이닉
##허창수
##경제학과
##부산시장
##사후관리
##구조조정에
##딘
대피
특급
##바빠
##우물
##한영
단체로
사태를
여종의
펀드가
##'19
##산업계
##티아라
##사실상의
##상징적인
##추진되는
룩을
천문
##PP
##《》
##생동
시각각
##나이를
##배치에
##패턴이
폭스바겐
##드러나고
##정신질환
스탁
DTI
##각질
##총대
##힘은
##720
##UFO
##기간과
##김수현
##대우를
##두터운
##바비큐
##앱으로
##주얼리
##측면도
##혐의는
고등학생
수행게임
##현대캐피탈
##깡
울을
재킷
크셔
##견뎌
##세네
##왕비
##펌프
##포병
그래도
김경목
##are
##거래에
##맡기고
##명에게
##생겨난
##천황의
##초소형
주택조합
##근무하던
##모발이식
동맥
바를
죄가
##우면
단속을
리지만
미국과
##공단은
##꼬리를
##탈락한
##평가절
##다각적인
##세미나는
##이유로는
아트홀에서
미선
##땅콩
##미숙
##보트
김종인
##ARS
##대부업
##묵묵히
##얼굴은
##특성과
##Good
##서울서부
##유권자의
##이상에서
하였습니다
##리투아니아
BL
총재
해변
##단결
떨어진
ator
##날리는
##미만이
##준하는
##컨트리
이야말로
world
거래소에서
본인
코아
##기요
##평정
면적은
방식이
음식점
차산업
코웨이
##더하고
##차례나
##코무네
##설치류의
##위험대비
##공무원들의
##니혼게이자이
과열
순은
종가
체조
투수
퍼는
##가변
##바보
##송시
##잠적
##펜타
##두가지
##등록이
##따지면
##보한다
##비해서
##주도권
##하나에
기준으로
##받아들인
##사용자를
##정권교체
##쏴
아쿠
웅진
존을
냅니다
##냄새를
##돌파할
##말씀이
[...]
